#version: 0.2 - Trained by `huggingface/tokenizers`
q u
Ġ a
r a
Ġ e
Ġ d
Ġ p
Ġ c
qu e
Ã £
Ã£ o
t e
Ġ n
Ġ m
d o
Ã ©
Ġ s
Ġ v
a r
e n
. .
s s
Ġ que
i n
Ã ¡
o r
e r
Ġ f
Ġd e
t o
Ġ o
a n
o m
u m
a l
Ã ª
Ġ t
o c
Ġ Ã©
a s
i s
r e
d a
r o
Ġn Ã£o
t a
d e
h o
.. .
h a
Ġ um
oc Ãª
e m
o n
Ġ te
Ġ b
e i
o s
Ġe s
o u
Ġ g
Ã Ń
i a
Ġe u
ss o
e u
l e
en te
qu i
a i
i m
a ra
Ġc om
i c
Ã §
l a
Ġv ocÃª
e s
Ã ³
a m
Ġ i
N Ã£o
Ġa qui
Ġ l
E u
an do
Ã ī
r i
Ġn o
Ġd o
g o
e l
t Ã¡
Ġg ente
g u
Ġp ra
i l
Ġp or
Ġi sso
Ġum a
Ġte m
a b
ss a
Q u
in ha
o l
Ġn a
Ġd a
Ġf a
Ġf al
Ġs e
u n
Ġa ÃŃ
Ġe n
Ġa c
Ġ j
ss e
g a
Ġv ai
u l
Ġc on
Ġ re
Ġp e
d i
Ġe m
Ġ C
u i
Ġm a
Ġ P
t Ã£o
Ġes tÃ¡
Ġ qu
h e
V ocÃª
m a
v a
Ġ A
Ġ M
Ġt Ã¡
in ho
Ġ D
o is
Ġm e
t ar
Ġf o
Ġfa z
Ġ to
p a
t i
Ã ´
Ġ S
en do
Ġe le
u s
Ġa m
to u
t ra
i o
Ġd i
Ġm eu
Ġp o
Ġc ara
h or
ic a
Ġp a
Ġn Ã©
Ġt u
Ġ in
Ã© m
E s
Ġ T
c a
Ġs en
Ġv i
Ġv ou
Ã§ Ã£o
Ġma is
Ã§ a
c o
go ra
Ġa l
Ġl Ã¡
Ġ B
am os
ra n
ui to
Qu e
l ha
p o
Ġp re
m o
v e
Ġs Ã³
c e
E n
p e
P or
c om
Ġa ss
Ġp ara
Ġc ois
Ġp ro
te n
Ġs ab
Ġs u
t ro
Ġv er
Ġo u
Ġ J
g ar
M as
Ġm es
p ra
Ġj Ã¡
Ġ O
Ġ R
Ġ V
da de
c i
ei ro
p or
Ġs er
Ã º
Ġ F
Ġm uito
Ġa n
Ġpor ra
um a
Ġe ssa
Ġm inha
Ġcois a
x a
Ġp er
in a
eu s
Ġes tou
i r
Ġque r
Ġfaz er
Ġde s
Ġ "
am b
Ġb em
v o
Ġa gora
Ġn e
T Ã¡
I sso
Ġte r
Ġe sse
Ġc a
Ġfo i
Ġ ho
Ġass im
n a
Ġsen hor
p re
Ġ L
Ġmes mo
En tÃ£o
Ġb o
Ġb om
Ġte n
s e
Ġtu do
i z
i ra
Ġc as
ri o
Ġ h
Ġ N
t u
en to
Ġ G
Ġ E
in do
Ġam or
c ia
v er
s a
Ġf il
Ã§ o
Ġi r
n o
ra s
amb Ã©m
C om
ĠD eus
Ġe la
r u
Ġfal ar
A h
d er
Ġqu Ãª
l ho
Ġt ra
Ġ NÃ£o
t Ã©
el o
o ra
Ġpo de
Ġp r
i go
Ġpe sso
n Ã£o
Ġs ei
Ġto do
a c
un do
O lha
Ġm as
Ġt ambÃ©m
Ġe x
ic o
te r
Ġc ar
Ġp ar
v i
Ġs eu
ĠvocÃª s
c is
e z
Ġs ou
ic ar
Ġ Ãī
l o
Ġs em
a do
Ġ le
c ul
Ġl i
m as
im a
an a
Ġ Ã³
V amos
T em
Ġ Eu
al a
S e
b ri
h er
Ġsab e
j e
Ġm en
u r
c on
A ÃŃ
u ta
e ra
Es tÃ¡
Ġm im
Ġcom o
Ġen ten
E le
Ġg os
Ġes ta
Ġo s
Ġm undo
gu Ã©m
ga do
m ente
s o
r ia
Ġcas a
Ġse gu
Ġc he
oc a
b a
Ġn em
Ġm an
Ġna da
Ġa r
Ġsu a
Ġ he
Ġpor que
ei o
an te
Ġpre cis
m ar
Ġd Ã¡
Ã£ e
Ġten ho
Ġt a
p ara
Ġa s
ro u
Ġc h
om e
Ġd ia
Ġc ha
Ġre s
c io
b er
Ġd ar
Ġhe in
m Ã£o
z a
Ġm er
d ar
de u
Ġac ho
m e
b al
Ġde i
Ġc or
Ġa p
Ġes c
Ġa tÃ©
V ai
Ġ 1
in h
ei to
t ando
Ġde le
Ġc er
t or
Ġt Ã´
Ġen tÃ£o
Ġt i
T u
on te
Com o
Ġ ra
z er
Ġque ro
h ar
Ġ Ã
im o
ei ra
cul pa
Ġf icar
Ġe ra
e c
Ġt r
Ġs a
Ġs ai
en s
Ġir mÃ£o
Ġal i
to s
Ġfal ando
pe ra
g em
g ra
l i
o i
Ġque m
p er
Ãª n
p i
in da
por que
te i
Ġ 2
t re
Ġ I
on a
Ġj o
d as
Ġ la
Ġtem po
Ġo n
Ġtra bal
b ra
ras il
Ġfal a
Por que
j a
Ġp ou
Ġc an
Ġv ol
ar o
ĠM ar
v or
Ãª s
v ocÃª
n e
Ġm o
l ia
Ġfil ho
Ġs o
O i
i dade
Ġm or
ab e
Ġcom e
do s
A i
M eu
Ġcara lho
Ġa que
P o
Ġfa vor
D e
â Ģ
Ġho je
Ġmer da
f er
te m
Ġm Ã£e
ra m
t r
b l
g e
C ara
b o
Ġn ome
S Ã³
t as
Ġo lha
Ġvi da
Ã ¢
Ã¡ s
di o
p ois
ul her
Ġ U
Ġv ez
Por ra
" .
c er
r is
Ġv amos
ho ra
i to
j u
Ġc o
ran do
g al
do r
is ta
b re
A gora
u ra
A c
in guÃ©m
Ġesta va
Ġpa ss
t inho
Qu er
Ġne g
t Ã³
v el
N o
Ġf ica
Ġm al
i te
Ġ H
Ġc am
se gu
Ġv em
Ġt inha
Ġac onte
Qu em
an to
Ġb a
ĠP or
e le
Ġ ro
Ġal g
j o
Ġf or
Ġver dade
al ma
g ou
Ġ im
Ġou tro
v ar
gu n
x o
V ou
i g
c ar
ta m
D es
tra r
âĢ Ķ
Ġm ulher
Ġac ab
em a
e la
i u
i ta
Ġ Ġ
Ġfal ou
Ġ us
d u
A qui
el hor
in u
Ġb an
Ã Ķ
en tro
Ġa i
t al
J Ã¡
Ġele s
Ġprecis a
f a
Ġl u
que r
Ġqu ando
h ei
Ġs im
Ġbo a
Ġa ju
f e
i do
Ġ r
bri gado
g ando
Ġpo sso
Ġ Ã¡
re s
un ca
E sse
Ã³ s
Ġ VocÃª
z inho
te s
Ġm ar
Ġcon he
ĠÃ ł
inh eiro
Ġac ha
p l
Ġp ens
Ġp elo
d inho
Ġ Ċ
Ġt ran
Es tou
Ġan os
' '
Ã³ cio
Ġd os
de s
Ġte u
h ando
A l
Ġc u
Ġc ol
Ã¡ rio
Ġ W
en ta
Ġes tÃ£o
in o
Ġ Que
an o
ĠT Ã¡
M e
Ġdo is
ĠB rasil
Ġpesso al
c ha
Ã µ
Ġcon segu
Ġsen hora
Ġ ru
Ãªn cia
a is
Ġsab er
e ce
v il
Ġneg Ã³cio
d endo
Ġv endo
Ġgos to
s on
Ġd inheiro
Ġou tra
c h
Ġno vo
Ġfaz endo
U m
d ia
ÃŃ cia
Ġtu a
l aro
Ġg ra
Ġcom igo
Ġdi zer
p ar
Ġa o
Ġm elhor
Ġqu al
Ġam igo
en h
Ġpou co
Ġa inda
? !
Ġcome Ã§
Ġquer ia
E la
d Ã£o
ĠP a
Ġl o
G ente
c il
Ġho ra
Po de
bl ema
ti r
Ġcois as
Ġon de
Ġs Ã£o
ei xa
A m
a da
Ġpesso as
a qui
u la
Ġm eio
Qu al
Ã´ n
l Ã¡
Ġc Ã¡
ss as
" ,
t imo
gu a
Ġfal ei
Ġcon s
p ro
Ġp uta
Ġdi re
Ġb e
Ġvi u
i ga
en a
Ġpe di
Ã¢ n
Ġes tar
. "
v ai
Ġm il
in al
Ġpesso a
in g
Ġdi sso
Ġle gal
P ra
or m
ga da
Ġaconte c
Ãµ es
ul ar
an Ã§a
Ġ -
Ġ 3
Ġp ai
Ġem b
Ġc ri
an d
Ġh om
Ġsai r
0 0
ma is
F oi
Ġcon ta
P e
ÃŃ lia
Ġv o
ci on
B om
i da
Ġd entro
Ġn inguÃ©m
Ġres p
P a
Ġ ia
Ġde la
ara vil
Ġpro blema
Ġd u
Ġno sso
Ġto da
tu ra
F ala
Ġn enh
Ġf ez
is te
P ara
r in
in te
Ġem pre
Ġdei x
Ġalg uma
ver s
a d
i t
Tu do
Ġde pois
ic i
E ssa
Ġenten deu
Ġtrabal ho
Ġ un
Ġc ai
que i
Ġcar ro
Ġta va
i sso
v is
Ġda qui
B o
Es pera
Ġpa ssa
an ta
ĠC ar
qu inho
Ġper gun
Ġno ite
! !
D eixa
Ġf i
Ġdei xa
T o
Ġp u
Des culpa
Ġsem pre
Ã© rio
Ġf iz
i d
Ġm Ã£o
ĠP e
Ġpre s
ĠR o
Ġ ?
re di
ul o
A A
Ġn unca
ĠM a
Ġf am
Ġpe la
Ġcer to
Ġt ira
p os
Ġv ÃŃ
es us
o o
Ġaque le
a z
Ġv en
Ġen tre
Ġfo to
Ġne ssa
e sse
Ġb ar
Ġg an
ara m
Ġpe gar
t ante
Ġa b
que le
com o
es tÃ¡
e ssa
m os
Ġqu is
VocÃª s
ta do
gu ei
Ġlu gar
Ġ rou
en hor
en Ã§a
Ġpr im
v al
ta mente
Ġin ter
Ġp ol
Ġs al
Ġ Ãº
Ġde u
el ular
R A
b e
a ÃŃ
Ġm inu
ÃŃ vel
Ġv Ã£o
Ġes que
Ġno ssa
U Ã©
U ma
h Ã£
u do
Ġf r
Ġan o
Ġtodo s
N a
Ġc abe
Ġg al
ic ou
ĠC om
En ten
Ã ĥ
es ta
ĠA l
Ġfil ha
V em
Ġde ssa
ei a
im ento
Ġl em
Ġou v
l as
n s
ra r
Ãº s
f i
Ã© u
pa z
Ac ho
S im
Ġc al
Ġdes culpa
c l
ÃŃ n
Ġsab ia
Ġvol ta
Q U
f or
de i
ss es
or ge
Ġac redi
Ġfam ÃŃlia
Ġv ac
re i
Qu ando
Ġhom em
O pa
Ġcom p
am ento
Ġv ia
Ġla do
f on
Ġp l
el iz
Ġemb ora
Ġal guÃ©m
Ġsegu n
f o
s Ã³
Ġp os
Ã§ as
Ġpa u
M uito
P Ã´
ro n
ÃŃ s
un to
Ġdi z
Ġin te
g re
te za
oc ar
Ġtr Ãªs
Ġcabe Ã§a
f ÃŃ
ĠV amos
al mente
Ġsegu inte
v en
Ġn as
Cara lho
Ġpass ar
ui ta
Ġvez es
Ġc elular
ti do
Ġres ol
c os
Ġ K
Ġaque la
Ġe r
in ar
de ira
Ġpe ga
ĠV ai
er o
us a
Ġpr Ã³
Ġfr ente
Ġf u
an da
ti vo
ĠÃ³ timo
t ica
Ġ 5
Ġde sse
Ġb on
Ġre la
l os
Ġs ol
Ġf un
Ġb ai
el ho
ber to
t inha
as e
Ġg a
Ġsu per
Ġcer teza
j Ã¡
Ġmen os
Ġesc ol
Ġ2 0
Ġquis er
tÃ³ ria
- [
r im
Ġc in
que la
Ġcom er
tei ro
os o
di da
Ġh is
Ġsem ana
Ġgos ta
C alma
g io
k e
Ġc ima
Ġv al
Ġde m
Ġpa p
inh as
Ãºs ica
r er
Ġre p
fÃŃ cil
v ou
Ġ Es
Ġd as
que s
an ha
h h
Ġc ur
Ġo l
Ġb rin
Ġen trar
Ġle var
de o
Ġre c
Ġfo ra
ĠN o
x e
re m
Ġm aravil
Ãĥ O
I n
r en
an e
Ġti po
Ġt Ã£o
Ġ Isso
Ã© r
Ġes pe
Ġl ou
gu e
di do
g i
h eiro
Ġqu ar
ĠM as
tra n
Ġpr oc
P elo
d ando
Ã ĵ
Ġes pera
am o
ĠD E
ĠcomeÃ§ ar
Ġa ten
Ġcon tra
Ġne sse
Ġmal u
Ġdeix ar
Ġm u
Ġque ri
Ġpo der
Ġprecis o
m ba
Ġm ora
on ta
Ġin do
Ġra paz
cl us
S abe
b ro
d inha
Ġp i
Ġbo tar
ĠĠ ĠĠ
Ġru a
t ima
Ã© ri
Ġcom pra
Ġj eito
ĠO lha
M ar
ĠJ orge
Ġaju da
i ve
de ia
Ġdi fer
Ġap ar
c ando
Ġacontec endo
Ġn um
Ġm uita
Ġso bre
O u
a a
Ġ or
ra do
er Ã¡
Ġb rasil
Ġin s
g ina
ss Ã£o
ss im
Ġche gar
Ġacab ou
Ġun s
Bo a
Ġgal era
T Ã´
a tro
Ġ ,
Ġc l
oc o
Ġdi fÃŃcil
ĠÃ¡ gua
Ġ X
Ġt ar
Ġb ol
Ġb oca
ac ana
Ġtran s
b i
Ġd ou
Ġc ab
ca do
Ġcha ma
gra ma
No ssa
Ġ Z
Ġm os
m eu
t indo
Ġa do
Ġfa Ã§o
ĠC a
Ġto mar
Ġass is
Ġdu as
g ia
Ġp es
Ġcon f
Ã´n io
c or
Ġv Ãª
Ġf inal
ĠA h
Ele s
Ġpou quinho
C ar
L e
p p
z inha
Ġex pl
P uta
m ando
u ro
v ol
Ġa tra
en sa
de m
Ã© s
Ġo brigado
Ġt al
Ġqual quer
Ġlo go
ad Ãª
Ġv a
Ġam iga
Ġcri anÃ§a
Ġtira r
D O
c eu
Ã ģ
Ġd is
Ġm ai
in e
is a
ĠJ o
ĠR e
p lo
t il
Ġ '
Ġm om
Ġo lho
ĠL u
M inha
O brigado
s em
t ia
Ġ ima
Ġv eio
Ġb ic
Ġg u
Ġjo go
Ġim por
D Ã¡
Ġac hei
ĠvÃŃ deo
C laro
F al
b s
Ġh um
Ġpar iu
Ġman dar
Ġmom ento
I h
f ica
ra da
Ġp Ã´
Ġli v
Ġaju dar
Ġtran qui
" ?
S ai
Ġa bri
Ġn Ã³s
ha t
Ġg ran
Ġen con
Ġvac ina
O s
P ar
t ico
Ġ EntÃ£o
Ġe ssas
ĠA n
ĠT em
Ġpro grama
ĠÃº l
c ho
i b
l io
v ia
Ġp as
Ġcon vers
ĠB o
Ġho ras
Ġcha mar
Ġalg um
QU E
F ica
e e
Ġes p
id ente
Ġhis tÃ³ria
clus ive
Ġb ran
ĠP o
ado r
d ro
r un
Ġ 4
Ġn os
le s
Ġfo da
xa tamente
Ġcor po
tÃ³ rio
f eito
v em
ĠS u
ĠR io
Ġfil me
Ġmor re
Ġnenh uma
P ois
S eu
Ġi deia
Ġl ic
ĠL e
To do
v os
Ġl im
Ġlem bra
Ġre ais
Ġh Ã¡
Ã¢ m
C on
m uito
Qu Ãª
T A
n i
t inu
Ġa u
Ġm Ã©
Ġpar ece
Al Ã´
Ġpedi r
? "
C he
c ara
Ġs on
Ġf ec
on de
Ġg ru
Ã§ Ãµes
Ġin f
ĠV al
iz a
bri gada
Ġus ar
Ġnenh um
Ġm i
er n
Ġf icou
Ġre ce
Ġenten dendo
Ġmai or
o je
er ra
Ġf ui
Ãª m
ei ta
ci al
Ġti ve
Ġvol tar
P er
S erÃ¡
d r
ra l
en ti
Ġde ve
Ġan tes
ĠCom o
Ġmaravil ho
Ġtar de
Ġc alma
Ġm am
Ġum as
ri os
ĠD es
ne t
Ġban heiro
E R
or o
da do
ÃŃ cio
Ġenten di
Ġche fe
tr Ã¡s
ris os
l ar
te ira
Ġm Ã¡
Ġvi r
F az
O R
f al
s u
t ic
x i
to n
al ha
di r
ĠA m
ĠJ esus
Ġbe b
Ġdifer ente
c el
Ġd orm
en tÃ£o
gu al
Quer o
ĠPa ulo
Am or
Ġrep ente
P re
Ġc laro
en ho
Ġte s
Ġdi sse
ran te
Ġca usa
Ġr Ã¡
onta de
Ġlic enÃ§a
C adÃª
b ar
v es
Ġf eliz
tar ia
t an
â Ļ
ha m
Ġte le
ĠT udo
Ġsu r
ĠN e
Ġex em
Ġch u
pi dinho
D o
S ou
c as
f ic
qu ando
Ġc ora
Ġv e
ara n
Ġpa gar
ĠN a
Ġpar te
Ġli gar
Ġouv indo
Ġd ando
an i
am ente
Ġfo sse
ĠS e
Ġmeu s
ala v
Ġrou pa
ques tra
Ġqueri do
J esus
Ġp Ã©
en d
Ġg ol
pl ica
Ġru im
A L
E N
i Ã£o
qu ina
Ġn uma
Ġte ve
Ġg o
ui z
Ġam ig
Ġcara mba
Ġquer endo
Ġ1 0
Ġexem plo
A tÃ©
i on
x imo
ab ou
inho s
Ġter m
Ġcas o
Ġprim eiro
Ġgru po
S enhor
Ġa trÃ¡s
an ho
Ġpe d
Ġma tar
ĠG u
Ġtrabal har
Ġempre sa
Enten di
R e
V al
Ġa gu
Ġp ir
Ġs Ã©ri
Ġv ontade
en da
ta va
ĠD e
ti va
pre s
Ġmo le
Ġacontec eu
Ġbrasil eiro
R o
T a
r om
Ġs or
Ġam o
Ġcha m
r endo
Ġ hor
or n
Ã§ ar
ĠO s
Ġquer er
vi da
Ġman da
A R
A s
H oje
d Ã¡
i i
v io
z o
Ġ ri
Ġa d
Ġque s
di go
ĠS a
Ġcan al
ele za
Ġdire ito
fon e
ron to
a tÃ©
c re
g ente
Ġp alav
an hÃ£
Ġdi as
Ġbo ta
Ġmen ina
Ġcons igo
Ġcompra r
c u
c he
g Ã©rio
is to
ab a
Ġpa ÃŃs
Ãº m
Ġche gou
ĠMar c
tam os
Ġpergun ta
e ta
Ġ w
Ġ EstÃ¡
Ġon tem
Ġconhe Ã§o
Ġminu tos
d ico
p uta
Ġp on
Ġac or
Ġre almente
ĠM e
Ġgran de
H A
a p
g os
n de
Ġe l
Ġm onte
Ġb ei
Ġin teiro
Ãº de
Ġche ga
Ġdele s
De pois
Ġpens ando
for ma
Ġmalu co
questra dor
E m
S O
c hor
f oi
Ġs in
Ġv indo
ri to
Ġpor ta
Ġprim eira
F o
I A
S u
Ġ QUE
Ġc i
Ġc Ã©u
to do
Ġt am
Ġt rou
ia da
Ġno va
ol ha
ci do
Ġconsegu e
Ġbic ho
E ra
I N
P ro
z e
Ġ 7
Ġt anto
Ġse ja
Ġen tra
Ġcon tinu
Ġpe ra
Ã§a do
ĠJ u
Ġle v
Ġconhe ce
Ġinter net
P era
S em
c eiro
l u
t ri
Ġe sses
Ġda ÃŃ
Ġca chor
Ġjo gar
Ġmor rer
Ġcol ocar
ĠsÃ©ri e
b Ã©
c an
m en
Ġt io
Ġmes ma
ĠCar los
Ġfi quei
t im
Ġs Ã©rio
Ġen g
Ġac hando
Ġpara r
Ġou vi
ĠJ Ãº
pi do
ĠPor ra
Ġpens ar
Ġgra Ã§a
orm al
b ado
t her
Ġc oc
Ġm Ãºsica
ĠS enhor
po de
ĠE le
Ġconsegu ir
u dio
Ġ (
Ġ ha
Ġ ''
is mo
ro s
ho u
Ġj unto
Ġcon tar
Ġto m
us ta
Ġpro n
ĠR a
Ġli ga
Ġman hÃ£
Ġimpor tante
âĻ ª
E M
E ita
f il
Ġn am
on s
Ġj un
Ġam ar
Ġca da
Se questrador
Ġmen ino
ĠÃł s
Ġdem Ã´nio
Ġmorre u
S Ã£o
d re
j ar
qu anto
Ġo p
ri as
Ġre al
Ġqu atro
Ġpo dia
ci ona
cul o
and ro
bÃ© ns
* *
D A
Ġa vis
Ġv Ã¡
Ġl inda
Ġto ma
Ġpo vo
Ġques tÃ£o
N inguÃ©m
m an
o k
v amos
Ġd ona
te l
Ġn Ãºm
Ġf ico
un da
Ġj an
ĠS Ã£o
ĠS Ã³
Ġtrabal ha
Ġoutro s
ĠW hat
cha u
AA AA
Ġexpl icar
Ġcora Ã§Ã£o
C a
g on
v endo
Ġn er
do u
en tar
in ta
oc u
Ġcom un
Ġl indo
Ġno t
ĠA ÃŃ
ĠF oi
ĠL a
Ġex iste
Ġacab ar
Enten deu
Ġtranqui lo
Ġconvers ar
orn al
M a
m inha
Ġc ul
Ġm Ãªs
ho w
os ta
ÃŃ ss
ai xo
Ġper der
Ġbai xo
Ġcin co
Ġpap el
ĠDes culpa
A n
p elo
s Ã£o
qu is
que m
Ġm eia
Ġv im
Ġb ra
el i
ĠA qui
ti da
Ġmes es
Ġap ro
fa z
I S
b ol
f im
s to
Ã Ĭ
Ġs eus
en t
Ġt or
Ġb ri
Ġfal o
ti go
ca da
ran Ã§a
ĠV ou
Ġbo la
tu a
Ġba te
ĠPe dro
ĠRo gÃ©rio
Ġgan har
Ġouv ir
acana gem
ĠJo Ã£o
r um
Ġa v
Ġa z
Ġc ria
Ã© dio
Ġs om
in ou
ha do
Ġb ro
Ġg or
ic e
Ġl an
ĠC Ã©u
ĠT u
co la
Ġra pidinho
ĠPor ta
Ġpens ei
cha t
Ġresol ver
Ġabri r
ĠPo de
Ġtrou xe
Ġcoc Ã´
M A
M ais
g Ã£o
v ei
v am
Ġi gual
ul ho
Ġqu anto
ĠB run
ĠJ Ã¡
Ġten tar
Ġcan dida
Ġba ter
gre ja
Ġamig os
N Ã³s
Ġd er
Ġc ui
ss ÃŃvel
Ã¡ r
... ?
Ġg ar
Ġl on
ĠF ern
Ġfor ma
fon so
E S
T ra
e ca
l ica
m i
t ru
Ġm ando
Ġf ar
Ġo f
Ġb al
ĠC o
Ġmen digo
ĠcomeÃ§ ou
!! !
Ġpalav ra
A li
n um
x ar
Ġc ho
Ġf Ã¡
Ġf ic
tro u
Ġenten der
Ġ1 5
Ġsegun do
ĠprÃ³ p
O C
a gora
g er
r ica
Ã į
Ġ u
Ġ Ã´
Ã³ i
tÃ¡ rio
ĠA i
ĠO i
Ġpres idente
Ġcachor ro
S ei
a t
f Ã©
n em
Ġn u
en de
or re
to ra
ĠP ra
Ġtra z
Ġesta mos
Ġpedi u
cion al
Ġdiz endo
Ġquar to
puta do
ĠWhat s
A pp
C ol
N em
T e
c ol
l Ã³
v as
Ġ Y
Ġa di
Ġc li
Ġn ormal
Ġs an
ss or
Ġb as
Ġes pa
ente n
Ġl ei
Ġam anhÃ£
ĠT a
pe la
Ġten tando
era l
Ġar ma
Ġch eio
Ġro la
Ġpi or
ĠnÃºm ero
O U
i ar
l y
l or
z Ã£o
Ġn isso
Ġs us
Ġs acanagem
in as
Ġde z
ĠP ara
lo bo
Ã¢n cia
Ġaten Ã§Ã£o
Ġassis tir
O S
P ronto
R a
a h
r inho
Ġ 6
Ġa ma
en e
in is
Ġfal ta
ĠC ara
ĠA gora
ĠJ an
ĠJ ul
Ġpass ando
Ġinte re
Ã©r gio
Ġgu ar
ĠrÃ¡ pido
A ssim
e t
m ento
u dade
Ġ En
Ġp ei
Ġque rem
Ġes te
am e
ĠA r
Ġto cando
ve ja
Ġper ce
tu do
Ġmen ti
Ġch Ã£o
Ġsa co
Pe ga
Ġsegun da
Ġmam Ã£e
ĠMarc elo
Ġnam ora
E U
H H
O nde
c k
Ġg aro
ia do
na val
ru ba
Ġesc re
Ġescol her
ĠĠĠĠ ĠĠĠĠ
A N
O M
re a
on al
Ġb u
Ġi greja
Ġsab em
ĠI n
Ġso f
ĠÃºl tima
ĠmÃ© dico
ĠfÃ¡ cil
G os
J o
T om
Ġd om
Ġp an
Ġde f
Ġes pos
Ġg ri
ente s
Ã³ r
Ġse x
Ġj ornal
ĠC h
Ġme x
Ġsen tido
ĠF a
vi d
era m
Ġti ro
ĠÃ Ķ
ec er
Ġpass ou
Ġer rado
Ġmos trar
Ġpir oca
ĠWhats App
- "
A r
N ada
g as
i al
n bs
Ġp ul
Ġc e
Ġde l
Ġde mais
an tas
Ġt ia
os a
el ha
Ġqu ase
Ġto das
ĠT V
Ġser Ã¡
Ġsa Ãºde
ĠPor que
vis Ã£o
Ġpol ÃŃcia
Ġcab elo
Par ece
Ã¢m era
Ġtam anho
nbs p
D a
F il
i f
l ando
n Ã©
r Ã¡
Ġ !
Ġp is
Ġm inhas
Ġs i
Ġv es
oc e
as o
Ġac har
ois a
ve la
ten do
iz ar
ĠN ÃĥO
Ġus a
ĠÃº n
T enho
m Ãºsica
r ÃŃvel
u al
Ġ Quem
Ġp in
Ġc Ã¢mera
an tos
Ġes tran
Ġl ar
Ġle va
Ġch eiro
Ġsai u
Ġjo ga
Po sso
Ġfor te
Ġconta to
Ġacredi to
Ġinte ira
Ġdou tor
Ġbro ther
E i
O k
V i
c endo
p an
x ima
Ġ k
Ġ qui
Ġp ensa
Ġs endo
Ġt re
Ġt Ãªm
on e
la y
Ġma con
Ġsu b
vi do
Ġli gado
Ġtr iste
Ġfilho s
ĠU ber
Ac abou
Ġresp on
Ġbran co
Ġtele fone
ani el
D eus
F i
T E
e x
i la
i po
p al
Ġf esta
an Ã§as
om o
Ġre un
Ã§a da
Ġass unto
Ġpar e
Ġtr ocar
Ġaconte ce
Ġmar ido
Ġbon ito
Ġfun cion
Ġmaravilho so
ÃŃss imo
ĠJan eiro
2 0
M Ã£e
M aravil
T ambÃ©m
b Ã©m
h as
r us
te bol
Ġs oc
ss ar
Ġf er
Ġf undo
ei de
Ġg as
es a
Ġal mo
Ġpre so
Ġper to
Ġche gando
ĠÃ ģ
gra de
Ġcam isa
tam ento
Ġgosto sa
ch u
Ġol har
f ia
g l
p ai
z ar
Ġa f
Ġc os
Ġv elho
ss ica
Ġf um
Ġte x
Ġes ti
Ġes cola
le ta
im enta
Ġpe gou
Ġca fÃ©
ĠG lobo
ante s
Ġsa indo
gra Ã§ado
tam bÃ©m
Ġlu z
usta vo
Ġespos a
O N
O h
g an
p ira
t ina
Ã ł
Ġ ...
Ġc ru
um ento
Ã§ anha
ĠM eu
ĠD u
ĠB ar
ve z
vo gado
Ġtra zer
ns ta
Ġpap ai
Ġson ho
Ġgo ver
A quele
E x
O brigada
c Ã£o
h Ã£o
h Ãµes
n as
u ri
Ġe las
Ġp ena
Ġs um
ss os
Ġf e
al i
de sse
em os
Ġcom plica
gu ra
Ġma ta
Ġin clusive
Ġpro du
Ġdes con
Ġ1 9
ĠRo berto
oo oo
Ġima g
O L
c ura
d ic
p oca
t h
Ġ ris
Ġe xatamente
Ġc res
.. ..
Ġb ara
Ġes tre
ab ri
ĠA fonso
Ġpa z
Ġin c
Ġmes a
Ġser ia
Ġdire to
Ġpol ÃŃ
Ġga y
ĠOs mar
C ha
b u
f eira
i as
r Ã£o
v eu
Ġa bra
Ġd or
Ġp ri
en tra
Ġes tu
Ġaqui lo
ol o
ĠC on
ui r
Ġsu as
Ġcar re
Ġap ren
ĠI nsta
fa zer
ici al
Ġpassa da
Ġab s
Ġminu tinho
Ġfun ciona
Ġpas tor
Ġmando u
Ġcli ente
Ġespa Ã§o
C o
I ma
c inha
s eu
Ġ y
Ġs ala
ta da
de pois
Ġes quer
sso al
ai o
ĠP ar
Es tamos
Ġal to
Ġso b
ĠU m
ĠÃ¡ rea
Ġespe rando
Ġproc e
Ġpon to
Ġbas tante
! "
C h
E xatamente
m Ã£
u b
ss ion
Ġf in
Ġf im
Ġf ran
Ġf eito
Ġt ri
ĠT o
Ġvi ra
ce la
ĠF ala
Ġenten de
Ġcor re
Ġsa udade
Ġbe ber
Bo ta
Ġ20 1
Ġbrin ca
dem ia
Ġdorm ir
Val eu
Ġmole que
Ġpron to
' s
S a
d Ãª
d ri
i vers
Ġa g
Ġp alha
on o
Ġfo go
ĠS im
Ġpo ssÃŃvel
Ġsab endo
Ġcar ne
cis a
Ġmer cado
Ġcome Ã§a
Ġconhe cer
Al guÃ©m
Ġ3 0
Ġcai xa
oro quina
Ġve jo
U S
a quele
f re
t in
Ġv is
en der
er son
Ġb l
le y
Ġcom ida
Ġpra ia
Ġvi vo
Ġpre to
Ġdes co
ac h
Ġar re
bo ok
fe ssor
Ġcri anÃ§as
Ġcai r
Ġvia do
rim e
Ġval or
Ġol hando
Ġproc ura
Ġmu dar
Ġliv ro
Ġsor te
Ġcontinu ar
Ali Ã¡s
ĠFa ce
Ġdel ÃŃcia
B em
a o
e in
g ab
g ico
i Ã§Ã£o
p el
s er
t is
u u
Ġ 8
Ġa le
Ġc ris
Ã© ssica
Ġs how
Ġes tra
ÃŃ m
la u
Ġtem os
Ġcon tigo
he ta
pa do
ĠS il
ĠS Ã©rgio
Ġcara s
ĠJ ai
ĠV em
ĠL ÃŃ
vi dade
Ġar rum
Ġacho u
gra m
vocÃª s
De ve
Ġban co
ici on
Ġcai u
Ġminu to
Ġrela Ã§Ã£o
In clusive
tran do
Ġliv re
Ġencon trar
Ġbeb Ãª
Fo da
Ġpera ÃŃ
Ġnot ÃŃcia
A I
F a
e to
i ana
Ġp un
Ġs ite
ĠM Ã¡r
Ġme do
Ġpre ocu
Ġpara da
Ġpro va
Ãº bl
Ġdes li
pre i
Ġir mÃ£
ac la
Ġpar ceiro
ba te
Ġprecis ando
ec endo
Ġneg oc
and ra
Ġ5 0
Pera ÃŃ
Ġbra Ã§o
enten deu
E L
a y
b io
n os
n inguÃ©m
r indo
Ġa pres
Ġa grade
Ã© lio
in go
in der
Ġt im
ai xa
es mo
Ġi dade
us o
Ġvi ol
Por chat
tro s
Ġdes de
sa do
Ġesc ri
bra r
ne ssa
Ġso zinho
Ġcomp le
Ġfu tebol
Car los
Ġau to
Ġmacon ha
D i
H um
p la
s ona
Ġ Quer
Ġc Ãª
Ġm is
Ġv amo
Ġb acana
ei tar
ia m
Ġen c
Ġcon c
Ġpe gando
ĠA c
Ġsen tindo
ĠE sse
Ġex per
Ġcar naval
Ġpar ou
Ġti ver
tr ÃŃcia
Ac hei
Ġban ho
Ġgosto so
Ġmil hÃµes
Ġempre go
Ġpergun tar
ĠÃºl timo
E I
G ra
N Ã©
d indo
f icar
i e
p anha
qu al
Ġp al
Ġc ra
Ġm Ã¡s
Ġque n
Ġde us
Ġo k
ta Ã§Ã£o
ÃŃ na
Ġcom b
Ġpre para
ci as
Ġan ivers
Ġca dÃª
Ġcas amento
ĠE la
ver sa
Ġpr omo
je to
pi tal
ĠMar cos
Ġcam inho
ĠPe Ã§anha
ĠprÃ³ xima
A d
J Ãº
L em
N unca
c imento
g uma
i p
n dio
r inha
u rante
Ġ âĻª
Ġd Ãº
en o
on iz
Ã§ ando
es tou
il idade
Ġfa Ã§a
Ġre f
Ġpe que
Ġfo der
ĠJ os
Ġdes en
undo s
Ġaconte cer
Ã¢n ia
Ġvo z
Ġresp eito
Ġvia gem
Ġlou co
Ġpas ta
Ġmaravilho sa
ĠJÃº lia
gon ha
Ġcandida to
Ima gina
C Ãª
I C
V ol
a quela
a ssim
b ora
c ou
g n
g um
i vo
p is
Ġ 9
Ġe qui
Ġp Ã¡
ar es
en tre
in i
an as
an tar
ÃŃ culo
la do
Qu anto
Ġse te
Ġse is
ĠC alma
ĠM an
ti u
ĠT erra
ĠB ol
Ġver de
Ġho u
tu ro
Ġgos tei
Ġsegu ir
Ġap lica
Ġvol tou
Ġacab ei
Am igo
Am iga
Ġpres ente
Ġrec la
Ġlou cura
Ġrece ber
Ġterm inar
tua Ã§Ã£o
Ġaz ul
onal do
Ġreun iÃ£o
C er
L u
V amo
h Ã¡
i tar
n uma
r oc
Ġ z
Ġ Qual
Ġd ro
Ġc hora
Ġv az
Ã¡ ria
Ã¡ tia
or d
Ġde mo
Ġo h
om em
de os
Ġb ala
Ġb eleza
Ġb unda
es tÃ£o
Ġl in
ri ga
di Ã§Ã£o
Ġpa po
Ġin forma
Ġvi rar
Ġper sona
amb ora
ĠG ente
ĠE S
Ġcar teira
ur ÃŃcio
con he
gado r
Ġprecis ar
Ġcha to
ec eu
Ġsa ÃŃ
ele s
Ġcol oca
Ġpl ane
Ġespe cial
iza Ã§Ã£o
Ġbei jo
Ġhou ve
? ?
B ora
D ona
M en
R O
T O
c n
d ica
g aram
Ã ĩ
Ġ .
Ġa bre
Ġp iada
Ġc idade
de ssa
ic h
Ġl ÃŃ
Ġtem a
Ġse para
Ġac aso
Ġj a
ĠM en
Ġpa go
Ġin ven
ĠT Ã´
Ġvi rou
ĠB om
ĠO brigado
ĠV i
so bre
Ġap er
Ġempre s
Ġacredi ta
eli pe
ĠFern ando
Col oniz
Ġadi anta
Ġestran ho
Coloniz ador
! ?
A inda
A quela
P res
a inda
r Ãªs
s abe
t ing
t ici
v Ã£o
v ista
v oso
Ã Ģ
Ġ x
Ġ is
Ġa tor
Ġc ena
Ġf re
ĠÃ© poca
as h
ta urante
... "
Ġg ela
ai l
Ġno vela
Ġpra to
por ra
Ġne le
tu al
icar do
lo que
Ġli ve
Ġsegu ranÃ§a
ne sse
Ġcol oc
son aro
Ġgan ha
Ġval e
Ġdem i
Ġmaravil ha
gi Ã£o
Le gal
Ġtive sse
dr Ã£o
OC ÃĬ
Maravil ha
Ġgover no
abri el
Ġy ou
Ġbrinca deira
ĠmÃ¡s cara
Ġanivers Ã¡rio
A S
L Ã¡
b era
r Ã³
v ando
qu inha
Ġa ula
Ġd oc
in ando
Ġf ra
ei jo
ai x
Ġi do
il ha
ĠC l
ĠD aniel
Ġme ta
pa da
Ġpre fer
Ġass al
Ġver m
pre sa
Ġten ha
Ġesc rito
Ġtr oca
Cara mba
Ġemb aixo
ĠprÃ³ ximo
Ġescol h
Ġva gab
ĠprÃ³p rio
Ãį ndio
Ġesquer da
A bre
C an
R E
l ei
m Ã¡
p on
v an
Ġ ur
Ġd ente
Ġp Ã£o
Ġp el
Ġc re
en tando
Ġde sses
an ce
on as
Ġb us
Ġb ur
le x
qui ta
il her
il son
ĠC or
ĠS o
ĠT i
ĠJ e
ĠF Ã¡
Ġper na
Ġper dÃ£o
ĠE x
Ġpar tici
ur Ã©lio
ĠÃ ĵ
Pe ssoal
Pa ssa
Ġesque ma
Ġlou ca
Ġbol sa
ĠBo a
aba ca
Ġcul pa
Ġlon ge
Ġsan gue
Ġgaro to
Ġcomplica do
JÃº lia
B run
D E
F ui
P rim
T ipo
c al
h um
i de
s ei
u gu
Ġ za
Ġe con
Ġp Ãºbl
er gia
Ġg en
Ġcom endo
la te
el l
gu inho
Ġj us
ĠC as
ĠC am
Ġme te
ĠS ai
Ġdi ver
Ġin ves
ĠF undos
Ġan da
Ġper do
ir ma
Ġmen sa
Ġenten do
Ġsegu ra
Ġco po
Ġoutra s
lÃ¡ vio
Ġpu der
Ġven der
Ġbar ulho
Ġesque ce
ÃŃn io
Ġga to
Ġmalu ca
Ġmos tra
Ã©s ar
Ġner vos
Ġner voso
Ġmenti ra
Ġsi tuaÃ§Ã£o
gl Ãªs
Ġtim e
ilher me
A RA
F icou
R es
d entro
p as
r Ã©
u da
Ġa ber
Ġv inho
er m
Ġo brigada
ic os
Ġdo ido
Ġre m
ĠC lÃ¡
ĠP er
ĠtÃ¡ xi
ĠD eixa
ĠS em
ĠS ol
ce te
Ġver gonha
ĠJ Ã©ssica
ci da
ĠF o
Ġan dar
Ġper di
na da
ĠG ustavo
Ġpr imo
Ġres taurante
Ġcer veja
Ġti rou
Ġtr Ã¡s
Ġmar ca
Ġlem bro
Ġsex ta
uri lo
ĠInsta gram
ub ens
dri go
Ġdesco bri
ĠdÃº vida
F F
H O
M an
N ÃĥO
O lÃ¡
P ai
S en
b em
g ens
l inhos
p ÃŃ
p ol
s ai
Ġ Estou
Ġ Ã´n
Ġ Espera
Ġc rime
te ro
Ġm on
Ġs inal
ss ou
in iÃ£o
Ġf rio
Ġg ro
Ġno ta
ĠR onaldo
Ġho s
ĠE ssa
Ġ1 00
Ġtrabal hando
Ġsim p
tura l
Ġbar riga
fi ro
Ġfu turo
Ġrela tÃ³rio
Ġproc u
ib us
ĠBrun a
inis tro
ĠFace book
Ġmensa gem
T ira
c eira
f ar
h inho
r ic
w s
Ġ Qu
Ġ ÃŃn
Ġc oca
en as
Ġde putado
an os
is tas
ente na
Ã§ om
Ġl uta
ri lha
il ton
Ġcon cor
Ġcon versa
Ġpe guei
ĠC he
ĠP re
Ġfo ram
Ã´ m
Ġpo p
Ġin glÃªs
co ol
Ġpro fi
Ġdes a
Ġten do
Ġh er
Ġpode m
Ġmo Ã§o
Ġro sto
Ġmulher es
Ġconsegu i
Ġdire ita
Ġcin ema
Ġmora r
Ã©ri as
Ġgol pe
Ġped indo
Ġop iniÃ£o
faz endo
Ġesti ver
Ġabs ur
Ġexper i
Ġaplica tivo
ĠÃ´n ibus
C or
E T
I L
M elhor
g am
i tinho
j Ã£o
j ando
Ġa pa
Ġf ase
Ġde p
Ġde do
Ġes quis
Ġi d
il o
Ġre lÃ³
Ġpe go
ĠC ris
Ġqu ad
Ġtu r
Ġin v
Ġin fer
ĠB at
Ġpre Ã§o
com e
Ġpro jeto
ĠO FF
ina do
pre ssÃ£o
Ġpr in
ado s
Ġli gando
Ġli bera
Ġres to
Ġcor ona
Ġjo gando
Cara ca
Ġco le
Ġro lando
Ġfor Ã§a
val o
dei xa
eliz mente
Ġbon ita
Ġpoder ia
Ġcl oroquina
Ġima gem
Ġima gina
Che gou
fal ando
Ġtex to
Gra Ã§as
A M
D ou
G O
M ulher
f ei
f ico
m er
Ġv ar
Ã¡ gua
Ã¡ rios
Ġf ri
Ġf amos
Ġde ci
an essa
os t
Ġg enti
le za
ara da
Ã§ ou
Ġno ssos
Ġse xo
Ġen trou
ĠP ro
va do
va da
Ġpa is
Ġsen ha
Ġan ti
ĠL uiz
Ġbo tou
Ġten ta
ĠN eide
tu gu
Ġli ber
Ġesc ro
Ġ2 00
Ġtempo rada
Ġon da
Ġus o
Ġconsegu iu
Ġgra Ã§as
cion amento
Ġpassa do
Ġcal or
rei ro
Ġbrin car
Ġespera r
Ġmu da
Ġmora l
Ġbrasil eira
ĠZ Ã©
Ġado ra
Ġolho s
ĠSu z
Ġlembra r
Ġfec ha
Ta va
Ġjun tos
ĠBrun o
Ġce do
Fil ho
Ġale g
ĠMÃ¡r cia
ĠBol sonaro
ĠrelÃ³ gio
Ġgenti leza
B eleza
c ina
d icion
n unca
p ando
r or
t un
t ino
v Ã³
v indo
qu Ãª
Ġa berto
Ġp s
Ġc ura
Ġm in
en dendo
Ġf ome
Ġde bate
Ġo bra
Ġt ro
Ġb i
Ġb es
Ġb abaca
Ġes con
Ġg Ãªn
im ar
ri or
Ġdo enÃ§a
Ġac e
Ġcon vi
Ġre g
Ġpe de
di u
ĠM er
ĠD is
Ġfaz ia
ĠS ou
Ġal ÃŃ
ten Ã§Ã£o
ĠF ab
ĠN or
ĠE m
Ġgos tar
Ġgos tou
Ġar ran
tre i
Ġmor te
Ġmor rendo
Po xa
dio ta
ĠU ma
Ġus ando
fa el
Ãµ e
par ece
par til
Ã´n ia
QU I
Ġresol ve
Ġbrin cando
ee ee
Ġfec har
Ġdorm indo
ĠJÃº lio
Ġcomun idade
Ġav Ã´
Ġfic ando
ĠÃºn ica
Ad vogado
ÃĢ s
" !
B B
C ai
E E
G U
H ein
N e
T rÃªs
b rando
g ir
i ano
k i
l ine
l cool
p es
p ul
t Ã´
Ġa tri
Ġd an
Ġc ou
te u
Ġs il
Ġv elha
ss ante
in ei
Ã¡ tica
Ġf Ã£
om a
re g
Ġcom eu
ic as
Ã§ os
la us
Ġpra zer
Ġen cos
Ġcon fi
ĠA ma
ĠM i
Ġto car
ĠT inder
ran de
Ġser vi
ĠF ran
ĠF elipe
Ġan jo
Ġper deu
Ġter ia
ĠG abriel
Ġpr Ã©dio
Ġche guei
Ġ1 2
per o
Ac ab
Ġcam is
du z
Ġlo ja
Ġfi la
ĠvÃŃ rus
Ġsal var
esta va
Ġval eu
hh h
ĠNo Ã©
Ġquar entena
Ġconf un
Ġatra pal
Fal ando
iza de
tan tinho
ons tro
ĠY ou
ĠpolÃŃ tica
pis Ã³
Ġplane ta
3 0
9 0
b om
b ando
s ou
t ch
v ir
y mar
Ġa re
Ġe xa
Ġe du
Ġe pisÃ³
Ġd ono
Ġc Ã¢n
Ġque i
Ġo de
oc al
de mar
em as
Ġb ab
Ġg rÃ¡
ia go
am p
Ġl er
Ġac om
ĠP era
va dor
ĠD i
Ġfo fo
Ġfo dido
Ġfaz em
ĠS eu
Es tava
ĠT h
ce ss
Ġpro s
ĠJ onas
Ġan im
Ġan ima
Ġdes em
Ġman dando
Ġcor rer
Ġra cis
Ġmo v
âĢ ĵ
Quer ia
Pa pai
Para bÃ©ns
Ġfiz eram
Ġsal Ã¡rio
udo u
Ġcomp uta
Ġhum ano
Ġencon tra
Ġbran ca
Ġped ra
Ġagu ento
Ġjan tar
Ġapro vei
Ġlei te
Ġrespon der
Ġabra Ã§o
Ġescri tÃ³rio
Ġsimp les
5 0
A ham
V Ãª
m m
o la
Ġa ta
Ġd ra
Ġc us
Ġm em
Ġm el
do n
Ġf lor
an t
al o
em in
es te
es pera
ĠC ha
Ġma ca
ĠS er
ĠS andra
ĠB an
Ġpre feito
En fim
ĠR ena
ĠF ica
Ġan dando
iz za
ĠG o
ĠG il
ĠÃ³ tima
Ġar te
Ġcor rendo
Ġtr oc
Ãªn is
ne y
Ġcam a
Ġmar car
ula Ã§Ã£o
Qual quer
Pa ulo
Ġdeix ou
Ġpu to
ĠMa uro
Ġentre gar
Ġpl ano
Ġsegun dos
Ġqueri da
Ġapar ece
aa aa
Ġins tantinho
Ġpes o
Ġtranqui la
ĠmÃ¡ ximo
Ġtele visÃ£o
Ġnamora da
Ġpun heta
Ġpersona gem
Ġcoca ÃŃna
Ġexperi Ãªncia
laus os
A do
D eu
D aqui
G u
H Ã£
I O
O O
S o
S Ã©rio
T chau
d ura
f ado
m esmo
Ġa ti
Ġa onde
Ġm ul
Ã¡ vel
Ġf ura
Ġo b
Ġo fer
Ġt Ã©
Ġb or
Ġg Ã¡s
ic ro
ic ia
Ġi diota
tÃ¡ lia
gu lho
il lia
Ġac a
Ġcon tro
Ġcon tas
ĠC el
ĠP uta
ĠM ais
ĠD ia
Ġpo bre
Ġpa ga
Ġvi ver
Ġal go
ve is
ce sso
Ġpara bÃ©ns
Ãº n
Ġdes cer
Ġter ra
Ġho n
ĠE U
Ġpr ome
Ġex ame
con te
con tra
Ġcor tar
Ġesc uta
eito n
Ġra zÃ£o
Ġvol to
Ġcam ar
Ġacab a
Ġcol o
ĠPa trÃŃcia
pos to
Ġven de
Ġbar ra
ĠAl berto
Ġcal l
fo da
Ġapar ecer
Ġassis tindo
Ġgu erra
Ġlim ite
Che ga
Ġsur presa
Ro berto
Ġsin to
Pro fessor
ĠCara lho
Tom a
Ġmex er
Ġcru z
Ġquen te
Ġperdo a
Ġnervos a
Ġaber ta
ĠClÃ¡ udio
Ġatri z
ĠcÃ¢n cer
Ġcomputa dor
illia m
C ala
D u
J uiz
L a
T inha
b eu
c ei
c ÃŃ
d im
i or
i ro
p ia
s ab
Ġ zer
que ce
in os
in co
Ġf Ã©rias
Ġt rem
Ġt chau
re ira
ta ta
Ġte atro
Ġb ase
ou ra
Ġg aran
Ġcom i
Ġcom prei
ic amente
es quita
Ġl inha
Ġen fim
Ġen ergia
Ġj uro
Ġre com
Ġpe le
di z
ĠC an
ĠD o
ĠD an
Ġdi fic
Ġsen ador
ĠR icardo
Ġdes cul
Ġca pa
ĠL Ãº
Ġcas al
tu r
vi Ã£o
Ġch in
Ġcer ta
Ġcer tinho
Ġcan to
ĠVocÃª s
ven ida
Ġescol he
Ġado ro
enti ra
Ġcham ou
ii ii
Ġjan ela
Ġsom os
ĠCo pa
Ġpromo Ã§Ã£o
Ġecon om
Ġhos pital
Ġprocu rando
Ġabsur do
Ġbes teira
Ġode io
A B
J orge
d y
d is
f un
k s
l on
m ei
p Ã£o
u t
Ġ ras
Ġc hor
do ra
Ã© dia
Ġs Ã©
Ġv ista
ss i
or ro
to da
Ġo vo
oc k
as co
ta ram
ÃŃ do
Ġj u
Ġre giÃ£o
di re
Ġma ch
Ġma chu
ĠA cho
Ġto tal
Ġam bi
Ġam izade
Ġsen tar
ran ha
ce ta
Ġass ina
Ġsu ruba
ĠJ ane
ĠV OCÃĬ
por te
ĠF lÃ¡vio
Ġper ig
ir inha
ĠL i
iz ado
ru p
Ġcar tÃ£o
Tem os
Ġmen or
Ġcha mando
Ãªn cio
ĠMar ia
Ġmo to
ĠU Ã©
Ġcam inh
Ġgra var
ĠcomeÃ§ ando
ĠPa ula
it y
Per dÃ£o
ĠGu ilherme
rom bado
ap lausos
Ġel ei
Ġtom ou
Ġlan ce
Ġsus to
Fi quei
Ġpare de
Ġalmo Ã§o
Ġpalha Ã§ada
ĠJai r
Ġarrum ar
Lem bra
Ġza p
dicion ado
ĠtÃ© cn
C ada
S A
T I
a u
d ra
d ÃŃ
e ssas
f ora
g ica
l im
l he
n y
p le
v Ã¡
Ġp eito
que n
Ġm icro
Ġs ac
Ġs ig
Ġv isto
ar do
en se
ss ara
Ġque bra
Ġde vol
an s
an ge
al guma
ho je
ÃŃ b
sso ra
Ã³ rio
il iar
Ġfa to
Ġse le
Ġen graÃ§ado
Ġac ost
ĠC oca
ĠC OM
he in
Ġme xe
Ġfo tos
ĠS andro
us Ã£o
Ġdi go
Ġdi ria
Ġpa tr
ĠT EM
ca Ã§Ã£o
Ġsen sa
Ġpro p
Ġpro te
ĠJ un
ĠO pa
ĠF az
Ġca gar
Ġh Ã©
ĠN A
ac ho
Ġpar tir
Ġesc ra
Ġsa pa
Ġaque las
Ġcam pe
Ġba tendo
Ġentre i
Ġrou bar
Ġacredi tando
Ġrela xa
ĠDE US
Ġcontra to
Ġcl ima
Ġexpl ica
Ġva ga
Fal ou
Par ou
ĠVal eu
ĠVal demar
fal ar
Pre cisa
Ġacor do
Ġavis ar
Ġcui dado
ĠCo vid
Ġnu de
Ġves tido
ĠÃºn ico
Ġbara to
Ġcris e
Ġequi pe
Ġchora r
ich el
ĠFÃ¡ bio
Ġrem Ã©dio
Ġid enti
tugu Ãªs
Ġaleg ria
ĠDis ney
Ġaca demia
- ...
A ss
A conte
C oisa
U L
V ambora
b as
b rou
c Ãª
d Ãªncia
m ir
m ail
t imento
v ÃŃ
Ġa viÃ£o
Ġd Ã³
Ġd ura
Ġc en
Ġc ir
que las
Ġv oce
in s
Ġf emin
um e
Ġt anta
Ġte la
Ġb loque
Ġg eral
Ġcom partil
es tar
tÃ¡ vel
un s
Ġen quanto
Ġj ul
Ġcon tr
Ġem o
ĠP elo
ĠM uito
ĠM acla
ĠD A
ĠD Ã¡
ti po
ĠR ec
Ġporra da
Ġper de
amb a
ĠL ula
Ġbo ra
Ġbo ba
ĠN O
ento s
ez inho
Ġman dei
Ġar ro
Ġcan tar
ĠMar ta
Ġmo Ã§a
Ġcome Ã§o
Ġro lar
Ġr om
'' ,
Ġcu eca
ch Ãª
Ġvo vÃ³
Ġresp ira
Ġpu taria
ĠvÃŃ deos
Ġgan hou
Ġer ro
ĠZ o
Sai u
Ġabri u
ĠNa tal
end ente
IN HA
Ġtom ei
Ġamar elo
Ġdom ingo
Ġfum ar
Ġfin an
Ġdoc umento
Ġverm elho
ĠSo ares
Brun a
Prim eiro
Ġservi Ã§o
ĠepisÃ³ dio
B a
D aÃŃ
I r
M anda
M entira
R SO
S E
S ab
V er
c ri
c oisa
f f
n do
p ou
p inho
r uma
u Ã§Ã£o
ra Ã§Ã£o
Ġp izza
Ġc Ãº
Ġm ol
Ġde ssas
um as
Ġt he
oc h
la men
Ã³ gico
am Ã£e
am ÃŃlia
Ġl ÃŃn
Ġdo ente
el ma
Ġna quela
un a
Ġen s
sse x
Ġem oc
ĠC ab
ĠC laro
ĠC adÃª
ĠC Ã©sar
ui dado
Ġma d
ĠA na
ĠD ou
ti t
ĠS ul
us ar
Es te
Ġsen tir
Ġpro bl
ci ar
Ġne la
iz ada
tÃ© rio
Ġgos taria
Ġsegu ro
Ġman eira
Ġsa ci
âĢ ¦
bo a
ĠU M
Ġcam po
Ġcam panha
Ġcam arada
du Ã§Ã£o
Ġpens ou
Ġdu pla
ĠRo drigo
Ġven dendo
Ġcur so
Ġtal vez
Os mar
Ġouvi u
ĠvÃ¡ rios
Ġinc rÃŃvel
Ġprocura r
Fa zer
ie dade
Ġinforma Ã§Ã£o
Ġesquis ito
ĠCris to
Ġinfer no
ĠYou Tu
Ġare ia
Ġzer o
A le
D ois
F ora
H omem
b y
b ei
c ab
d imento
f iz
i que
i dos
j ado
l is
n er
o te
p ren
v andro
Ġ 0
Ġ Quero
Ġa po
Ġp Ã³
Ġm ala
Ġm udou
do is
Ġv Ã´
ar ia
en tou
en quanto
or me
er da
Ġf l
ta dos
ha ha
Ġg el
ÃŃ ria
Ġl ocal
el ena
Ġre pe
Ġre conhe
Ġpe cado
di to
di os
Ġma u
Ġma qu
Ġma ssa
ĠP ronto
Ġqu in
va Ã§Ã£o
Ġme ter
Ġfo de
pa g
Ġpa sso
Ġvi ram
Ġvi zinho
co te
ir oca
Ġca deira
Ġsenhor es
cia mento
Com e
Ġcar ta
Ġcar inho
Se gun
Ġch eia
Ġch ance
Ġ1 1
ec ei
gra fia
Ġcan eta
Ġmo tivo
ĠU RSO
Ġco zinha
Ġim pre
ĠÃ¡ udio
ĠÃ¡ lcool
des de
pro vis
ing ton
Ġdu ro
Ġdeix ei
ĠCar la
ĠCar linhos
To da
Ġesque cer
gre sso
Ġapar tamento
Ġor gan
Ġdou tora
Fal ei
Ġhum an
Ġau tor
ĠmÃ¡ quina
Ġri r
Ġcontinu a
ĠvÃ¡ rias
Ġbate u
Ġav Ã³
Ġgar Ã§om
Ġintere ssa
Ġguar da
ĠĠĠĠĠĠĠĠ ĠĠĠĠĠĠĠĠ
Ġfran go
Ġdesli gar
Ġpeque no
L iga
a ss
m ou
n Ã³s
p r
t s
u xa
Ġa t
Ġa gente
Ġd en
Ġp ia
Ġp la
Ġp ois
Ġp lay
Ġm us
Ã© Ã©
ss ando
Ġf antas
Ãª me
ho so
os ana
ai ce
Ã§ Ãº
Ġl en
ri oso
Ġda quele
Ġfa ke
Ġpe Ã§a
ui ana
Ġma tou
ĠP OR
ĠA QUI
ĠD a
Ġto ca
pa va
ĠS anto
ĠT Ãģ
Ġpre ssÃ£o
Ġpre visÃ£o
Ġpre firo
pe c
Ġass inar
Ġsu cesso
ĠO k
eiro s
ĠF al
Ġper dido
Ġcas ar
sa da
Ġex is
Ġcar o
Ġcar inha
Ġsem anas
Ġle vo
Ġman ter
Ġch ip
Ġ1 8
Ġjo vem
Ġla m
Ġfala va
Ġcan cel
ĠMar iana
tr uir
bl on
Ġba gun
Ġba tata
gun s
Ġvo to
iste ma
ĠMa urÃŃcio
Ġentre vista
Ġpos te
Ġcur tir
Ġbol so
Ġva ca
Ġmandar im
ĠLe blon
su per
ĠNe ymar
EN TE
Ġterm inou
Ġcham ei
Ġhor ror
Ġel im
Su a
Ġop Ã§Ã£o
ĠFern anda
Ġcho rando
lÃ³ ria
ĠEn zo
Jo Ã£o
Ġpis cina
Ġlar ga
Ġcos tas
Ãł s
Ġsum iu
olo gia
ĠJos Ã©
Ġcamis inha
ĠlÃŃn gua
Ã§Ãº car
B eijo
C l
I sto
M o
P ensa
b il
b aixo
d en
g ro
h n
i an
j os
Ġ *
Ġ isto
Ġp en
Ġf ing
Ġde via
Ġo pera
Ġo bs
an an
Ãª bado
as tor
ei re
Ġcom pro
Ġcom ecei
ic idade
ri do
Ġno ssas
Ġno vidade
Ġfal aram
Ġse ques
Ġse cre
Ġen trando
Ġj uiz
ui Ã§Ã£o
ui tas
ti on
ĠS en
ĠS an
ĠB e
ĠB el
Por ta
Ġsu f
ci e
Ġper f
Ġne cess
Ġca cha
ĠG a
ĠG erson
ĠE d
Ġfil ma
ter ra
lo g
lo go
Ġar rombado
Ġap el
Ġesc u
ĠMar quinho
fer son
Ġolha da
Ġfica va
ĠH um
ĠPor chat
Ġim provis
Ġprecisa va
des te
Ã¢n s
Ġpela da
pos ta
Ġaquele s
Ġentre ga
Ġcomp rou
Ġvia jar
Ġpos to
Ġ20 2
ĠDE S
Ġdifer enÃ§a
Ġor dem
oco late
Ġpes ado
Ġconf uso
Ġatra sado
sem pre
fic ante
Ġad vogado
Ġlev ando
Ġeng an
AAAA AAAA
ĠprÃ³p ria
Ġintere ssante
Ġproce sso
ssion al
Ġbl oco
Ġviol Ãªncia
Cer to
Ġdro ga
ĠlÃŃ der
Ġvagab undo
Ġpel os
ĠpÃºbl ico
Ġpop ulaÃ§Ã£o
Ġreg is
ĠAma z
Ġedu caÃ§Ã£o
Ġanim al
Ġmov imento
Ġcamar Ã£o
ĠRec ord
ssex ual
Ġhuman idade
I m
J u
M acla
b an
e Ã§o
e jo
f icou
f rica
l inha
m al
p s
t anto
v Ãª
Ġ zo
Ġa os
Ġp ica
Ġc entro
que te
Ġn ar
Ġm inistro
Ã© ia
Ġs istema
ar g
en cia
ss em
Ġde ver
Ġo ito
de z
Ġb ac
Ġes go
Ġg re
le o
Ã³ is
ri da
tÃ¡ ria
Ġen ro
Ġpe Ã§o
ĠC aio
ĠP ois
ĠA urÃ©lio
ĠM Ã©
ĠM urilo
ĠM esquita
ĠD O
ĠD ona
pa ssa
Ġin di
Es tÃ£o
ĠT e
Ġvi ve
Ġvi rilha
ĠB ra
Ġou ro
ĠJ a
Ġser ve
Ġan Ã£o
Ġter ceira
Ġbo as
Ġbo tei
ira m
ĠN Ã©
ĠG ra
ru gada
ter n
ter ia
cis o
Ġle ve
Ġle vou
con des
Ġesta do
Ġtr Ã¢ns
Ġjo gou
Ġjo gador
Ġmo tor
Ġco xa
Ġco ach
gun ta
du as
Ġban dido
ĠW ash
enta Ã§Ã£o
Ã¢n ico
Ġcri ar
Ġab or
Ġesque ci
Ġcal Ã§a
Ġacredi tar
Ġpl an
ĠK Ã¡tia
Ġer rei
dida to
ĠNo ssa
Ġsobre vi
Ġconf usÃ£o
Le va
ĠLu cas
ĠJu ssara
Ġreal idade
eral do
Gos to
Ġpul inho
Ġminutinho s
Ġarre p
ĠSil va
ĠLÃŃ gia
Ġmeta de
Ġprofi ssional
fei tura
Acab ei
Ġmaca co
Ġfura cÃ£o
Ġmicro fone
J os
M ora
P ol
P ela
S us
T V
T ran
U N
c em
f u
i ter
k k
l h
t Ãª
t ria
x ico
Ġ QuÃª
Ġe vi
Ġd ÃŃ
Ġd ica
Ã£ es
te us
Ġm ente
Ġs el
Ġs ido
Ġv oc
Ġv inte
Ġde tal
to dos
Ġo i
an ti
al e
as er
em Ã´nio
ÃŃ cias
ri es
Ġno jo
il er
Ġpor tuguÃªs
Ġda va
Ġfal am
Ġen vol
Ġen orme
Ġac er
Ġac idente
Ġj ura
Ġcon tei
Ġpe da
ĠP ol
ĠP ris
Ġqu inta
ĠM o
Ġme di
Ġto mando
ti tu
ĠS ei
us e
Ġpo ss
Ġpo ssa
Ġpa dre
Ġin va
Ġsu bs
ĠO u
ĠR es
ĠV I
ĠV er
ĠV asco
ĠF rei
Ġmuito s
Ġper feito
Ġne ws
Ġca valo
Ġbom ba
iz ou
Ġcas ado
ĠN em
ĠE ra
Ġpar tida
Se gu
Se gura
con dicionado
Ġesta vam
Ġsegu rar
Ġcha ve
Ġ1 3
Ġsa tis
Ġsai o
pi tÃ£o
ĠI S
bo y
ĠU ni
Ġpass ei
tÃ³ rias
Ġba fo
Ġus ou
Aqui lo
hei la
fe ssora
Ġr indo
Ġconsegu indo
Ġcons er
Ġcons ul
Ġbe be
Ġpedi do
Pe dro
ida dÃ£o
Ġresp osta
quei ro
Ġpergun tando
Ġfi gura
ĠmÃ£o s
Ġsal va
Ġpl anta
Ġpos tar
Ġnas ce
Ġnas cer
Ġpega dinha
In ter
Ġquar ta
Ou tro
Ġbol o
Ġtrans ar
Ġconvers ando
ĠBo b
Ġalgum as
cel ente
Ġtes te
ĠrÃ¡ dio
aran ja
Sem pre
Ġreal ity
Ġgar ra
Ġpan demia
Ã³r ter
Ġcarre ira
Ġcomple tamente
Ġconc eito
rÃ³ ximo
Ġido so
ĠSol ange
Ġambi ente
Ġperig oso
Ġcaminh Ã£o
ĠdÃ³ lar
Ġcontr Ã¡rio
Ġprobl emas
pag anda
Ġcacha Ã§a
ĠtrÃ¢ns ito
ĠWash ington
1 0
; &
B rasil
C as
F ec
M al
P OR
R ubens
T R
T Ãģ
a das
c ra
c ro
c la
c am
f elizmente
g le
g amos
g ido
h is
h eira
i dÃ£o
j unto
l ou
m on
m eio
p eu
p rim
r y
r ro
s ar
s en
s inho
t ista
t Ã¢ncia
u ca
Ġe i
Ġc um
Ã© o
Ã© gio
Ġv el
Ġv anta
or te
Ġt ac
da qui
de ve
Ġb ando
Ġes fre
le te
gu el
gu inha
Ġna quele
Ġna cional
Ġna tural
ul inho
ul dade
Ġcon te
ĠP al
ĠP RA
va gar
ĠA s
ĠS abe
ĠS antos
Ġele vador
tra bal
Ġdi v
Ġdi vi
Ġsen ti
ĠB on
ĠB eto
Ġpara do
Ġpro var
ĠV a
ĠV end
ci os
ĠF i
Ġper son
Ġne ga
Ġca cete
ĠL in
ĠN ada
ĠN ET
Ġpar ecendo
Ġar ruma
pi da
Ġmo da
idade s
Ġmor to
ram ini
Des de
ela xa
ita do
ch eio
Ã´n ico
Ġhom ens
ici ente
Ġinter rom
Ġvac inar
Ġnas ceu
Ġ5 00
Ġfun Ã§Ã£o
Mar c
ĠAn dre
su a
Ġdiferente s
âĻ «
Ġagu enta
Ġhor Ã¡rio
Ġhor rÃŃvel
Ġpon tos
tim os
ĠRa fael
Ġtoma da
Ġfic am
HH HH
Ġk it
ĠÃģ frica
Ġris co
Ġpri vada
entra l
ĠLÃŃ via
Ġnegoc io
ĠAc abou
Ġsepara r
Ġfra se
ĠCl eiton
ĠBat ista
Dou tor
Ġace sso
Ġaprovei tar
ĠRena ta
ĠDan ni
ĠtÃ©cn ico
ÃŃb lia
lamen go
Ġemoc ion
Ġmad rugada
ĠYouTu be
ĠVend ramini
" ...
A C
D aniel
H m
I I
L E
L ar
P astor
S ol
b on
c ula
f ala
g inal
i va
j eito
k y
p ur
p ens
p per
s im
t ter
t ulo
t anha
u ki
y a
Â °
Â º
Ġ Entendeu
ra pia
Ġp ic
Ġc la
Ġc un
que ro
do res
ar e
en cial
ss ia
er s
Ġf is
Ġf ir
Ġf eio
an al
da da
de ral
ho ne
Ġb Ãªbado
Ġg ram
ÃŃ da
im os
es ar
am a
Ġl igo
Ġl ista
Ġno Ã§Ã£o
Ġpra Ã§a
il ho
Ġna o
Ġda quela
Ġfal ado
Ġcon diÃ§Ã£o
di al
ĠC lau
Ġma deira
ĠA le
ĠM or
ti o
ĠS on
Ġpa gando
Ġtu as
Ġin de
Ġin como
Ġin ÃŃcio
ĠB a
Ġpre ta
Ġcois inha
ten de
ĠR u
ĠV ic
por to
Ġdes car
ĠL Ã¡
iz ando
ĠN aice
tu de
ĠG on
ĠE M
Ġle tra
Ġmen inos
Ġman eiro
Ġar ca
Ġch ei
Ġch eira
Ġch ocolate
Ġcha ta
Ġti rando
Ġtr oco
ona to
Ġon line
ja da
Ġvol tando
Ġvol tei
De putado
tr ica
ĠH m
ĠH elena
Ġacab ando
Al un
and ante
00 0
Pe guei
Ġvo o
Ġresp onde
Ġpol icial
Ġcomp an
Ġpos iÃ§Ã£o
Ġsol ta
ke ting
Ġrec eita
ren o
Mar cos
Ġcab o
ĠRe de
ib ilidade
Ġrece bi
tic as
Ġtes Ã£o
ĠpÃ© ss
dÃ¡ vel
Ġad m
Ġsin cer
Ġci gar
Ġlev anta
Ġnot ÃŃcias
Ġcria do
Ġbater ia
Tra z
Tra bal
Ġfar ia
orre u
Te ve
Ġsus ten
et ano
Ġpei do
Gos tei
one te
Ġfuncion ando
ĠBar ra
Cha ma
Ġapres entar
Ġagrade Ã§o
Ġbus car
Ġescro to
ĠgÃªn ero
Ġeconom ia
Ġsele Ã§Ã£o
ĠhÃ© tero
ĠIS SO
1 5
C inco
F ab
F iz
G ustavo
O n
S al
T er
U hum
V ac
b ou
c y
f ferson
i os
i tivo
k ing
n ar
r ÃŃ
r ÃŃculo
v in
v eita
Ġ [
Ġ xi
Ġa h
Ġe feito
Ġc Ã³
Ġc lÃ¡
Ġc idadÃ£o
Ġn om
Ġm ÃŃn
Ġm olha
Ġm onstro
Ġm och
Ġm uitas
do m
do na
Ġs ente
en Ã§o
en deu
en trar
er os
Ġf ru
Ġf ÃŃs
to das
um b
Ġt chÃª
re mos
ha da
em an
em ora
Ġte us
Ġes t
ou tro
Ġg er
Ġg elo
Ġg ig
ÃŃ sa
ia Ã§Ã£o
im entar
Ġpor teiro
Ġpor quÃª
Ġse ca
Ġen gra
Ġre a
ĠC er
ĠP l
ĠP res
ĠP iroca
ĠA M
ĠA gu
ĠA li
ĠM ichel
ti ra
ĠS ÃŃria
us to
ĠB en
ce ra
En graÃ§ado
Ġpro fessor
ĠO r
ĠO brigada
ĠO nde
ĠR om
ci Ãªncia
ĠF or
Ġan te
Ġper fil
ir iam
ĠL or
Ġbo to
ĠE vandro
der son
der eÃ§o
Ġcar d
Ġli xo
Ġli guei
Ġmen inas
con segu
Ġdei xo
Ġap os
li ga
Ġmor o
ig i
ita Ã§Ã£o
ĠW al
par ou
Ã´n ica
Ġresp ons
Ġun ha
Ġcai x
Ġfi gu
Ġpu xa
Ġfiz er
Ġinte li
Ġer rada
ero porto
Ġrela cionamento
Ġaten de
ĠZ ona
Ġpes co
ĠJo hn
Ġimpor ta
Ġhum or
les c
ni fica
Ġmi ssÃ£o
dr inho
ĠAm or
ĠAm anda
Ġbeb endo
gos to
Ġci vil
Ġlev antar
Ġouvi do
Ma urÃŃcio
Ġgor do
Ra paz
Ġnamora do
oooo oooo
ĠTo do
uu uu
Ġmis tura
Vol ta
gn er
Ġlin k
Ġescolh eu
Ġjus ti
pÃŃ rito
Ġsil Ãªncio
Ġatrapal har
Ġcontro le
Ġhon ra
Du as
Ġdific uldade
Sab ia
ian ca
Ġobs er
Ġapel ido
Ġvanta gem
pper w
' t
A b
A pro
A fonso
A urÃ©lio
C am
C orre
D ei
G A
H Ã¡
I M
S Ã©rgio
U M
V Ã£o
e da
g h
g Ãªncia
h ia
j ei
o ga
r ome
s enhor
z z
Â ª
Ġ ..
Ġ ul
Ġa e
Ġa pe
Ġa ba
Ġa tual
Ġn ÃŃvel
Ġs ÃŃ
Ġv Ã³
Ġque brar
er ic
Ġf ol
Ġf uma
Ġo bri
um o
um ir
Ġb oc
Ġes quina
le ber
Ġcom um
es tre
Ġl aranja
el ly
ab re
Qu antos
un dial
Ġen dereÃ§o
ga Ã§Ã£o
ul tado
Ġcon ven
ĠP M
ĠP Ã´
ĠP imenta
ĠA L
ĠA ssim
ĠM al
tar ina
Ġfo deu
ti f
ti vos
ĠT ra
ĠT he
Ġsen ta
ĠB BB
po ssÃŃvel
pe te
Ġpro ib
ten te
ten ho
Ġsab or
Ġsu co
Ġmes tre
ĠR ubens
ĠV ol
Ãº do
ĠF u
ĠL ui
Ġten tou
ĠN as
ĠG eraldo
ĠE du
der no
Ġmas cul
Ġgos tos
Ġcasa da
oca da
Ġch ur
dar ia
Ġap aix
Ġap enas
Ġ1 4
Ġ1 6
Ġsa ia
Ãªn cias
Ġla var
tr Ãªs
ĠH a
ĠÃ¡ r
Ġmar keting
Ġlo bo
Ġcons tran
Ġhom o
cion ar
Ġun i
Ġpassa gem
pos iÃ§Ã£o
Ġinter na
for mar
dei ro
Ġresol veu
Ġbon itinho
Ġsol to
Ġbai xar
Ġbai rro
Ġado rar
Ġado rei
Ġdis cu
Ġmi la
Ġmi jar
Ġbeb ida
ĠNa tÃ¡lia
Ġgol s
Ġped reiro
Ġacor da
Ġeng ano
Ġcomun ista
ent ista
Col oca
ĠJul ia
Ġperce ber
Ġmenti ro
Ġsub ir
Ġcres cer
qual quer
Ġdemo ra
Ġdemi tir
Ġassal to
Ġinves ti
Ġquad ro
Ġlibera do
Ġfamos o
ĠSuz uki
ĠgrÃ¡ vida
Ġracis mo
ks ha
Ġsapa to
pren sa
Ġperson al
ĠmÃŃn imo
5 00
B e
C uidado
D om
E ssas
F ern
F amÃŃlia
H E
J ura
M amÃ£e
P F
P M
T io
V iu
b endo
c ur
d ÃŃssimo
e ja
g en
g or
i es
i tos
o p
o to
p Ã¡
p io
r r
â Ķ
Ġ #
Ġ âĶ
Ġa la
Ġp ente
Ġp Ãµe
Ġc ro
Ġm y
Ġs ho
Ġv inha
ss ei
in to
Ã¡ bado
Ġde vagar
to mar
Ġo m
Ġo que
om os
ou r
Ġg era
ÃŃ lio
ic io
am ais
Ġl Ãª
ri que
ol ina
Ġen tro
Ġac eitar
Ġcon to
Ġcon tando
Ġre de
Ġre cado
ĠC la
ĠC elular
ĠP an
ĠA d
pa tia
us ado
Ġdi ri
Ġpo dendo
Ġpa sse
Es ta
co in
Ġal ugu
ĠB eleza
ve te
ce p
Ġpro paganda
ĠJ ar
ĠR H
ĠR osana
ĠV erm
por tun
Ãº dio
ĠF lamengo
Ġan el
Ġper dendo
Ġdes ta
Ġdes ce
ĠL on
Ġten tei
Ġh id
tu gal
ĠG reg
ĠG rande
Ġpode mos
cis co
lo bal
cul os
Ġli gou
Ġli ke
ĠÃ³ dio
Tem po
je Ã§Ã£o
Ġesta b
Ġsegu rando
Ġar m
Ġar qui
Ġcha mo
za da
tor ia
li v
ĠI h
ĠI s
ĠMar ina
ĠMar cela
Ġmor ta
fer Ãªncia
Ġco la
ĠH oje
Ġtinha m
Ġim prensa
des culpa
Ġgra cinha
par e
Ġmelhor es
Ġlo ira
Pa trÃŃcia
it coin
Ġpergun to
Ġfi que
To k
To dos
Ġpu bl
ĠMa gal
Ġbar ba
Ġab ando
Ġlugar es
Ġgal inha
dei as
Ġfu g
hh hh
Ġcur rÃŃculo
In felizmente
Ou tra
Ġor i
vol ta
ĠRe gina
til ha
Ġesp Ã©
Ġ4 0
ĠLe gal
Ġlim pa
Ġinf Ã¢ncia
Per feito
tic amente
Re almente
Ro gÃ©rio
Ġcham am
cre ver
Su per
ĠJu das
lu ia
ÃŃss ima
An tes
Ġbri ga
Ġder ruba
ĠTa ti
ĠPara bÃ©ns
ck er
AN DO
Ar mando
Ġsoc ial
dic al
Ġfran c
Ġpalha Ã§o
ÃŃm ica
Ġagrade cer
IC A
Ġdemo rar
ĠMen des
Pres ta
Ġgela deira
ĠÃŃn dio
Ġdeci dir
Ġcou ro
Ġdesem pre
ĠBan gu
ĠGil mar
Ir mÃ£o
Ġcancel ar
ĠSen hora
Marc elo
Ġxi xi
ĠâĶ Ģ
Ġalugu el
1 9
C u
C onta
D iz
D ez
F un
L i
M esmo
M urilo
N T
N um
P E
P l
U C
V A
V I
a gner
b ec
c es
c laro
c endente
d in
f inha
f li
g amento
g ent
h es
i be
i gual
k Tok
l ene
p u
p Ã©
r ente
s os
t Ãªncia
u d
u h
u dia
qu Ãªncia
Ġa venida
Ġc oco
te la
Ġm ara
Ã© ria
Ġv in
en ha
Ġque imar
Ġf el
Ġf eia
Ġf irma
to m
Ġo tÃ¡rio
Ġt Ãªnis
Ġes co
qui to
ai or
Ġcom en
Ġcom pe
Ġi dos
Ġi deias
Ġl endo
Ġno j
gu eira
Ġre pres
ĠC Ã¡tia
Ġma to
ĠP u
ĠP ARA
ma do
ĠM A
ĠM E
ĠM eire
Ġfaz enda
pa ga
pa Ã§Ã£o
ti ve
ĠS U
ĠS elma
Ġam ante
Ġpa cote
Ġin tim
ĠT U
ĠT it
ĠT enho
ĠT chau
ĠT iago
Ã§a pava
ĠB ro
ĠB ras
ran ca
Ġpre ssa
pe dir
Ġsu ger
ĠJ ac
ĠF ec
ina da
na dor
ĠL em
ĠL ac
ĠL ima
ĠL Ã©o
Ġbo tÃ£o
Ġh igi
tu ras
ĠG oi
ĠG uiana
ĠE i
ru z
Ġtra ve
Ġpr Ã©
ter m
Ġcar go
Ġcar ona
con s
ba ter
Ġcor ta
tor ies
Ġla va
Ġcan cela
ĠMar lene
Ġso zinha
ĠU MA
hora r
vel mente
Ġro b
Ġro teiro
Ã³s ito
Ġacha va
'' .
enh um
Ġmil ksha
Ġresp eitar
it ÃŃssimo
Ġpergun tou
Ġab rindo
Ġbai xa
Ġ20 20
Ġcur ti
Ãĵ timo
Ġapar eceu
Ġado lesc
pp ing
Ġtal ento
Ãģ gua
Ġesp al
Ġesp ÃŃ
Ġesp elho
Ġlim par
Con he
Ġfec hado
Ġrece beu
tic os
Ġtes oura
bar ulho
Ġchu va
ĠSa Ãºde
Ġacor dar
Ġfar mÃ¡
Ġbal de
Ra pidinho
Ġguar dar
Ġgaro ta
Ġescre ver
Ġbu ceta
Ġqui eto
Maravil hoso
ĠÃģ ries
Ġaf as
Ġcos t
Ġestre la
Co la
Ch u
Ġdesen vol
Ġrecla mar
Ġcoloc ou
Ġconfi ar
Ġquei jo
Ġacom pan
rup Ã§Ã£o
Ġemo Ã§Ã£o
Ġboba gem
Ġbagun Ã§a
ĠMarquinho s
arg ento
Jos Ã©
iter Ã³i
ĠdÃŃ vida
Ġposs ibilidade
Ġmoch ila
ĠespÃ© cie
ĠfarmÃ¡ cia
. ''
A o
D I
H am
M i
P imenta
R u
R elaxa
S er
U TA
V D
b ul
b us
c ley
g ri
g Ã³cio
g enda
i oca
l um
l Ã¢n
m in
n Ã´
o h
u dÃ¡vel
v ante
v anta
v amo
x ando
Ġ Entendi
Ġa um
Ġa eroporto
Ġe v
Ġe lo
Ġp ur
Ġc rÃ©
Ã£ Ã£
Ã© is
Ã© re
Ġs amba
in inha
er ta
Ġf ei
Ġf es
Ġf io
Ġf res
Ġde pos
Ġde vendo
an til
om bo
re to
on el
Ġb en
Ġb er
Ġb ura
Ġb osta
Ġb itcoin
ei te
Ġg Ãªme
ÃŃ Ã§a
Ġcom a
ic k
Ã§ u
Ġl he
Ġdo i
gu i
gu ar
gu er
gu eiro
Ġtem pÃ£o
Ġda do
Ġen ter
Ġen cer
Ġen ch
di te
ĠC ol
ui u
ĠP A
ĠP ai
Ġqu antos
ĠD om
ĠD eu
ĠD emÃ´nio
ĠD VD
ti vidade
ĠS US
ĠT O
Ġsen s
Ġvi tÃ³ria
Ġal ma
ĠB ÃŃblia
Ġpre mi
ve ta
En tre
En quanto
pe rando
Ġass iste
Ġpro fessora
ĠO h
ĠO de
ĠV en
ĠV an
ĠV AI
ĠF e
Ġdes can
pre cis
ĠN iterÃ³i
ĠG oo
ĠE li
no sso
Ah h
Ġpr is
Ġex plo
Ġche go
Ġres ultado
Tu a
Ġra dical
Ġera m
Ġ2 5
Ġla drÃ£o
ĠMar condes
Ġmo rando
Ã¡s tico
Quer ido
ĠH ein
ĠH omem
Ġro tina
fa da
Ġr im
Ġdos e
Am anda
Am anhÃ£
Ġdire tor
ena gem
orm almente
and ando
Ġdu rante
Ġpu desse
id cley
Ġfam iliar
Ġesque ceu
Na quele
ĠAl Ã´
Ġlem brando
Ġpos ta
ÃŃs tica
Ġinte rior
Ġsol tar
Ġescol ha
Ġcur to
Ã©r ica
Ã©r cio
Ġespe cÃŃ
gi tÃ¡rio
Ġrapaz iada
Mar ia
Ġor gulho
Ġhum il
Ġencon trei
Ġinf elizmente
ĠNe t
Ġpir Ã¢m
Ġbei ja
fil ho
Ġcul tura
Ġcui da
Ġlon go
Ġu Ã©
Ġ6 0
Ġpei xe
Jo ga
ĠCh ina
vid son
Ġk ara
Ġtriste za
Ġalmo Ã§ar
ĠDu du
Ġprodu to
Ġcres ceu
Ġbara ta
Ġapren der
Ġsob rinho
Ġbl usa
Ġcra ck
Lu cas
Ãĩ ÃĥO
Ġaper tar
Pres idente
Can didato
Ġmon tanha
Ġprin ci
Ġliber dade
ĠSuz ana
Ġps ic
Ġdan Ã§ar
ĠFran cisco
Ġconfun dindo
Ġexa g
Ġacom panha
Ġcruz eiro
Ġchor o
Ġelei Ã§Ã£o
Ġsig nifica
Ġacost um
Ġpatr oc
ĠZo io
Ġfantas ia
anan Ã£
Ġnar iz
Ġesgo to
anti dade
Ġpeda Ã§o
Ġdivi dir
eman jÃ¡
Ġpesco Ã§o
Ġchur ras
Ġmila gre
Ġom bro
Ġarm Ã¡rio
Ġidos os
B an
C OM
D B
F ico
G a
G al
H e
I F
J ul
M or
M eio
M erda
O RA
P A
P i
P ens
R I
R is
S enta
T al
T enta
U U
V O
V Ã¡
a k
c inho
c ante
d al
g Ã©
g Ãªn
g las
h i
j ac
l Ã£o
l Ã©
l en
m uita
p alha
s ur
t inhas
t Ã´nio
w it
z ando
Ġa ssa
Ġd Ã£o
Ġd im
Ġd Ã³i
Ġc is
que ira
te ve
Ã© plica
Ġs po
Ġs ke
Ġv ice
en go
en rique
er e
Ġo cu
Ġo portun
an tÃ¡
Ġt amb
oc idade
re za
da p
ta dor
on ha
Ġte c
Ġb ru
os tra
Ġes per
Ġes cada
Ġes tru
Ġg ame
Ġg lobal
ÃŃ dia
Ġcom por
Ã§ am
la da
es to
am ora
ri e
ri anÃ§a
Ġdo ida
el as
gu em
Ġpra zo
Ġfal e
Ġen go
Ġac ima
ĠC in
ĠC ON
ĠC entral
Ġma cho
Ġqu antidade
ĠA b
ĠM el
ĠM inha
ĠM inas
ĠM iriam
ois Ã©s
ti fica
ti vas
Ġdi g
Ġdi ga
Ġpo dre
Ġin ver
Es quece
Ġal guns
ĠB u
Ġpre feitura
En tra
pe gar
Ġpro tes
Ġsu jeito
Ġou ve
pra r
ĠR I
ĠV ia
ci fe
Ãº ssia
Ġan s
Ġan al
amb u
Ġter Ã§a
Ġca ga
ĠL ei
Ġh il
ĠN unca
tu reza
ĠG ENTE
Ġfil mar
ru po
Ġtra vou
Ġpr ender
ac onte
Ġex er
Ġex tra
Ġpar ei
vi dÃ£o
ĠÃī rica
cul ar
ĠÃ³ r
Ġgos tam
ba da
Ġman o
Ġar ras
Ġta pa
Ġcha te
Ġesc or
Ġ1 7
li dade
Ġ2 4
Ġjo elho
Ġmo do
Ġso be
Ġmor ri
ris o
ĠH ol
Ġba ti
Ġba tal
Ġim un
tam ina
ita da
du rante
Al gum
Ġcu rioso
par ei
gua Ã§u
Ġcons tru
pro s
Ġmil ÃŃcia
rin ta
vis a
ĠPe ga
Ġpres ta
ĠMa ur
Ġpela do
oo d
tante s
Ġquis esse
Ġpol icia
hÃ£ es
ĠAl ice
Ġcal cinha
for me
Ġvac inou
ron es
Ġresol vido
Ġga ta
ĠEs pÃŃrito
Ġol hei
Ġbol inha
Ġtrans forma
Ġpes quis
Ġconf ir
Ġfinal mente
Ġatra ve
DO S
ĠRe cife
ĠLu ci
Fal o
Ġmomento s
ĠBo ta
Ġesp ir
Ġbran cos
ĠPo sso
Con tinu
Che fe
cara lho
Ġinf ec
Ãªm ica
Ġsur f
ĠNe gÃ£o
Ġchu par
Ġcora gem
anho u
rom o
Ġpalav ras
ap on
Ġ7 0
Ġentra da
Ġpron un
** *
Ġcandida tos
Ġcui dar
Ġcho pp
ĠAr mando
Ġescre vi
Ġsof Ã¡
Ġgri ta
Fil ha
Ġpensa do
Ġfum o
Ġesti ve
ĠPar ou
Ġcris tal
Ġpreocu pado
Ġrecla ma
Ġdro gas
Ġbur ro
ĠJe fferson
Ġgen ial
ell en
ĠCas a
Ġgro sso
Ġgro ssa
ĠBat man
Ġanti ga
Cai us
Ġencos ta
Ġracis ta
ĠLÃº cio
Ġmach ista
Ġassina tura
Ġsensa cional
Aconte ceu
Ġcen Ã¡rio
ĠDou glas
cab ana
Ġ202 1
Ġconte Ãºdo
Ġcun hado
Ġfir me
ĠGon Ã§
ĠclÃ¡ ss
Ġgig ante
pperw are
ĠMagal hÃ£es
Ġrob Ã´
ĠGoo gle
Ġspo iler
Ġske tch
antÃ¡ s
? ...
A H
B ar
B al
C lÃ¡
C Ã©sar
E las
E lei
F Ã¡
M il
M Ã¡r
O r
S ur
T i
T RA
V o
V OCÃĬ
W hat
b r
b inho
b eira
c hei
d ente
d inhas
e o
f as
f inal
j ou
j am
l ock
m il
m ulher
m anda
n eu
p Ã´
t ÃŃ
u ga
x er
x ou
z il
z io
qu isa
Ġa qu
Ġa val
Ġa Ã§Ãºcar
Ġa dap
Ġe ss
Ġe di
Ġd Ãª
Ġd oce
Ġp ano
Ġp ular
Ġc oi
Ã© bora
Ġv ento
Ġv aso
in ci
in clusive
Ã¡ lia
or ou
Ġf ral
Ġde vo
Ġde ram
to p
to ma
al gum
al engo
Ġt s
Ġt um
Ġt ab
Ġt orn
Ġt inta
ro pa
ta g
Ġb Ã¡s
Ġes f
Ġg ira
ente i
qui lo
Ġcom Ã©dia
ic leta
Ã³ vel
am ar
Ġno v
Ġno vos
Ġpra s
Ġtem pera
Qu ase
Ġna tureza
un ha
Ġac um
Ġj e
Ġj apon
ga cia
Ġcon tou
Ġre des
Ġre forma
di ante
ĠC al
ĠC ome
ĠC PF
ĠP E
Ġqu antas
ĠA tÃ©
ĠM u
ĠM elhor
ĠM EU
ĠD el
pa ssou
ĠS us
ĠS ur
us ando
Ġpa gou
Ġin d
Ġin im
ĠT E
ĠT om
Ġsen Ã£o
Ġvi das
Ġvi vendo
ĠB em
Ġpre ju
ce do
pe ta
pe cial
Ġsab onete
ĠR ui
ĠR Ãºssia
ĠV Ã¢nia
ci la
Ãº lio
Ġan tigo
Ġper nas
Ġter ceiro
Ġca deia
na do
na quele
ĠL OL
iz e
tu p
Ġfil tro
Com andante
ac abou
ter na
ez a
ĠÃ³ culos
Ġmen s
Ġmen tindo
con de
gado s
Ġsegu ido
Ġche garam
Ġman if
Ġmer das
Ġesc ula
Ġra pel
Ġtr inta
Ġsa una
pi dÃ£o
Ġla dos
Ġcan sado
fer ir
Ac ha
ĠPor tugal
Ġro sa
Ġim possÃŃvel
Ġus ei
Ġlu tar
quer endo
Ġsim patia
Ġr ico
Ġconhe cem
Al Ã©m
Ġcol ar
ĠW i
enta do
Ġdire Ã§Ã£o
Ġhom enagem
Ġpergun tei
Ġpres id
Ġpres enÃ§a
Ġgan hando
Ġab enÃ§o
Ġrou bou
val do
Ġsal vou
Ġcomp rando
eliz e
Ġnas ci
Ġga veta
Ġcomer cial
Ġhis tÃ³rias
Ġaten der
Ġpi ranha
Ġcl ara
Ġcl ÃŃn
Ġchama da
ĠCa etano
ĠCa Ã§apava
Ġpes quisa
Ġatra so
ĠLu ÃŃsa
Ġencon tro
vem bro
Con segu
Che guei
Ġinf antil
Ġmaior ia
ĠrÃ¡ pida
tan Ã¡s
EN DO
Ġamig as
Ġad ul
Ġw hat
Ġbei jar
Ġsin cera
Ġci Ãªncia
Sem ana
tri b
Ġliga Ã§Ã£o
ĠLa ura
ent ÃŃ
rum p
Ġfar Ã¡
Ġof icial
Ra fael
ah ia
Ġintere sse
Ġgri tando
Ġsex ual
Ġmex ic
Ġpare cia
Ġsoc iedade
Ġgas tar
Ġprodu Ã§Ã£o
Ġ19 9
dic os
ĠpolÃŃ tico
ssion ante
Ġag enda
ĠJai me
ĠMÃ¡r cio
ĠJos ias
Ġinven tando
Ġis queiro
mÃ¡ tico
ĠTi ju
ĠTi kTok
Ġpartici par
Ġmete oro
Ġdiver tido
Ã´m ico
Ġher Ã³i
Ġmel horar
ĠSer gio
Ado rei
Ġgaran tir
ĠCopa cabana
Ġarro z
Ġfinan ceiro
fiz er
Segun da
Ġlen tilha
Ġseques tro
Ġsuf iciente
Ġnecess idade
ĠDES C
ĠAmaz on
Ġdever ia
Ġmotor ista
Ġvoc es
Ġdetal hes
Ġinterrom per
ĠpÃ©ss imo
Ġsincer o
Ġcigar ro
Ġboc eta
Ġhomo ssexual
Ġmentiro so
Ġsho pping
Ġestab ele
fli x
Ġintim idade
Ġmilksha ke
ĠcrÃ© dito
Ġbura co
Ġpremi um
Tal vez
wit ter
antÃ¡s tico
ĠSus ana
B T
C al
F eliz
G reg
I ns
M uita
M Ãºsica
N os
O I
O K
P u
P Ã©
P rÃ³ximo
R icardo
U ns
V eio
V anessa
a tra
b eiro
c alma
d cas
d ÃŃculo
e b
e sses
f io
f ez
g inho
g no
g ante
g li
k a
k er
k es
l d
l em
l ico
l lon
m es
m eus
m ito
o do
p Ã©u
r Ãªncia
s ando
s erÃ¡
v ira
v eio
Ã ļ
Ġ ran
Ġ Quando
Ġp Ã³s
Ġc rÃŃ
Ã£ s
Ġm ina
Ã© vei
Ġs Ã¡bado
Ġv as
Ġv ic
ar de
en con
en tinho
in ga
Ã¡ cio
Ã¡ tico
or ra
er Ãª
Ġf Ã©
Ġf ria
Ġf lu
Ġo cor
an g
al do
al ti
oc ando
is tir
re do
de us
ho s
Ġb eira
ou tra
Ġg l
Ġg rin
ia dor
ente mente
ai xar
es t
Ã³ ria
Ġi oga
Ġl eu
Ġno vas
Ġpor Ã©m
Ġpor no
ol uta
Ġda dos
Ġfa ce
Ġfa cul
un ciar
Ġj amais
Ġcon ex
Ġre i
Ġre li
Ġre zar
Ġem ail
ĠC i
ĠC Ãª
ĠP T
ĠP ab
ĠP fizer
ĠA ra
ĠA lex
ĠM on
ĠM il
ĠM Ã¡rio
ĠM ilton
inho so
Ġto p
Ġto u
Ġto sse
ĠS E
ĠS al
ĠS am
ĠS Ã´nia
Ġam i
Ġam ei
Ġcara ca
Ġin ten
Es que
ca u
Ġvi ral
Ã§a ÃŃ
Ġal ho
Ġal Ã©m
Ġal imenta
ĠB i
ĠB al
ĠB ora
ĠB eijo
ĠB ahia
po der
Ġpre con
ve a
Ġass umir
Ġsu jo
ĠJ or
ĠV anessa
Ãº l
Ãº r
ĠF er
Ġper dida
ir ul
Ġdes espera
amb i
Ġca indo
Ġca gando
Ġca gada
pre cisa
ĠL o
ĠL is
Ġbo le
Ġh i
ĠG os
Ġfil mando
Com prei
Ġpar to
Ġesta cionamento
Ġsegu e
Ġra io
Ġsa fado
Ġsa udÃ¡vel
li to
ĠI emanjÃ¡
ona da
Ġla ta
Ġcan ta
Ġcan tando
Ġso bra
Ġso ja
Po dia
fer e
tr Ã³
ge la
bo la
ĠU r
ĠH u
ĠH enrique
Ġfor m
Ġban da
Ġban deira
tal mente
ĠÃ¡ gu
Ġconhe ci
Ġtran sa
Ġcol Ã©gio
Ġpessoal mente
ch an
Ġgra ve
ĠPa ulinho
Ġcons ide
pro blema
Ġmil itar
Ġ3 00
cion ou
Ġresp eita
Ġempre gada
it inha
ĠPe drinho
Ġven da
Ġven ho
Ġesque n
Ġcal mo
Ġpl Ã¡stico
fo go
Ġpos tando
Ġer rou
Ġgosta va
ke d
ĠNo va
Ġcab el
Ġchama do
vol u
Ġdis far
ĠLu ÃŃs
Ġbic icleta
Ġgran des
ĠTem er
ĠSu a
ĠSu ÃŃÃ§a
ĠLe o
TA R
Ġson o
Ġmi jo
Per gunta
xi as
Pre ciso
ves ti
Ġamig Ã£o
Ro drigo
ĠOs car
Ġri dÃŃculo
HA HA
Ġtam pa
can tando
Ġamar ela
** **
tel la
ĠLa Ã©rcio
Ġgor da
Ġgor dura
Ġlan Ã§ar
Ġder re
Ġsus p
Ġama da
inis tra
ĠJul io
Ġescre ve
Ġfer ro
pira Ã§Ã£o
Ġgay s
Ġfin ge
Ġpreocu pa
Ġapres enta
Di fÃŃcil
ĠAc hei
Ġcomb inou
Ġpersona gens
ĠsaÃŃ da
ĠlÃŃ qui
Ġbus ca
ugu sto
ĠpÃºbl ica
ĠCam ila
ĠFo da
Sen ador
ĠChe ga
Ã´m ulo
ĠNor te
ĠMi guel
duz ir
Ġdra gÃ£o
Ġtroc ou
Ġob je
Ġprome to
Ġcolo quei
ĠLÃº cia
Ġmachu ca
ĠVOCÃĬ S
ple tamente
Ġsensa Ã§Ã£o
Ġidenti dade
Aconte ce
ĠCab ral
ĠPOR RA
ĠMÃ© xico
Mora dor
Ġsubs tit
ĠUni dos
sen Ã£o
Ġcla sse
ĠVic ente
Ġcheira r
Ġest Ãºdio
ĠLor ena
Ġproib ido
ĠLui za
liv eira
Ġfel icidade
Ġnoj ento
ĠMA IS
ĠGoi Ã¡s
Ġev ento
Ġdoi deira
ĠOde te
Ġpris Ã£o
Ġprinci pal
Ġchurras co
Ġoportun idade
Ġhil Ã¡rio
ĠÃ³r gÃ£o
Elei tor
ĠTiju ca
Ã©vei llon
B on
B ei
D an
D ia
D iga
E sses
F u
G lÃ³ria
H a
J un
J uro
J Ã©ssica
L o
L ou
M OR
P R
P Ã¡
P os
R ena
S r
S andra
T eu
T amo
T ive
V im
b ia
b ito
b ilidade
c eito
c esa
d ante
d inheiro
f t
g in
g amente
i v
l er
l har
m Ã´nio
o vÃ¡
p ico
p li
r ico
t y
v eiro
v Ã©s
z es
Ġ rio
Ġa pre
Ġa fe
Ġa ze
Ġd ai
Ġp Ãªn
Ġc em
Ġc usta
te ri
te ral
Ġm ir
Ġm undial
Ã© trica
Ġs argento
en co
ss ur
Ġque im
in Ã¡ria
or da
or ia
Ġf ita
Ġf eita
Ġde co
Ġde cis
Ġde las
om i
um bi
al Ã©m
Ġt h
oc orro
re la
... )
em o
Ġte cn
Ġte rapia
Ġb re
Ġb roc
ei ras
ÃŃ a
ÃŃ gado
ia is
sso a
ic enÃ§a
la gem
Ã³ gica
Ġl is
Ġno ve
Ġno tas
il l
ab or
ab ilidade
ol ho
Ġfa ca
Ġen car
Ġen fi
Ġac usa
Ġcon fe
Ġre ino
di gos
ĠC A
ĠC O
ĠC re
ĠC lar
ĠC AL
Ġma g
ĠP i
ĠP ei
ĠP RE
he rada
ĠA bra
ĠM ul
ĠM aravil
Ġto alha
pa c
pa ssando
ĠS om
ĠS erÃ¡
ĠS EM
ĠS heila
tra da
Ġpo te
Ġpa pa
Ġpa drÃ£o
Ġin o
Ġin dica
Ġin gresso
ĠT Ã¢nia
Ġvi rei
Ġal ta
ve j
En zo
pe dindo
com endo
Ġpara das
ten tando
Ġsu ja
tro n
ĠO K
ĠR E
ĠV o
ĠV ar
ci pe
ci dade
Ġper igo
Ġdes per
Ġca p
Ġca guei
Ġho tel
ĠL ou
ĠL iga
Ġh ino
ĠE les
Ġtra ta
Ġtra va
Ġtra tar
Ġtra ir
ac ha
ac hando
Ġex pul
ter no
vi ver
lo w
Ġsem an
ado ra
Ġli gada
Tem er
ĠEu ropa
her Ã³i
con vers
era is
Ġgos tando
ria do
Ġta xa
para do
Ġmer ece
Ġcor ri
Ġesc uro
Ġdele gacia
Ġali Ã¡s
pera r
pi ro
Ġ2 1
Ġ2 7
ĠI R
ĠI ta
ĠI van
Ġjo guinho
ĠMar isa
Ġmo eda
Ã¢ me
ito co
ju da
Ġco bra
Ġpass inho
No Ã©
ĠH e
Ġim pe
ig os
Ġlu a
res p
Ġacha m
Al guma
ĠW h
Ġgra va
Ġgra vando
par ecer
Ġqual idade
Ġlo ok
cil la
Ġdire itinho
Ġmil ho
Ġcri ou
and y
Pe gou
ici onal
Ġpassa g
Ġpu xar
ĠMa cedo
Ġgan hei
val u
Ġinter pre
RA N
Ãĥ Ãĥ
ven Ã§Ã£o
Ġsol uÃ§Ã£o
Ġval endo
Ġpap inho
ĠEs tados
Ġbrin co
Ġquar tinho
Ġmalu cos
Ġmu d
Ġins ta
ĠCa tarina
ĠCa xias
ĠvÃª m
Car ne
Le vanta
ensa cional
ine te
ĠRe alengo
ĠAn derson
ĠAn tÃ´nio
Ġconvers ou
ĠLe andro
Ġlim Ã£o
ĠmÃ© dio
ĠmÃ© dia
Ġmaior es
Ġvir gem
ĠNe to
Ġchu pa
aran Ã¡
Ġterm ina
Ro la
ĠSa ci
Ġpron ta
fil ha
Ġnam oro
DA S
ĠLa pa
IS A
Ġbri gar
Ġgor dinho
Ġcandida ta
Ġsan du
Ġpei dar
Ġperce be
Ġperce bi
Ġescre veu
Ġpan ela
Ġgri tar
Ġpul mÃ£o
Ġpin to
Ġlar gar
Ġsoc orro
Ġfer iado
Ġfundo s
Ġdescon to
Cha to
Ġsob ren
Ch eio
tin s
Ġcomple to
Ġenc her
Ġprepara r
gn idade
roc ura
Ġinforma Ã§Ãµes
Men os
Ġinven tou
Ġempres ta
Ġcoloc ando
Ġvagab unda
ĠCor ona
ĠJe ovÃ¡
ĠEx cel
Brun o
Prim eira
Ġinves timento
Cor ta
Ġdep rim
Ġfri ta
vindo s
Ġescon der
Ġatrapal hando
Ġbab Ã¡
ĠTh rones
Ġanima da
Ġflor esta
So bre
cei Ã§Ã£o
Ġtrem endo
Ġrecom endo
Ġchin Ãªs
mei da
Ġtotal mente
Ġdevol ver
Ġacost uma
ĠZo om
Ver dade
lis e
Segun do
ĠPris cila
Ġgram pe
Alun os
Fab io
Ġnom es
Ġger ente
ĠsÃŃ tio
Ġapaix on
ĠÃ¡r vor
ĠCla udio
ĠAd ilson
bec il
ĠTU DO
Ġcancela mento
Gal era
Ġdim in
Ġestive sse
ĠGonÃ§ alo
ĠclÃ¡ss ico
inci dÃªncia
Ġseguido res
Ġescula cho
dcas t
Ġgl Ãº
' ,
- -
1 2
2 00
A no
A tenÃ§Ã£o
A ranha
A visa
B A
B L
B as
C IA
D ar
F or
F lÃ¡vio
H OR
I K
I U
I gual
L A
M ostra
N essa
O ba
P G
P O
R ec
T F
T Ã£o
T oca
T rinta
a Ã§Ã£o
c en
c uta
d s
e qui
e ador
f inho
f it
g lia
i h
l v
m aravil
p ensa
p irinha
p Ã³rter
r ima
r oca
r imento
t and
u to
v ens
x inha
Ġ &
Ġ QU
Ġ ham
Ġa sse
Ġe tern
Ġd Ã©
Ġc ic
Ġc ana
Ġc rim
Ġc Ã©re
te in
Ġn or
Ġm Ã£es
Ġs tar
Ġs ome
Ġv an
en ni
ss us
ss Ãµes
Ã¡ gico
Ã¡ lise
or k
er va
Ġf iador
Ġf ÃŃgado
Ġde dos
Ġde dinho
Ġde vem
Ġde baixo
to no
Ġo vos
Ġt ÃŃ
is ma
is co
ro z
de al
de lo
ei m
ei tinho
Ġes porte
ÃŃ via
Ġcom bo
Ġcom emora
ic al
la Ã§Ã£o
es es
am igo
tÃ¡ rios
il Ã£o
il mar
ab ote
ssa da
Qu Ã©
Qu ar
Qu atro
Ġna ve
Ġna dar
Ġse co
Ġse ssÃ£o
un d
Ġen f
Ġen cara
Ġac eita
ul ando
Ġcon dom
Ġre tor
Ġpe t
di as
ĠC aram
ĠP R
ĠP rime
ĠP RO
he y
ma go
ĠM ia
ĠM ara
ĠM ol
ĠM ac
ĠM undo
ĠM Ã¡gico
ĠD ra
Ġto a
Ġto mo
ti Ã§Ã£o
ĠS how
Ġele tr
Ġam e
Ġam eric
tra l
tra ns
Ġdi vers
Ġdi gnidade
Ġin tes
ĠT rump
ĠT witter
Ġvi er
Ġvi deo
Ġvi dro
co bri
Ġal u
ĠB ic
ran co
Ġpre sa
com igo
Ġass us
Ġpro vas
Ġver Ã£o
ĠJ am
ĠJ us
ĠO L
ĠO l
ĠO n
ĠO x
ci p
ĠF re
ĠF ui
Ġan do
Ġper u
ina dor
ir Ã£o
Ġdes te
Ġne ssas
Ġca v
na quela
ĠG erais
ver eiro
no w
Ġtra ficante
ac hor
ac hei
Ġex pressÃ£o
Ġex celente
ter s
Ġcar b
vi dez
ez ar
Ġsou be
ana da
Se ja
bri dade
Ġenten dido
Ġesta gi
gado res
Ġar tes
Ġprecis am
Ġta tu
Ġta tua
Ġas cendente
Ġcor da
Ġcor rida
Ġsai ba
ĠirmÃ£o s
gra fo
Ġ2 2
Ġon das
ne ss
Po vo
Ã¡s tica
cer ia
ris mo
ris adas
Ġco z
Ġco brar
Ġba gulho
Ġro xo
Ġverdade ira
Ġverdade iro
Ġim becil
du reira
Ġban ana
Ġconhe ceu
ĠW ell
ĠW agner
ĠPa pai
Ã¢n ica
Ġ- -
Ġ3 5
Ġvo ar
Ġvo ando
Ġvo tar
!! !!
Ġpres tar
ĠRo ber
ĠMa ca
Ġven ha
Ġbar ul
Ġrou bando
Ġano tar
ĠAl em
ĠAl meida
ÃŃn cipe
for Ã§o
Ġacredi tam
Ġpos tou
fÃŃ cio
Ġpassar Ã£o
Ġresol vi
ĠK ibe
Ġbai x
Ġrep Ã³rter
ĠEs tava
Ġbrin de
gi ar
amo rando
aa a
Ġmos quito
Ġconf io
Ġconf irma
Car linhos
Ã©s ia
ĠLu a
Ġbic hinho
ĠÃºl timos
Ġlim po
Ġlim pe
Ġau x
Ġfec hou
Ġgru pos
Per deu
dr Ã©
ĠAm Ã©rica
Ġtes tem
tan al
Ġpir oc
Ġsor riso
Ġhor mÃ´nio
ĠSa ulo
cre to
ĠMarc Ã£o
Ġacor dou
Ġel enco
men os
Ġeng as
Ġeng ana
Ġavis ou
ĠnÃºm eros
ocu rando
Ma uro
Ġbri lh
Ġder ru
Ġu p
Ġnu des
ĠTa va
pela da
inis tÃ©rio
ĠJul iano
Ġperce beu
Gos tou
Gos taria
Ġdef in
Ġdef ender
Ġdef endendo
Ã³r n
Ġfuncion ar
Ġfuncion Ã¡rio
Ġgas olina
Ex plica
Ġimag inar
Ġapren deu
Ġestra gar
Ġnegoc inho
Ġconc entra
Ġcomb inado
Ġvaz io
ĠES SA
Ġinven tar
Ġdemi ssÃ£o
Ġdoc um
Ġdescobri r
Ġdescobri u
Sen Ã£o
Sen hora
Ġinv Ã©s
Ġlibera r
Ġcorona vÃŃ
Ġanima is
Ġmem e
diz endo
Ġdescul pas
ĠsÃ© culo
Ġprote ger
Ġcampe onato
INHA S
Ġmol ho
Ale xa
Fora m
Ġapo io
Ġrepe tir
Ġquin ze
Ġimpre ssionante
pec ta
Ġfing ir
Ġopera Ã§Ã£o
Ġevi tar
ĠPol ÃŃcia
Segu inte
Ġdiv ul
Ġchei rinho
On tem
ĠJohn son
ĠJar dim
Ġhid ro
gent ina
ĠTit Ã£s
ĠespÃŃ rito
Ġfei jÃ£o
ĠMaur icio
Ġpronun ciamento
Ġtempera tura
Ġfacul dade
Ġconex Ã£o
ked In
ĠpÃªn alti
Ġseman inha
Ġsobren ome
IK E
glia sso
ĠcÃ©re bro
enni fer
ĠcoronavÃŃ rus
# $
% .
' ...
A bri
A bra
B ol
B ianca
C E
C el
C ur
C ham
D ES
F icar
F inal
F elipe
G ar
G osta
G rande
I a
I t
I GO
J unto
J ane
L uiz
L IA
N A
N O
P ei
P hone
S how
T U
T ia
T IA
U sa
U QU
U illiam
V a
V OR
b ara
b jeÃ§Ã£o
b Ãºr
c um
c ter
c ÃŃcio
d ala
d ing
d icional
f orm
f unda
g il
g anta
h al
j un
j inho
j us
m am
m Ã£e
m esa
m aior
n to
o w
p inha
p lay
s om
s eus
t ta
y er
z el
z ado
Ġ âĻ«
qu ia
qu ase
Ġa gre
Ġa ves
Ġe ta
Ġp onta
Ġp inta
Ġp Ãªnis
Ġp neu
Ġc enta
Ġc rer
te ra
te lo
te rior
Ġn este
Ġn amorando
Ġm ito
Ġm Ãºs
Ġs un
Ġs tre
Ġs ÃŃn
Ġv ei
ar ina
en so
en tÃ¡rio
Ġque brou
in d
in ante
in ge
Ã¡ vea
Ġf aro
Ġf olha
Ġde pressÃ£o
Ġo ver
an de
re almente
ta que
em e
Ġb ul
ei tor
Ġes ca
Ġes pero
Ġg ara
Ġg am
ÃŃ che
sso as
im i
Ġcom ando
Ġcom pre
Ġcom entar
ic lete
la ce
es e
es tamos
Ã³ veis
am an
am on
Ġi gu
Ġi lim
Ġi Phone
Ġl Ãº
Ġl aser
ri vel
el os
el va
tÃ¡ culo
gu la
il ma
Ġpor nÃ´
Qu antas
ol hando
ol Ã³gico
Ġfa cil
Ġse tor
Ġse questra
Ġen fer
Ġen fia
Ġen sai
Ġen lou
Ġj ur
Ġj eitinho
ga te
ul ista
Ġcon v
Ġre vel
Ġre vista
Ġem pa
Ġem pol
ĠC U
ĠC e
ĠC ala
ĠC ur
ĠC AN
ĠC oisa
ui Ãº
Ġma da
ĠP O
ĠP Ã©
ĠP AR
ĠP lay
ĠP itoco
va co
ĠA S
ĠA ham
ĠA venida
ĠA Ã§Ãºcar
ĠM ora
ĠM Ã£e
ĠM oisÃ©s
Ġme c
tar uga
Ġfo dendo
ti ba
ĠS ab
ĠS AI
tra z
Ġdi ta
Ġdi eta
Ġcara lha
Ġtu pperware
Ġin g
ĠT A
ĠT ipo
Ġvi bra
ĠlÃ¡ g
ĠB ru
ĠB et
po dia
ce dor
pe ssoal
Ġpro v
Ġpro posta
ten ta
ten cial
Ġver eador
ĠJ ornal
ĠR is
ĠR ib
ĠV ira
ĠV OU
ci to
por ta
ĠF ilho
Ġan d
Ġan Ãºn
Ġper ÃŃ
Ġper ten
Ġper mi
ina Ã§Ã£o
ir mÃ£o
Ġdes pe
Ġdes enho
Ġne to
Ġter no
Ġter reno
Ġca ÃŃ
Ġca das
Ġca tÃ³
Ġca gou
Ġca paz
Ġca pital
ĠL Ãģ
Ġbo beira
Ġh ash
ĠN inguÃ©m
ĠN Ã³s
ĠG al
ĠG ame
ĠG Ã¡vea
ĠE ita
ver so
sa pp
Ġfil Ã©
no ssa
Ġtra go
tÃ© gia
tÃ© tico
Ġex clus
Ġex pecta
Ġex terior
Ġcar ioca
Ġpar tido
Ġpar ceria
Ġle genda
ur so
ba tendo
ante i
Ġta ca
Ġas tral
ber g
ber t
Ġmer mo
Ġcor rente
Ġcor onel
inh ar
Ġra inha
Ġra iz
Ġra bo
Ġtr Ã©plica
Ġsa fada
gra Ã§a
pi Ã£o
Ġ2 3
ĠI guaÃ§u
Ġcan tor
Ġcan tinho
Ġmo derno
fer no
tem bro
ge rando
Ġolha dinha
ris e
Ġco pi
Ġco incidÃªncia
tÃ³ rios
No sso
ĠH il
var isto
ig h
Des liga
Ġus ado
tal ar
Ġaju dando
Ġr enda
Ġconhe cia
Ġconhe cido
Ġpens amento
'' ?
Ġcol her
Ġcol oco
Ġconsegu ia
Ġgra ma
Ġbe ge
Ġbe terra
Ġvo tei
Pa ssou
Pa ssei
vers al
ĠCar linha
ĠMa dureira
oo o
Ġgan ho
Ġab aixo
val e
Ġsal vo
Ġesque mas
ĠAl z
Ġcal do
ĠK elly
Ġfu gir
Ġbon s
Ġsol teiro
Ġquiser em
Ġpap Ã©is
Ġrep olho
ĠEs tamos
Ġcur ta
gue te
Ġcontra tei
Ġqueri dÃ£o
Ġapar elho
Ġor g
Ġins crever
ĠX uxa
Ġtrans ferir
Ġatra palha
Ġva gina
Ġmai o
Ġgu er
Ġhum ilha
Ġgran a
TA N
Ġau tÃ³
ĠmÃ© dicos
Ġinf lu
ĠVal mir
Ġrece be
ĠmÃ¡ gico
fal ei
tic ia
alha Ã§Ã£o
Ġbeb eu
Pre cis
cas a
ĠSe gura
Val e
Ġagu entando
ĠDe putado
Ġsor rindo
Ġsor vete
dÃ¡ pio
ĠSa gitÃ¡rio
che gou
Ġel Ã©trica
SO S
Ġbicho s
ĠJu ca
ĠRa fa
Ġjun ta
Ġjun tar
Ġjun tinho
Ġavis o
Ġavis ei
Ġavis ando
Ġjan eiro
gon o
ĠLa va
IS SO
Ġgar ganta
Tra vou
tru z
Ġtraz endo
ĠTa deu
ĠCara ca
ĠIn ter
Ġsof rendo
Ã³r cio
Ġmex endo
Ġusa va
Ġmacon heiro
Ġrespon deu
Ġpare cido
Ġsoc iais
ssar ia
ĠBar bi
Ġgover nador
Ġfe dendo
Ġprodu tos
Ġdor me
Ġpri va
Ġapren de
Ġesquer do
Ġproce dimento
Sa udade
Ġvis ita
Ġvis ual
pel os
Ġdesli ga
EL E
Ġauto es
Ġauto mÃ¡tico
Ġpal mito
Ġprepara do
ĠMan u
Ġvaz ar
Ãĩ A
Ġaper ta
Ġfre te
Ġverm elha
Ġescolh i
Ġcre me
ĠFÃ¡ tima
ĠCas eiro
come Ã§ou
Ġfri end
Ġconvi te
Cai u
Ġconfi anÃ§a
Ġquei xo
ĠPera ÃŃ
Ġdra ma
Gu ilherme
Ġmul herada
ĠCel so
Ġlimite s
Ġrecom enda
ĠsÃ© ria
Ġmach ismo
quen ta
ĠJun ior
Ġrespira r
tit uiÃ§Ã£o
Ġmaqu ininha
Ġat leta
Ġpia das
Ġelim inar
Ġsecre to
Ġimprovis o
Ġengan ar
Ġgre ve
ĠJa to
Ġsobrevi v
Pol ÃŃcia
Ġsatis feito
Ġgarra fa
ya gi
ers by
Ġfis cal
ĠClau dinho
Ġcompan hia
ĠRede TV
Ġinteli gente
ĠVol ta
ĠVerm elho
Ġfranc Ãªs
ĠBras ÃŃlia
Ġtrave ss
Ġfes tinha
ĠFe deral
ĠNet flix
ĠpirÃ¢m ide
Ġassa ss
Ġchate ado
ĠBota fogo
Ġts c
ĠabenÃ§o e
Greg Ã³rio
Ġvic iado
Ġgrin go
Ġprecon ceito
ĠlÃŃqui do
MOR PG
Ġdecis Ã£o
Ġenfi ar
ĠglÃº ten
ssus ci
Ġcondom ÃŃnio
ĠMia mi
achor ro
Ġartes anal
Ġlimpe za
Ġpiroc udo
UQU INHAS
Ġaves truz
Ġgara gem
Ġhash tag
Ġbeterra ba
4 0
A Ãª
A Ã§Ã£o
B ri
D oc
E r
G ilmar
H EI
I s
J e
L im
M u
M eus
M orreu
N as
N esse
P S
R J
R ou
R io
S on
T rou
T OU
U n
b inha
b ur
b rasil
b vio
c aram
d alo
e p
f ui
f ezinho
g el
g iu
g umento
g Ã©dia
h inha
i ante
j i
m u
m or
n enhum
p in
p em
p ic
p ri
p Ã§Ã£o
p rou
p eita
r s
r ÃŃcio
t ti
t Ã¢nico
w l
x eira
x ambi
Ġ @
Ġ ?!
qu atro
Ġa tro
Ġa umento
Ġa Ã§aÃŃ
ra el
ra das
Ġe diÃ§Ã£o
Ġd r
Ġd on
Ġp ista
Ġp ilo
Ġc m
que ria
te x
te te
Ġn ormalmente
Ġm iste
Ġm ÃŃdia
Ġs oco
Ġs tories
Ġs tand
Ġv eia
ar da
ar go
en an
ss er
Ġque da
Ġque remos
in an
in ter
or es
Ġf la
Ġo pa
Ġo deia
om ba
um iu
al al
al guÃ©m
Ġt ic
Ġt Ã©r
Ġt hat
Ġt ananÃ£
is e
is ti
ro ss
ta is
em bro
Ġb ron
Ġb log
ei tas
os e
Ġes por
Ġes pre
ou se
Ġg in
Ġg ui
Ġg li
ÃŃ zo
le t
le gal
Ġcom pa
la ck
es i
es ia
es ley
es pero
Ã³ cios
Ġi F
Ġi t
Ġi gno
Ġi deal
Ġl anÃ§a
Ãī M
ri ta
Ġno vembro
Ġdo ar
ssa do
Ġna tal
Ġna vio
Ġda ta
Ġfal tar
Ġfal tando
Ġse gre
un o
Ġen xa
Ġac ei
Ġac alma
Ġj ar
Ġj or
ga is
ul l
ul Ã¡rio
Ġcon di
Ġcon for
Ġre ta
Ġre ssusci
Ġpe gado
Ġpe garam
di fica
ĠC u
ĠC le
ĠC esar
ĠC rianÃ§a
Ġma Ã§
Ġma pa
ĠP r
ĠP ic
Ġqu ais
ĠA I
ĠA inda
ĠA quele
ĠM ulher
ĠM onstro
ĠM orreu
ĠD y
ĠD IA
Ġme tr
Ġfo f
Ġfo ge
Ġfo fa
Ġto que
pa ssar
ti dÃ£o
ĠS tar
ĠS na
ĠS ER
ĠS EU
ĠS AB
ĠS ky
ĠS BT
ĠS TF
us ica
Ġam ando
Ġpo dcast
Ġpo tencial
Ġpo esia
Ġpa uta
Ġpa guei
Ġpa ulista
Ġin veja
Ġin tenÃ§Ã£o
Ġin icia
ĠT ira
ĠT ambÃ©m
ĠT ele
Ġvi rada
Ġvi eram
Ġvi tamina
ĠB ri
ĠB ab
ĠB ig
ĠB ianca
ĠB IKE
ĠB uiÃº
ce ssaria
En trou
pe ga
com pletamente
Ġpro por
ĠJ ona
ĠO liveira
ĠR oc
ĠR ita
ĠV ambora
ci pi
por tante
Ġser Ã£o
Ġan dou
Ġan Ã¡lise
Ġper tinho
Ġdes ma
Ġdes ig
Ġter mo
Ġca cho
na Ã§Ã£o
Ġbo te
Ġh ome
tu almente
tu bro
ĠG en
ĠG ab
cia is
Com igo
der na
Ġtra iu
ac k
ac aba
Ġex ec
Ġex tre
Ġcar tÃ³rio
Ġcar eca
Ġcar dÃ¡pio
Ġpar o
Ġpar ente
Ġpar tes
vi u
Ġle gais
ana to
Ġmen tir
con tinu
era do
Ġcasa co
Ġche que
Ġman dala
Ġar mas
Ġar oma
Ġar tista
Ġar gumento
mar t
Ġdei tado
Ġcor rupÃ§Ã£o
Ġesc ala
Ġti rei
Ġti ros
Ġra b
Ġra pÃ¡
ĠÃ ¢
ĠÃ į
ĠirmÃ£o zinho
gem a
Ãªn io
Ãªn ico
Ãªn dio
pi oca
ĠI m
ĠI ma
Ġjo b
Ġmo tel
Ġso taque
Ġmor rido
Ġaque cimento
tem po
ram os
bo tar
ĠU S
Ġco ber
bre i
Ġneg ro
ĠH on
segu ra
Ġim posto
Ġus u
tal vez
fa Ã§Ã£o
hei mer
Ġaju dou
Ġr ima
res ol
Ġmar Ã§o
pl icar
Al berto
Ġcu rios
Ġgra videz
enh uma
Ġcons truir
Ġcons ciÃªncia
ena Ã§Ã£o
Pra zer
and re
Pe de
Pe Ã§anha
cion ado
cion ista
Pa ula
it ta
Ġtrabalho u
vis ÃŃvel
ĠRo ger
ĠMa teus
ĠvÃŃ tima
az e
Ġbar co
Ġgan gue
Ġsal mÃ£o
Ġesque cendo
esta Ã§Ã£o
ĠAl mir
fi e
fi quei
Ġpos itivo
ÃŃs io
cos ta
ĠK ellen
ĠprÃ³ x
Ġfu der
Ġrela xar
Ġsuper mer
Ġcin to
Ġcin za
ĠEs quece
Ġcur tindo
Ġrec eitar
Ġrec eitas
ane ta
Ġespe tÃ¡culo
tran ho
Ġespera va
Ġaten to
Ġaten deu
clus Ã£o
Mar ina
Ġapar ecendo
Ġtar taruga
Ġtrans ando
Ġtrans formar
Ġassis ti
Car d
pp y
Ġdis tra
Ġolho u
Ġimpor tÃ¢ncia
Ġliv es
Ġencon trou
ĠAn drÃ©
Ġprograma Ã§Ã£o
ee e
ĠSu eli
Che gamos
Ġmi jada
Ġtive ram
Ġmam a
su b
ĠAm igo
Pre firo
Ġtes tar
Ġsur pre
Ġve g
Ġgo zar
Ġterm inando
ĠGu erra
ĠMarc inha
gos ta
Ġsin inho
ze bu
ĠJu dite
man dar
Ġcul to
bol o
Ġlan Ã§ando
ĠTu valu
MA S
ES P
Ġ15 0
Ġu go
col he
Ġarma do
ĠJul i
ĠAr gentina
Ġsof re
Ġdom ic
Ġdef esa
ĠCh ico
Ġpul sei
Vi deos
pan ema
Ġsub iu
Ġfum ando
Ġtex tÃ£o
Ġfe vereiro
Ġdescon he
Ġ19 8
dic ina
th an
Ġinc Ãªndio
Cha ves
Ġcarre gar
ĠPar is
Ġproce ssar
Ġ201 8
Ġarre b
Ġpeque na
Vol tamos
ĠMan sur
Ġrecla mando
?? ?
Men ina
ĠVi deo
Ġx in
Ġx er
Ġdemi tido
aix Ã£o
Ġassal tante
pon do
Ġpel as
Ġbur ra
Ġpartici paÃ§Ã£o
Res pira
ĠPer deu
ĠPer dÃ£o
ĠSem ana
sai r
Ġconcor da
Ġpop ular
Ġher Ã³is
Ġapa ga
Ġapa gar
Ġtur no
Ġinv enta
Ġinv entei
Ġcole ga
Ġfamos a
ĠPro blema
Ġ200 2
Ġtro Ã§o
Ġbi fe
ĠgÃªn io
Ġreg ras
ĠFab io
ĠNor onha
eeee eeee
EE EE
vir gem
Ġcorrer ia
Ġata que
Ado ro
ĠCel ta
Ġjuro s
ĠCan al
Ġcapa cete
Ġchin elo
Ġpatr Ã£o
Ġprop Ã³sito
Ġescra vidÃ£o
Ġfemin ista
Ġbloque ou
Ġjul gar
Ale luia
ĠvÃ´ lei
Ġmaqu ia
Ġden gue
Ġpla ca
Ġpen so
Ġcompro vante
ĠGa gliasso
Ġinva dindo
Ġconsul ta
Ġconsul tÃ³rio
Ġdiv Ã³rcio
Ġnega tivo
ĠLin kedIn
ĠAndre ssa
pens ando
ĠSon ia
ĠBa te
vin heta
Ġfru ta
ĠfÃŃs ica
ĠPres idente
ĠBen Ã©
ĠOr lando
Ġrespons Ã¡vel
Ġpuxa do
Ġjusti Ã§a
Ab aixa
abre sa
ĠPM DB
Ġmascul ina
Ġgostos inho
Ġuni verso
Fern ando
Ġdesempre gado
Ġcomen tÃ¡rios
ĠBro ther
ĠLem bra
Conhe Ã§o
Ġcost uma
Ġacompan hando
bul Ã¢ncia
ĠVan der
ĠEli as
Ġkara tÃª
Ġtamb em
Ġans iedade
Ġpolicia is
Ġcoi tado
Ġjapon Ãªs
Ġporno grafia
Ġreli giÃ£o
ĠPab lo
Ġobje tivo
Lo go
Ġtecn ologia
ĠCAL MA
Ġpassag eiros
Ġsandu ÃŃche
Ġham bÃºr
Ġcic lo
Ġcana is
ĠtÃŃ tulo
Ġintes tino
Ġcav ala
Ġtatua gem
Ġderru bar
Ġmada me
ĠanÃºn cio
Ġcadas tro
ĠAlz heimer
ĠBarbi e
Ġmiste rioso
Ġgli tter
Ġmetr Ã´
cessaria mente
ĠhambÃºr guer
! ''
' !
1 4
1 8
1 00
A mar
A DO
A parece
A pes
C elular
C HA
D S
D is
D el
D IC
E ric
F ran
F ez
G o
G abriel
G uiana
G rupo
I Z
I ON
M O
M ando
M ach
P r
P ris
P ron
P RE
P Ãµe
P uxa
P romo
R Ã¡
R ece
R IA
S om
S heila
S idcley
T anto
T ÃĥO
T erm
V E
V en
V ia
V ira
a que
a gre
b Ã£o
b in
b Ã¡
b el
b son
b esse
b loque
f lor
g ista
g ena
g ÃŃstica
h ir
i pa
j as
l ÃŃ
m ite
n ome
n amora
p ente
p Ã³
p ende
p hone
s ter
t ÃŃcia
t Ãµes
t ane
u te
u eira
u zio
v inha
v Ã´
w ee
x in
z ul
z aro
Ġ Í
qu ar
Ġa Ã§Ã£o
Ġa ir
Ġa fo
Ġa ven
Ġe in
Ġe terno
Ġd ur
Ġd rin
Ġd entes
Ġp end
Ġp ombo
Ġc esta
te is
te rapia
Ġn in
Ġn eu
Ġm ur
do l
Ġs am
Ġs ul
Ġs hor
Ġv Ã³s
Ġv ambora
ar Ã©
ar di
en Ã©
en tinha
ss on
Ġque ima
Ġf onte
Ġde cep
Ġo fic
Ġt Ã³
Ġt inhoso
oc ou
oc Ã´
re ce
re pe
da Ã§Ã£o
da quele
ro ta
ta de
ta ca
ta zar
de l
de le
de sses
em ia
Ġte to
Ġb igo
Ġb ico
Ġes pi
Ġes tÃ´
Ġg if
le c
le va
qui o
Ġi lha
Ġi tal
Ġl Ã¢m
ri tos
el en
el ente
el son
el has
gu r
gu lo
gu inhos
il ar
Ġpor car
ab ei
ab ol
Ġse questrador
Ġse tembro
Ġen jo
Ġen xer
Ġen redo
Ġac eito
ul ha
Ġcon den
Ġre gra
Ġpe gam
di sso
di zer
Ġem pur
Ġma tch
ĠP Ã¡
ĠP ER
ĠP rÃ³ximo
va z
ĠA us
ĠA no
ĠA bre
ĠA pp
ĠA ugusto
ĠM ai
ĠM ad
ĠM AL
ĠD ar
Ġfo dida
Ġfo guete
ti Ã§a
ti dos
ti rar
ĠS EN
tra do
Ġpa ciÃªncia
Ġpa daria
Ġpa gamento
Ġin Ãº
Es cuta
ĠT oc
ĠT rÃªs
ĠT oma
ca te
ca dinho
Ġsen tado
Ġsen timento
Ġvi esse
Ġal can
ĠB ern
ĠB elize
ran ga
Ġpre tende
mo gema
com er
com prar
Ġver sÃ£o
ĠO uro
ĠR Ã©veillon
ĠV amo
ci el
Ġser vir
Ãº c
ĠF A
ĠF IL
Ġan unciar
Ġper co
Ġper segu
ina dos
ir k
ir gem
Ġdes tr
Ġdes graÃ§ado
Ġdes truir
Ġne ve
Ġne gra
Ġne cessariamente
Ġbo bo
iz o
Ġcas ei
Ġcas eiro
Ġh ar
ĠG ui
ver y
Ġir ia
Ah n
der ia
Ġtra indo
tÃ© ria
Ġpr ima
Ġpr ende
ac an
Ġex cel
Ġex isto
Ġex pli
Ġpar ru
vi rou
ez er
Ġle pra
cul pe
Ġli qui
ĠÃ³ leo
bri ga
Ġman tei
Ġman dado
Ġar ris
Ġta ke
Ġta pioca
Ġch iclete
Ġdia be
Ġcha pÃ©u
Ġcor no
Ġesc orre
eito na
Ġcer vej
tor es
Ġra Ã§a
Ġra mo
har ia
pera i
gra do
per gun
pi to
Ġ2 6
ĠI an
ĠI panema
Ġla vo
Ġla tinha
Ġon Ã§a
Ġfala sse
Ġpou ca
Ġcan o
ĠMar io
ĠMar cel
ne gÃ³cio
Ġso gra
Ġso brar
Ġmor tos
abe Ã§a
bo ta
ura cÃ£o
Ġneg Ã£o
Ġmal dade
ĠH ar
ĠH er
Ġcam pinho
Ġro s
Ġro dando
Ġim pac
ig re
Ġus am
Ġban de
Ġban ca
Ġban heira
entro u
Ġr en
Ġr umo
des tino
Ġcol or
ĠW ar
ĠW anessa
ĠW illiam
Ġru as
Ġgra u
par tamento
ula do
Ġestar ia
Ġcri ando
Pe Ã§o
Pe dra
Ġvo te
Ġvo tou
rin ca
rin cip
Ġdeix e
Ġdeix ando
ici ano
Bo tei
ĠCar ol
To das
Ġpu de
Ġpu tas
ĠmÃ£o zinha
ĠPe drÃ£o
ĠRo la
Ġ? ,
ĠMa g
ĠMa ciel
Ġven deu
Ġentre gador
Ġgan cho
Ġab aixa
tado res
Ġrou bado
Ġrou pas
val i
val ho
Ġinter valo
Ġsal to
Ġesque cido
Enten de
ĠAl len
Ġlem brou
las h
Ġvia jando
Ġpl anos
Ġpos t
ĠK a
Ġbon itinha
Ġfun da
Ġga tinha
Ġrec ic
Ġlou Ã§a
gi os
Ġmu dando
Ġmora va
Ġpi poca
Ġapar e
Ġsobre mesa
aa ah
Ġor ig
ĠX ande
ĠX Videos
Ġtar e
Ġchama va
Ġpes ada
Car la
Ġatra sada
Fal ar
ĠpÃ´ r
Par e
ĠAn itta
vem os
ĠSu per
Ġinf in
ĠVal e
dr inha
Ġmam ar
ER DA
fal ou
ĠAm aran
Pre para
bar Ã£o
Ġchu pando
cas o
Ġve ÃŃculo
end imento
ĠGu imar
Re pÃ³rter
Ġagu entar
Ġcham aram
Ġcham pan
ĠOs valdo
ĠpaÃŃs es
Ġw or
Ġw ant
Ġacor dei
Fo go
Su b
IN HO
Ġpera i
men tal
Ġpodia m
man os
Ca pitÃ£o
Ma ta
Ma teus
Ġpapel Ã£o
An ti
Ġapro veita
Ġtor no
Ġtor cida
Ġaz u
Ġigual zinho
Ġcui dando
OC A
Ġnu vem
col ocar
Ġlei tinho
ly ing
Ġsof rer
Ġjornal ismo
Da vidson
Ġves tir
Ġtre ino
Ġtre inar
Ġsub indo
Ġgas ta
gl om
Ġsum ido
Ġprodu z
Ġdescon tra
Ġimag ens
Ġimag ino
Ġimag inei
th ur
Ġcres ce
Ġpri or
Ġpri vil
ĠCon ceiÃ§Ã£o
Co Ã©
ĠPar k
Ġsob rou
Ġtri bo
Ġ201 5
Ġ201 9
Ġvis Ã£o
Ġale a
Ġestra tÃ©gia
ÃŃm bolo
Ġpreocu pada
EL A
Ġviol ento
Di re
Ġmis Ã©ria
Ġpal inha
Ġpal co
Lem bro
Ġ9 0
ĠpÃ¡ gina
Ġz ona
ĠES TÃģ
ĠsaÃŃ do
Ġgela do
Ġprefer e
Ġescolh ido
van gÃ©
Ġecon Ã´mico
late ia
Ġdiver tir
Res ol
ĠClÃ¡ udia
ĠFo deu
ric io
Ġconcor do
Ġprin t
Ġcole gas
Ġfecha da
tun es
Ġmin d
ĠMer cado
ĠMer itÃŃssimo
ĠFab iano
ĠNor deste
Ne ymar
pul s
ĠMi yagi
Ġconfun de
ĠTh iago
Ġtroc ado
Ġbor ra
Ġvende dor
Ġdescul pe
Ġescolhe ram
dire to
Ġsig no
Ġquebra do
Ġprop rie
ĠJun inho
ĠhÃ© te
Ġescra vo
Ġcampe Ã£o
Ġfemin ino
Ba te
Ġens inar
ĠĠĠĠĠĠĠĠĠĠĠĠĠĠĠĠ ĠĠĠĠĠĠĠĠĠĠĠĠĠĠĠĠ
pr ocurando
Ġat le
ĠFal ei
Ġlam ber
Ġhorror osa
Mo Ã§o
Ġperf ume
Ġregis tro
Ġregis trar
Ġplan ilha
Ġsel va
ĠRes pira
ĠVI DA
ĠVer de
peu ta
trabal ho
Ġpic anha
Ġgram po
ĠAle xa
Ġinde p
ĠRu a
Alun o
Ġengra Ã§ada
ĠMichel le
Apro veita
Ġconven cer
ĠNas a
Ġmascul ino
Ġdiscu ssÃ£o
Dom ingo
Ġcro ss
Ġgera Ã§Ã£o
Ġdiri gir
ĠLon guinho
Ġcompe tiÃ§Ã£o
Ġrepres enta
ĠPu gli
ĠFec hou
ĠLac erda
Ġhigi Ãªnico
Ham ilton
lÃ¢n dia
Ġdepos itar
ĠgÃªme os
Ris os
ĠCin tia
tifica Ã§Ã£o
ĠLuci ano
Continu a
Bar ulho
ClÃ¡ udio
FÃ¡ bio
MÃ¡r cia
chei a
ĠSur fe
ize te
ĠclÃŃn ica
Ġadul to
Ġmexic ano
ĠcrÃŃ tica
ĠAlex andre
ĠGos to
Pos itivo
teri al
ĠSom ersby
ĠÃ¡rvor e
Ġstar tup
roz en
Ġestagi Ã¡rio
ĠWell erson
Ġaux ÃŃlio
Ġenlou que
ĠHil bert
Ġautoes tima
Trou xe
ĠDy lon
ĠSna p
Ġexec u
ĠIma gina
Ġsupermer cado
Ġdomic iliar
Ġmaquia gem
Apes ar
hir ley
tane jo
ĠestÃ´ mago
ĠlÃ¢m pada
Ġmantei ga
rincip almente
ĠGuimar Ã£es
Ġchampan he
2 7
3 2
3 3
4 7
6 0
A T
A t
A onde
B el
B ab
B acana
B AL
B ene
B aixa
C A
C la
C ria
C anta
C lica
D er
D AL
F re
F ans
G erson
H U
H ER
I an
K arina
L Ãº
L HO
M E
M Ã£o
M esquita
M alhaÃ§Ã£o
N u
N uma
N enhum
P al
R onaldo
R osana
R Ã´mulo
S in
S ig
S ocorro
S ensacional
T en
T chÃª
U h
U mas
U RA
U au
V C
V elo
V ida
V Ã¢nia
V AM
V Ã¡rios
a pro
a gue
a quelas
b Ã³
b ras
b ana
b ida
c ai
c ento
c her
c enta
c rÃŃvel
c entra
d an
d il
d icar
e d
e ba
f Ã£o
f ru
f ante
f ing
f eita
f irma
g indo
g ito
g imento
i tando
i quinha
j Ã©
j or
j amento
j usto
k m
l an
l Ãª
l ir
l indo
m em
m inho
o pa
p en
p ica
p se
p so
p Ãµe
p icamente
s ic
s endo
s us
s enta
s tel
t t
t Ã©m
u p
u co
u ela
u cker
v re
v elo
v inda
x s
y an
z ista
Ġ ]
Ġ q
Ġ xa
Ġ Quanto
qu aman
Ġa te
Ġa gar
Ġa gra
ra peuta
Ġd in
Ġd anÃ§a
Ġd entista
Ġp oc
Ġp io
Ġp ene
Ġc ala
Ġc eia
que rido
te irinha
Ġm ÃŃmica
Ã© cio
Ġs r
Ġv aran
ar ri
ar me
ar rum
en Ã©m
en car
en ciar
in Ã©ia
or b
or do
Ġf ur
Ġf rou
Ġf it
Ġf ron
Ġf one
Ġde li
Ġde cor
Ġde bater
to mando
Ġo cul
al u
al idade
Ġt an
Ġt il
Ġt ui
Ġt amo
oc ado
is h
re o
re ssante
de p
de la
ho ras
Ġb un
Ġb erm
ei rÃ£o
Ġes to
Ġes qui
Ġes tro
Ġes bar
Ġg em
Ġg esto
ÃŃ l
ia dÃ£o
Ġcom orb
ic Ã¡
ic ando
Ã§ amento
la tes
es col
am or
Ġl Ã³gico
Ġl Ã³gica
Ãī rica
ri l
ri ge
Ġdo endo
el Ãª
el inho
gu lar
Ġpra ticamente
Ġpor tas
ab o
ab el
ssa ca
Qu ei
ol Ã©
Ġfa cada
un ho
Ġen ver
Ġen che
Ġj ac
Ġj orge
ga das
Ġcon se
Ġcon ec
Ġcon dicionado
Ġre to
Ġre le
Ġre para
Ġre duÃ§Ã£o
Ġre parou
Ġpe zinho
Ġpe gada
Ġpe gue
di ra
di ta
di dos
ĠC I
ĠC L
ĠC ra
ĠC idade
ĠC ons
ĠC osta
ĠC orre
ĠC AS
ĠC ARA
ĠC leber
ĠC ruz
ĠC unha
Ġma tei
Ġma terial
ĠP Ã£o
ĠA C
ĠA e
ĠA do
ĠA dem
ĠA tenÃ§Ã£o
ĠA hhh
ĠM oro
ĠM inistro
ĠM inistÃ©rio
ĠD U
ĠD r
ĠD er
ĠD ol
ĠD ie
ĠD Ã©bora
Ġme dida
ti zar
ti picamente
Ã´ men
ĠS O
ĠS P
ĠS anta
ĠS ant
ĠS idcley
ĠS andy
ĠS hirley
io jo
Ġdi em
Ġdi ante
Ġdi gi
Ġpo tinho
Ġpa pelada
Ġtu dinho
Ġin dis
Ġin visÃŃvel
Es tu
ĠT er
ĠT ran
ĠT ER
Ġsen tiu
Ġal Ã´
Ġal ergia
ĠB or
ĠB as
ĠB ia
ran tes
mo ra
ve ral
pe di
pe leta
pe diu
com en
com pan
Ġass ino
Ġass Ã©dio
Ġpara ÃŃ
Ġpro je
ten sÃ£o
Ġsu or
Ġou tubro
ĠJ Ãģ
ĠJ ap
ĠJ ennifer
Ġmes mos
pra s
ĠR osa
ĠR enan
ĠV in
ĠV Ãª
ci us
por t
Ġser ra
ĠF ra
ĠF rio
ĠF erra
ĠF AL
ĠF antÃ¡stico
Ġan abol
Ġporra s
ina is
Ġdes l
Ġdes o
Ġdes ceu
Ġdes ejo
Ġdes graÃ§a
Ġdes espero
vo gada
Ġne sses
Ġca te
Ġca Ã§a
Ġca val
Ġca pitÃ£o
Ġca fezinho
Ġho ur
na o
na ge
ĠL ur
Ġbo y
Ġbo tando
se t
iz inho
iz antes
Ġh em
Ġh ipo
Ġh ip
ĠN es
ĠN abote
ĠG re
ĠE ri
ĠE varisto
ver me
sa Ãºde
Ġfil has
Ġir re
Ġir Ã´nico
Ġtra iler
Ġtra gÃ©dia
Ġpr Ãªm
Ġex pre
ter ine
vi ar
vi das
Ġsou besse
Ġle gum
Ġli kes
ĠÃ³ bvio
Se xo
bri r
her Ã³is
Ġmim imi
oca Ã§Ã£o
Ġman ia
Ġar tif
Ġta pete
Ġres gate
Ġdar ia
me tros
Ġdei ta
Ġcor es
Ġcor tando
Ġap l
Ġap on
inh entos
Ġdele gado
onte m
gra Ã§as
Ãªn ia
Ġ2 8
ĠI N
ĠI P
ona is
Ġjo vens
Ġla bora
Ġon ze
Ġon dinhas
bra do
Ġcan sa
Ġcan sada
ĠMar i
ĠMar te
ne o
ne sses
Ġmor ro
abe t
âĢ Ļ
fer t
fer ente
tr Ã¡lia
ĠU hum
ĠU illiam
ris ti
Ġco gum
Ġco lado
Ġco xinha
Ġpass aram
Ġneg ou
Ġneg Ã³cios
No vo
Ġmal ha
Ġmal hando
ĠH o
Ġaconte cido
ig as
car re
Ġus ada
du to
tal ÃŃcio
Ġaju do
Ġr Ã©u
Ġr ock
ĠÃ¡ cido
Ġmar cas
dinho s
Me te
cha mado
ch as
Ġqueria m
ĠPa ssa
Ġlo tado
Am Ã©m
ula da
pro nto
Ġdire itos
Ġbe bo
Ġmil hÃ£o
Ġemb ala
Ġcri ei
cion Ã¡rio
Ġia m
Ġfez es
Ġempre ende
it Ãª
it su
Ġun gido
Ġcai pirinha
ĠCar naval
ĠCar valho
quinho s
Ġfi el
Ġfi bra
Ġpres tando
AA A
Ġfam a
Ġentre gou
Ġrou bei
Ġpol Ãªm
Ġsal Ã£o
Ġfr us
Ġano ta
Ġgal er
esta de
Ġacredi tava
ron ia
ven tude
Ġer ra
Ġpega va
Ġbon Ã©
Ġga tos
Ġga tinho
Ġhis tÃ³
Ġval er
Ġdem orou
hh hhh
Ġcur te
Ġcur tida
Ġrec ol
Ġrec Ã©m
ĠNo sso
ren de
ane amento
Ġaten dimento
Ġcontra tar
Ġpi que
Ġcompra s
Mar i
Mar ta
Mar condes
Ġcl im
Ġcl ica
oco tÃ³
Ġtrans ou
Ġtrans mi
Ġtrans porte
Ġcab ra
Ġcab ec
Ġcab ine
ĠZ ucker
Ġmos trando
ĠCa tete
Ġassis to
Ġpes a
Le on
Le tra
vol uÃ§Ã£o
Ġatra sar
Ġdis tÃ¢ncia
isa das
ĠRe y
til o
sem ana
Ġbic ha
cho rando
ĠBo tÃ¢nico
Ġ4 5
Ã¢m bio
Con s
Ġau di
Ġson har
Ġinf il
Ġinf orm
Ġmaior idade
rios os
ĠDes ce
ĠmÃ¡ gica
Ġvir tual
Faz endo
tic ano
tic ular
Ġbeb Ãªs
cel anato
Ġdisse ram
Ġsur fe
Ġve ja
aran hÃ£o
Ġgol eiro
ĠDe ve
ĠDe pois
Ro ger
ii i
Ġri u
ĠSa tanÃ¡s
cre ve
ĠMarc inho
Ġw eb
ĠEstÃ¡ cio
Fo to
tim as
Ġha ve
Ġha ver
ĠRa ul
fil ia
Ġamar rado
Ġop Ã§Ãµes
ok Ãª
ĠWhat sapp
Ġcomun istas
An da
Ġbra Ã§os
ent ÃŃssimo
Ġbola do
Ġaz eitona
Ġcria tiva
Ġcria tividade
Ġsom bra
Ġbal Ã£o
Ġbal anÃ§a
Ġcho pe
Ġfic aram
Ġcli quei
ly Fans
Ġdez embro
ĠJul iana
mento s
Ġescre vendo
onal d
Tom ar
Ġdom inar
Ġpis ca
Ġpin go
Ġpin tura
Ġestran ha
Ġlar gou
ex iste
chu va
Ġcru el
Ġsonho s
Ġsum ir
Ġfe bre
Ġfe deral
Ġimag inÃ¡ria
th y
Ġris ada
Ġris oto
Ġestre las
Ġestu da
Ġcarre gando
Ġapren di
Ġabs oluta
Ġsala da
Ġcorre to
Ġsaudade s
Sa fado
Ġvis itar
Ġ8 0
Ġestra da
ĠSil vio
ĠJai ro
Ġarrum ou
icion ar
Fa Ã§o
Ãºbl ica
Ġnegoc iar
inder sson
Ġviol Ã£o
Di sse
Ġmis tÃ©rio
Ġconc entrar
eno tipicamente
Ġpeque n
ĠJos i
Ġdesen ro
Ġz umbi
Ġvaz ia
Ġlin gua
Men digo
Ġpago de
Ġaper tado
Ġempres Ã¡rio
Ġgela da
ĠCl eide
Ġprefer Ãªncia
Ġur gente
Ġcre pe
Ġjus to
Ġdescobri ram
ĠPre to
Ġdesa fio
Ġabsur da
come Ã§a
GO RA
Ġps iu
Ġescon dido
Ġace ss
ĠSou za
ĠFab rÃŃcio
Ġarran car
Ġarran jar
BB B
Ġexa gerando
ĠgrÃ¡ tis
Ġanim ado
Ġflor es
ĠGo d
OO O
So be
Ġmul ta
Ġofer ecendo
sab er
ĠDan ilo
Ġdific il
iiii iiii
Ġchor ou
Ġelei Ã§Ãµes
dra de
Ġdevol ve
UL A
bas tante
Ġdura r
Ġfemin ina
Ġfinan ciamento
Ġdocumento s
ĠCab o
Ġfl ora
Ġreconhe cer
Ġmassa gem
Come Ã§a
Ġmus ical
Ġexis tia
Cl oroquina
Ġfing indo
ĠBel zebu
Ġperf orm
Ġimprovis ar
ĠAmaz Ã´nia
mal as
Ġzo om
Ġabor to
Pol Ãªmica
Tran quilo
Ġsel fie
Ġenvol vido
ĠPris cilla
Ġmedi taÃ§Ã£o
ĠUni versal
Ġconser tar
Inter net
ĠdÃ³lar es
POR RA
TR OS
Ġvel ocidade
Lar ga
ginal do
ĠMor eira
Ġincomo dar
ĠVic tor
Ġdescar ga
ĠLÃ¡ zaro
Ġcompan heiro
Ġadm inistra
Trabal ho
Ġsusten tar
Vac ina
ĠfÃŃs ico
ĠAgu ina
ĠAgu iar
ĠWal lace
Ġcaix as
Ġfigu r
ĠJohn ny
Ġcivil izaÃ§Ã£o
uuuu uuuu
ĠTra z
ĠFu riosos
Ġconstran ge
Ġuni forme
Fern anda
cur so
Ġpente lho
ĠVerm elha
ĠIs rael
Ġpubl ici
Ġfug indo
Fun ciona
Ġesco va
ĠFec ha
Ġadolesc ente
Ġespal har
gri tando
Ġencer rar
Ġench endo
ĠespecÃŃ fico
Ġexag ero
Ġocu pado
Ġbru xa
Ġestru tura
Ġengo lir
Ġdig ite
Ġprotes to
ĠLei fert
aconte cendo
Ġexer cÃŃcio
Ġbatal ha
Ġconfir mar
Ġespir ro
eo grafia
Ġfral da
Ġtum or
Ġmanif estaÃ§Ã£o
Ġestabele cimento
atra vÃ©s
Esque ci
ĠJor ginho
Ġhi per
ĠÃ¡gu as
Ġsubstit uir
Bon ito
Rena to
Ġqueim ando
Ġbre ve
Ġbroc ha
Ġacusa Ã§Ã£o
ĠPRE C
ĠAbra Ã£o
ĠMaravil ha
ĠIR M
Ġinterpre taÃ§Ã£o
Ġame a
ĠRober ts
Ġbarul hinho
ĠAlem anha
Ã³rn io
Ġconcentra Ã§Ã£o
#$ %
Gar Ã§om
Ġsun ga
rivel la
Ġjur ÃŃ
Ġdita dura
Ġing redi
ĠBet h
ĠRis oto
ĠperÃŃ odo
Ġhumilha Ã§Ã£o
ĠautÃ³ grafo
Ġpriva cidade
Bri gado
Ġsegre do
Ġcondi Ã§Ãµes
ĠSAB ESP
ĠJona than
Ġcacho eira
ĠÃ¢ n
ĠprÃ³x imos
Ġpulsei rinha
Promo tor
Ġofic ina
Ġporcar ia
Ġconden ado
ĠAus trÃ¡lia
ĠBern ardo
Ãºc leo
Ġdiabe tes
Ġfunda mental
Ġorig inal
ĠAmaran te
Ġmind set
ĠhÃ©te ros
ĠPugli esi
Velo zes
veral do
ĠJap Ã£o
ĠLur des
ĠZucker berg
% $
1 1
3 5
3 9
? )
? ".
A u
A na
A bs
B ig
B RA
B at
B eto
B loque
B ut
C C
C e
C in
C oca
C ezar
C achorro
D r
D uda
D emÃ´nio
D Ã©bora
E ta
E pa
E vandro
F O
F e
F AM
F rozen
G ol
G anhou
I R
I X
I GA
J E
J a
J ai
J us
L ui
L inda
M I
M S
M er
M ito
M ano
M eia
M orre
M eire
M MORPG
N eide
O ra
P ARA
P rome
R VOR
S T
S an
S acanagem
S AI
S elva
T ou
T OS
T iago
U ber
V in
V endo
V oce
V ote
Y es
a ce
a trÃ¡s
b ai
b am
b igo
c ente
c har
d ana
d ista
d fun
e de
e tas
e ada
e xatamente
e ah
f an
f ul
f ec
f icial
f enotipicamente
g y
g oc
g la
h ley
i er
i tÃ£o
i das
i Ãµes
j itsu
k g
l oco
m el
m inhas
m andando
n u
o d
o que
o ta
p ei
p ino
p ular
p amento
p enho
r ul
s as
s ol
s ala
t ho
t ha
t inete
u Ãª
u re
u ÃŃ
v ara
v ani
w n
w aldo
w dfun
x y
x Ã£o
x ina
z y
z ina
z ine
z entos
Ġ )
Ġ xo
Ġa ra
Ġa Ãª
Ġa us
Ġa tu
Ġa tes
Ġa gua
Ġa tivo
Ġa Ã§Ãµes
Ġa teu
ra pidinho
ra tiva
Ġe ven
Ġe vangÃ©
Ġd ali
Ġp ira
Ġp onte
Ġp ula
Ġp anda
Ġp isto
Ġc ele
Ġc redi
que ca
te book
te jando
Ġm icos
Ã© cia
Ġs anta
Ġs ÃŃmbolo
Ġs aneamento
Ġv ela
Ġv inhos
ar re
en ÃŃ
en tal
en zinho
en fim
en ny
in gu
in inho
in forma
Ã¡ Ã¡
or ei
or io
er to
Ġf en
Ġf as
Ġf ino
Ġf ocar
Ġf lex
Ġf omos
an n
an ab
an tins
um ba
al oo
Ġt Ãºn
Ġt his
oc ali
is conde
re io
ro l
ro ga
ro sa
de sa
de ssas
... !
em baixo
on to
Ġte im
Ġte les
Ġte rapeuta
Ġb il
Ġb umb
Ġb ambu
ei rinho
ou ro
Ġg lobo
Ġg estÃ£o
Ġg lÃ³ria
eu za
le que
le jo
le xo
ai ane
Ġcom andante
ic am
Ã§ oso
es c
es perando
Ã³ b
Ã³ logo
am ing
Ġi lum
Ġi legal
Ãī Ãī
ri ou
ri Ã³
Ġno bre
Ġno vel
Ġdo g
Ġdo ze
go a
go l
el la
el inha
tÃ¡ vio
Ġpor co
ol ar
Ġda te
Ġda quelas
Ġfa vela
Ġfal so
Ġfal eceu
Ġse de
Ġse quÃªncia
Ġen t
Ġen te
Ġen ga
Ġen cor
Ġj iu
Ġj anta
ga ta
ul ina
Ġcon tam
Ġcon quis
Ġre don
Ġre volu
Ġre ssaca
Ġpe dia
di g
di sse
di vi
ĠC ai
ĠC ul
ĠC ity
ĠC HE
ĠC ross
Ġma tem
Ġma gia
ĠP as
ĠP ira
ĠP ela
ĠP aixÃ£o
ĠestÃ¡ tua
Ġqu inhentos
va velmente
ĠA P
ĠA quaman
ĠM anda
ĠM ON
ĠM AS
ĠM amÃ£e
ĠD P
ĠD ay
ĠD NA
ĠD ilma
Ġme tÃ¡
pa ta
ti as
ti rando
ĠS i
ĠS k
ĠS or
ĠS ora
ĠS Ã©rio
ĠS Ãĵ
ĠS erra
ĠS orte
Ġam bulÃ¢ncia
tra to
tra Ã§Ã£o
tra lha
Ġpa ta
Ġin con
Ġin cl
Ġin vas
Es tre
Es pero
Es tranho
ĠT I
ĠT ha
ĠT ia
ĠT eu
ĠT inha
ĠT ec
ĠT RA
ca dos
ca fÃ©
Ġsen horas
Ġvi va
Ġal Ã©r
Ġal imentar
ĠB O
ĠB us
ĠB osta
ĠB ET
ĠB reno
ĠB ranco
ran go
po sso
po eira
po dem
mo to
ce go
pe ranÃ§a
Ġsu jar
Ġou Ã§o
Ġou tono
ĠJ er
ĠJ ay
ĠO N
ĠO bjeÃ§Ã£o
ĠO tÃ¡vio
ĠR Ã¡
ĠR ei
ĠR ap
ĠV era
ĠV elho
ĠV ER
ci ente
ci almente
ci oso
ci fic
por Ã©m
Ġser tanejo
ĠF la
ĠF ri
ĠF icou
ĠF lor
ĠF amÃŃlia
ĠF IF
ĠF OI
Ġper ren
Ġper tur
Ġper uca
ir l
Ġdes tra
Ġdes gas
Ġdes tino
Ġdes eja
amb o
Ġne h
Ġca ta
Ġca tar
Ġca ver
Ġca dÃ¡
Ġca pÃŃ
Ġca usar
ĠL indo
ĠL aran
ĠL emos
ĠL elÃª
Ġbo i
Ġbo quinha
Ġbom bando
Ġbom beiro
Ġh eim
ĠN u
ĠN OM
ĠN ilton
tu ri
tu ber
tu aba
ĠG is
ĠG lÃ³ria
ĠG PS
ĠE r
ĠE xatamente
ĠE LE
ĠE gito
ver nador
Ġfil ial
Com pra
ĠDeus inÃ©ia
der erÃª
Ġtra diÃ§Ã£o
Ġtra vesti
Ġtra dicional
ac redi
Ġex ig
Ġex tin
Ġex posiÃ§Ã£o
Ġcar tas
Ġcar isma
Ġpar ecer
Ġpar cela
Ġpar tiu
vi va
lo ga
lo gia
lo ÃŃsio
Ġle Ã£o
Ġli de
Ġli dar
Se te
Se is
Se gue
je la
je tÃ³ria
Ġmen u
con ta
Ġesta cionar
Ġprecis amos
para r
para Ã§Ã£o
Ġch Ã¡
Ġch ique
Ġcha pis
Ġcha peleta
Ġres id
za p
Ġmer gu
Ġmer chan
me tade
Ġcor tou
Ġti j
Ġti do
Ġra iva
ec em
ens Ã£o
ens ivo
li sses
per to
per gunta
Ġ2 9
ĠI tÃ¡lia
Ġjo gadores
Ġpou cos
Ġvol te
Ġvol ume
ĠMar co
ĠMar icÃ¡
Ġmo delo
Ġfilho te
Ġmor ena
Ġmor eno
bo ar
ĠU F
Ġco p
Ġco elho
Ġco brir
ura l
Ġmal andro
Ġba tom
ĠPor to
Ġro n
Ġro da
Ġro ta
Ġro lou
jo gando
Ġim Ã³veis
var de
car naval
Ġus e
Ġlu va
Ġboa te
fe gante
Ġr in
Ġr ica
res co
Ġmar quei
Ġmar cou
Ġmar telo
Ġconhe cendo
pl as
pl os
Ġcu rou
Ġcu riÃ³
ĠW aze
cha da
cha ma
Ġsaber ia
par eceu
enh eiro
ĠcomeÃ§ aram
ĠPa pa
Ġlo gÃŃstica
aqui lo
Ġdire tamente
Ġbe Ã§a
Ġmil ha
Ġmil iciano
Ġ3 1
Pe gar
Ġvo tos
Pa u
Ġdu b
tura r
inte co
Ġempre gos
vers Ã¡rio
Ġun iÃ£o
Ġcarro s
Ġfi xo
Ġfiz esse
Ġpres entinho
ĠMa u
ĠMa ssa
Ġven ce
Ġven ceu
Ġentre go
Ġentre gando
Ġbar be
Ġab ro
Ġrou ba
Ġrou bo
Ġinter fone
Ġinter venÃ§Ã£o
Ġpol vo
Ġsal vei
Ġano tando
ĠAl mo
Ġouv em
fi la
Acho u
cl ara
dei xar
Ġacredi tou
Ġvac inas
Ġcomp leta
Ġcomp rome
Ġvia tura
fo to
ÃŃs tico
Ġdiz ia
ĠK lÃ©
Ġfu dido
Ġbon e
Ġsol tava
Ġfun k
Ġbai le
Ġbai anas
rim as
Ġhis toria
Ġrep rise
ĠEs peranÃ§a
Ġol hinho
Ġrec u
ĠNo el
In crÃŃvel
Ġespe ranÃ§a
Ġpi lates
erÃ¡ vel
Ġins u
Ġins pira
Ġtrans form
ĠCa pitÃ£o
ĠCa xambi
cor do
cor rendo
Ġfinal istas
Ã©s timo
Ġdis co
Ġdis pon
ine ss
ĠLu is
Fal ta
Ġhum anos
Ġtranqui lidade
Par ei
via do
Ġ4 00
ĠRio Card
Ġmorre ram
ĠLe on
ĠLe ticia
Ġson hando
ĠVal do
ĠVal dir
Ġmi ja
Ġmi jando
Per di
Ġmam ilo
oro thy
su ruba
su ssur
ĠAm anhÃ£
enho ras
Ġtes ta
Ġtes tamento
ĠNe gra
Ġchu tou
fic e
fic ando
Ġve ado
end s
AL E
Ġprimeiro s
ĠGu anab
Re gina
Val endo
Ġagu lha
rom p
Ġques tion
che ga
che gar
Ġacor dando
Em pre
Su z
Su eli
Ġci entÃŃ
IN DO
Ġlev an
Ġlev ei
Ġlev ante
tri bu
Ġcachor ros
can tar
Ġeng or
Ġha bil
ĠRa tinho
ĠRa pidinho
fil is
Ġavis a
tel l
Ġtrabalha va
Ca tarina
Ġcomun ica
quis ito
Ġtor cer
Ġbri gando
Ġaz eite
Ġcria da
Ġsom ente
ulho s
Ġcui do
Ã¡r bara
Ġlon g
Ġlon ga
ĠFern an
Ġof fice
Ġbal inha
Ġbal eia
xar if
Ġcho que
Ãį LIA
Ġu til
at ch
ĠY ork
Ġeste ve
ĠIn ferno
Ġsof rimento
Tom ei
Tom ou
Ġgri pe
Ġmex eu
vid Ãªncia
Ar ras
Ġce go
Ġpin os
Ġbrother s
Ok ay
Vi rou
Ġqui e
Ġqui lo
Ġqui los
Ġrespon dendo
Fi quem
Ġfer iadÃ£o
Ġgas tei
ĠDu as
Ex iste
Ex celente
Ġ19 90
OL E
Ġestre ar
Ġestu pra
Ġestu dante
Ġapren diz
Ima g
ĠPar ece
Ġsob rinha
Ġtri pÃ©
Ġcorre tor
Ġ201 2
Ġag ro
fre ga
Ġvalor es
tis tas
Ġestra gado
ÃŃm pico
ĠSil via
Ġparceiro s
Ġagrade ce
Ġexper imentar
Ġcra zy
Ġcomb ina
Ġprepara da
Ġpromo tor
Ad ilson
Ġref Ã©m
Ġdesen har
Vol tou
Ġdemo rando
Ġja vali
ĠMen digo
ĠVi va
ĠVi vi
Ġempres tado
Ġyou r
Ġprefer ia
Can dida
Ġjus t
ĠCam argo
Res peita
Ġaber tura
Man dei
Ġprofi ssÃ£o
Ġdep Ã³sito
Ġtur ma
Ġimagina va
Dou tora
mer da
Ġfri la
ĠPro tein
Ġliber tar
Ġtro l
Ne ws
Ne gÃ³cio
Ġdan cinha
Ġbab y
Ġanima Ã§Ã£o
Ġata car
Ġcus p
Ġmem bro
Ġmem Ã³ria
don Ã©sia
ĠRena to
ĠGo tinha
Ġtroc ando
Ġati tude
Ġob jeto
Ġofer eceu
Ġcamar im
fun ciona
ssi va
ssi onais
ĠLi bra
vÃ¡ rias
quen te
Ġsac ar
Ġsac ane
Ġcampe Ã£
Ġcompartil har
Ġperde mos
Ġrom Ã¢n
Ġmol har
ĠDou tor
Ġautor izaÃ§Ã£o
pr Ã©stimo
Ã©Ã© Ã©
Ãªme os
Ġdaquele s
ĠDa vidson
ĠFal ou
Ġhorror oso
log ista
Ġescu tar
Ġzo ando
encia is
Ġesgo tado
Ġgre go
ĠBra ga
ĠBra zil
ĠJa que
ĠGra Ã§as
kk kk
Ġevi tando
ale Ã£o
Ġinva dir
Ġsubs titu
Cas a
Fec ha
Fec hou
POR TA
Ġtac ou
Ġesfre ga
Ġnatural mente
ĠVa ticano
ĠAndre a
Ġemocion al
Sol ange
ĠAle luia
ĠpÃ©ss ima
Ġsusten tÃ¡vel
Ġmolha do
Ġengra vi
Ġrea Ã§Ã£o
ĠCer to
ĠPl ÃŃnio
consegu ir
Ġrespons abilidade
Ġcaix Ã£o
Ġinteli gÃªncia
Ġobser vaÃ§Ã£o
gh t
Ġul timo
Ġfuma Ã§a
Ġobri ga
ĠEdu ardo
ĠPan tanal
ĠGreg Ã³rio
Ġarqui vo
Ġfug iu
Ġori entaÃ§Ã£o
term inar
Ġespal hando
Ġacompan har
Mi guel
bus ter
Ġaum entar
Ġelo giar
Ġber in
gui Ã§a
Ġencer rado
Ġsens or
Ġexplo diu
Ġorgulho so
Ġkara okÃª
Ġacostum ei
Pens ando
Ġesper to
ĠRI SOS
Ġescor rendo
Bal tazar
What s
lock buster
Ġess encial
Ġtorn ar
Ġnov amente
Ġmens tru
encon trar
ĠMil itar
Ġami guinhos
Ġalimenta Ã§Ã£o
ĠUr gente
ĠHu ck
Ġdisfar Ã§a
ĠÃ³rgÃ£o s
gin Ã¡stica
Ġaze do
Ġmir ra
ĠCre mogema
ĠClar k
Ã¢me la
Ġgrava ta
Ġmud anÃ§a
Ġacostuma do
Ġasse ssor
Ġetern idade
Ġcrim inal
ĠCaram ba
ĠDra uzio
Ġameric ano
Ġbaix inho
Ġbrilh ante
Ġhidro ginÃ¡stica
Abri u
Bol sonaro
zel eira
Ġcenta vos
Ġfaro fa
Ġbul lying
Ġigu ais
Ġilim itado
Ġsequestra do
ĠSAI U
Ġexpecta tiva
igh t
ĠtÃ©r reo
ĠiF ood
difica dor
Ġinicia tiva
cipi ente
Ġdesig ner
Ġcober tura
Ġxer eca
DIC ION
Ġshor t
ĠMai con
ĠinÃº til
ĠToc antins
ĠFIL TROS
Ġliqui dificador
rinca deira
Anti gamente
glom era
Ġprivil Ã©gio
Ġatle tas
Ġvaran da
Ġfit ness
Ġberm uda
Ġestro gono
Ġcomorb idade
ĠDie go
Ġanabol izantes
Ġartif icial
Ġlabora tÃ³rio
Ġembala gem
ĠpolÃªm ico
Ġgaler inha
ĠIRM ÃĥO
Ġingredi entes
RVOR E
wdfun ding
ocali pse
Ġteles pec
Ġbumb um
Ġmatem Ã¡tica
ĠBET H
ĠFIF A
Ġperren gue
ĠcadÃ¡ ver
ĠNOM E
ĠKlÃ© ber
ĠGuanab ara
xarif ado
' m
3 7
4 5
7 6
? ",
A p
A per
A grade
A paga
A zul
B ia
B riga
B ranca
B elize
C H
C L
C O
C aio
C EL
C rianÃ§a
C ocÃ´
D as
D ER
D IA
D EU
D RO
D IO
E G
E du
E IN
F L
F it
F lor
F ord
G i
G as
G eral
G ay
G ugu
G IO
H mm
H ola
H elena
I greja
J U
K K
K Y
K a
K ellen
L in
L on
L Ã³gico
L UQUINHAS
M and
M Ãģ
M inistro
M onstro
M ichel
M aior
N ome
N DA
P ou
P ior
P ut
P rocura
P rincipalmente
P rende
R U
R IO
R isadas
S il
S Ã©ri
S andro
S into
S omos
T s
T EM
T RO
T Ãºlio
U I
U MA
V inte
Z o
Z INHO
a os
a hhh
b ido
b ano
b ranÃ§a
b rindo
c t
c in
c ui
c Ãº
c ano
c inhas
c inhos
c inco
c Ã¢mbio
d ul
d ca
d rada
d ice
d ilho
e h
e go
e ver
e ado
e tos
e gro
f ra
f ira
f undo
f ona
f ura
g es
g ria
g ger
g anhou
h y
h en
h om
h inhos
i le
i ando
i der
i des
i oso
i fica
i tiva
i vidade
j ur
j eita
j estade
k o
l son
l tima
l les
m undo
m Ãªnia
n al
n ou
n ia
n inho
n ice
n enhuma
p us
p po
p aro
p anÃ§a
p rocura
r ina
s an
s iu
t c
t to
t mo
t ular
t ÃŃvel
t Ãªm
u Ã©
u go
v inho
v ana
v izar
v inhar
w ood
x to
x as
x eu
x im
y lv
z ei
¡ Â°
® tre
Ã ®tre
Ġ %
Ġ :
Ġ Ãª
Ġ ÃŃdo
Ģ s
Ĥ n
qu ad
Ġa to
Ġa des
Ġe vid
Ġe jac
Ġe tc
Ġd ic
Ġd il
Ġp il
Ġp ulo
Ġp Ã©s
Ġc r
Ġc ela
Ġc rus
Ġc entÃŃ
Ã£ Ã£o
te d
te ressante
Ġn i
Ġn orte
Ġn Ãºcleo
Ġm udo
Ġm onta
do vil
do rismo
Ġs and
Ġs ani
Ġs ka
Ġs inteco
Ġv os
Ġv ara
Ġv aro
Ġv omi
ar te
ar io
en Ã§as
en dido
en vol
en trando
ss ivo
in amos
in amento
in ense
Ã¡ fico
Ã¡ veis
or rÃŃvel
er ente
er na
Ġf on
Ġf ab
Ġf ras
Ġf eira
Ġde gra
Ġde pi
Ġde lica
to cando
Ġo x
Ġo ra
Ġo per
an ces
an ji
om ia
om es
um on
um anji
al Ã¡
al Ã´
al mo
al ena
al guns
Ġt ÃŃm
oc ese
is tica
is tÃ³ria
is tiu
re f
re ga
da d
da quelas
ho p
Ġum bigo
em pre
on g
Ġte ta
Ġte lha
Ġte rem
Ġb is
Ġb ig
Ġb ene
ei r
ei ce
Ġes tal
Ġes forÃ§o
Ġes vaz
Ġes tilo
ou t
ou tros
ou vir
Ġg e
Ġg om
Ġg ai
Ġg ab
Ġg rÃ£o
ÃŃ amos
ÃŃ no
ÃŃ li
ÃŃ dio
ÃŃ veis
le var
le vando
qui m
qui el
Ġcom entou
ic ho
ic he
ic har
Ã§ ul
Ã§ aram
es que
es cola
es crever
es pecial
am i
am igos
Ġi l
Ġi gn
Ġi ronia
Ġl eito
ri u
ri ar
ri ve
Ġno tebook
Ġdo idÃ£o
Ġdo enÃ§as
go le
el Ã´
el li
el oso
gu s
gu ir
Ġpra n
Ġpor tugu
Ġpor celanato
Ġtem Ã¡tica
Ġtem pinho
ab u
Qu ais
Ġna Ã§Ã£o
Ġfa Ã§am
Ġfal tou
Ġse parei
un ci
Ġen tu
Ġac ento
Ġac ion
Ġac usado
Ġcon ce
Ġcon duÃ§Ã£o
Ġcon gresso
Ġcon trib
Ġre l
Ġre ma
Ġre tro
Ġre ver
Ġre vela
Ġre tomar
Ġre ferÃªncia
di om
di das
Ġem isso
Ġem pode
Ġem pada
Ġem agre
ĠC E
ĠC Ã¡
ĠC onta
ĠC lu
ĠC uri
ĠC olo
ĠC rivella
Ġma tr
Ġma car
Ġma Ã®tre
ĠP en
ĠP rim
ĠP UTA
ĠP irul
ĠP aranÃ¡
va ca
ĠA B
ĠA T
ĠA o
ĠA v
ĠA la
ĠA ve
ĠA quela
ĠA MA
ĠA fora
ĠA paga
ĠA GORA
ĠA DICION
ĠM D
ĠM c
ĠM in
ĠM am
ĠM us
ĠM ES
ĠM Ã´nica
ĠM undial
ĠM ocidade
ĠM ERDA
ĠM aranhÃ£o
ĠD I
ĠD al
ĠD ois
ĠD Ãģ
ĠD ias
ĠD orothy
ois as
Ġme an
Ġme ti
Ġme dico
Ġme tendo
Ġme tros
tar ra
Ġfo gos
Ġto ss
pa gar
pa pel
ti la
ti za
ti pla
ĠS har
ĠS ec
ĠS enta
ĠS ula
ĠS tories
us ada
Ġdi pl
Ġdi tado
Ġpo xa
Ġpa isa
Ġin t
Ġin dire
Es pecial
ĠT on
ĠT es
ĠT hor
ĠT PM
ĠT our
ĠT Ãºlio
ca tra
ca das
ca ÃŃno
Ġvi rando
Ġvi gia
Ġvi zinha
Ġvi emos
co ra
co po
Ġal te
Ġal as
Ġal em
Ġal im
ĠB R
ĠB er
ĠB ei
ĠB ai
ĠB im
ĠB ac
ĠB OM
ĠB aixa
ĠB OCA
ĠB lockbuster
ran a
po ss
po imento
po tif
ve ram
En trei
pe de
pe onato
pe ssoas
com ida
Ġass inante
ten ha
ten tar
ten imento
ten egro
Ġsu ce
Ġsu por
Ġsu ru
tro na
tro bras
Ġver s
Ġver bal
ĠJ uro
ĠJ abor
gar ejo
ĠO U
ĠO MS
ĠR on
ĠR ou
ĠR ai
ĠR amos
ĠR ub
ĠR ivo
ĠR elaxa
ĠR Ã´mulo
ĠR amon
ĠV as
ĠV ila
ĠV irgem
ci oc
ci dos
Ġser em
Ãº me
ĠF O
ĠF il
ĠF ir
ĠF AR
ĠF Ã©rias
ĠF lum
ĠF eice
Ġper i
Ġper n
Ġper da
Ġper ca
Ġper mite
Ġper eba
ina to
Ġestou rou
Ġdes pre
Ġdes vi
Ġdes isto
Ġdes aba
Ġdes tru
Ġdes istir
vo z
Ġne t
Ġne go
Ġter ror
Ġca de
Ġca os
Ġca gado
Ġca pi
Ġca ceta
Ġca jado
Ġho l
Ġsenhor ita
ĠL inha
ĠL ON
ĠL ADO
Ġten sÃ£o
Ġcas e
Ġcas ou
Ġcas tigo
Ġcas ados
ĠN OS
ĠN elson
ĠG U
ĠG i
ĠG ar
ĠG as
ĠG aro
ĠG lau
ĠG NT
ĠE X
ĠE l
ĠE veraldo
ver ia
Ġfil mou
Ġfil mes
Ġfil minho
Ã§o quita
no vo
no by
Com plica
ru da
ru bu
Ah hh
Ġtra tamento
Ġtra jetÃ³ria
tÃ© rica
ora Ã§Ã£o
ora ima
Ġpr ÃŃncipe
Ġpesso ais
Ġex am
Ġex ci
Ġex por
Ġex pan
Ġex pedi
ter Ã§a
Ġcar los
Ġpar ceira
Ġpar ticular
ez inha
ez uela
Ġsou ber
lo Ã¡
ima gina
ĠÃ³ h
ĠEu nice
Se jam
her noby
Ġmen ta
ur gia
con a
con versa
Ġsegu indo
Ġche f
Ġche gado
ba to
ba Ã§Ã£o
Ġman u
Ġman Ã©
Ġman ga
Ġman tÃ©m
Ġar t
Ġar dendo
Ġar dil
Ġsua ve
Ġta dinho
para ndo
Ġas fal
Ġas tros
Ġch il
Ġch ico
Ġch ocada
Ġdia bo
Ġres f
Ġres erva
Ġmer rÃ©
Ġcor ro
Ġcor rup
Ġcor eografia
Ġap Ã³s
Ġap ron
Ġap lau
Ġesc an
Ġesc al
Ġesc Ã¢n
tor o
tor ial
Ġra la
Ġra cha
har les
ĠÃ Ģs
ĠÃ Ĥn
Ġtr in
Ġsa quinho
ens ar
gra f
li gar
pi rando
pi ranga
ĠI I
ĠI M
ĠI r
ĠI t
ĠI v
ĠI gual
ĠI DE
ĠI piranga
Ġjo ke
Ġjo gos
Ġla c
Ġla v
Ġla pso
Ġtrabal hei
bra da
Ġpou sada
Ġpou panÃ§a
Ġcan Ã§Ã£o
Ġcan udo
Ġcan sei
ĠMar cia
ĠMar vel
ĠMar ÃŃlia
ĠMar izete
ne cess
Ġmo dem
Ġmo ÃŃda
Ġmo derna
Ġcome diante
Ġcaralho s
De pende
âĢ ľ
âĢ Ŀ
fer ia
tem os
ĠU n
ĠU PA
ĠU lisses
Ġco que
Ġco entro
Ġco leta
Ġco fre
Ac aba
Ġpass am
ĠH D
ĠH Ã£
ĠH it
ĠH orda
ĠH eitor
Ġro do
Ġro om
jo ga
Ġfor mas
Ġfor ne
Ġfor Ã§ado
Ġim pl
Ġim pressÃ£o
Ġim Ã³vel
Ġim puls
ig Ã£o
Des ce
Des cobri
Ġacab o
ĠĠ Ġ
Ġlu to
hei a
Ġr endendo
res pon
zinho s
Ġmar gar
Ġacha ram
Ġcu p
Ġcu bo
ĠW oo
ĠW hey
ĠW esley
ĠBrasil eiro
cha do
ch es
Ġgra us
par ecendo
ĠPa es
Ġlo tÃ©rica
Ġcons tr
Ġcons piraÃ§Ã£o
Ġmil it
anÃ§a do
Ġ3 7
Ġ3 9
and s
Ġvo a
Ġvo zinha
Ġvo dca
ida Ã§o
Ġdela Ã§Ã£o
Ġdu plas
ad inha
quei jÃ£o
vis or
ĠCar men
To sse
ĠPe de
ĠRo xo
ĠRo lex
ĠRo bin
ĠRo dol
AA AH
ĠMa x
ĠMa to
ĠMa ia
Ġven dido
Ġpol i
Ġesque te
ĠAl guÃ©m
ĠAl ine
ĠAl guma
Ġsabia m
for o
Ġcomp ensa
Ġcomp rom
Ġpl ana
Ġpl eno
Ġsegun dinho
Ġpos tei
ven dendo
Ġpassar inho
Ġresol vo
ĠK leber
ĠK irk
Ġfu deu
Ġbon eca
Ġsol o
Ġsol u
Ġsol idÃ£o
Ġbai ana
Ġcin tura
Ġcin quenta
teiro s
Ġdem anda
ĠEs cor
Ġcur tiu
Ġol he
Ġbrin que
Ġrec or
Ġrec urso
ĠNo gueira
Ã©r ico
Ã©r cito
Ġespe c
Ġcontra tou
Ġmu Ã§ul
Ġrapaz eada
bro ther
Ġpi pa
Ġpi ran
Mar cela
Ou tros
Ġor Ã§amento
Ġins cri
Ġins talar
ssim os
Ġcl ar
Ġcl icar
Ġbol as
Ġbol iche
Ġtrans por
Ġtrans ferÃªncia
bi tro
Ġmos trou
ĠCa pi
ĠCa cau
Ġassis tia
cor da
cor ta
Car naval
Ġatra sa
Ġva por
Ġva ssou
Ãģ lcool
Ġdis trib
Ġdis tribu
ĠJo ana
ĠRe almente
til aser
ĠLu ca
ĠLu ana
Ġvacina do
ĠAn ton
ĠAn drade
ĠAn drada
cho s
Ġpas tora
Ġesp alha
Ġesp anho
ĠSu elen
ĠSu Ã©cia
ĠLe va
ĠLe vÃŃ
Ġlembra do
Ã¢m ica
Ã¢m ico
Con fia
Con centra
Con cordo
ni or
ĠmÃ© dica
ĠmÃ© nage
Ġson s
Ġfec hei
Ġinf eliz
Ġrece bo
Per gun
dr Ãµes
su as
ton ar
ĠAm stel
cel ona
Ġdorm iu
Ġtele f
Ġsur far
ĠNe ves
Ġchu tar
Ġve em
ĠNa cional
ĠSe gu
Ġgol finho
EN TA
EN TO
Ġgo ta
Ġgo le
ĠGu ar
Re forma
Re ginaldo
Val Ã©ria
Ġagu inha
ĠsÃ©ri es
ĠDe ad
Ro bson
Ġmanda m
Ġmanda ram
Ġri tmo
Ġpalav rÃ£o
Ġbota ram
che te
che gando
Ġw i
Ġw it
Ġw his
puta dos
Ġpon ho
ĠMe dicina
Ġel eito
Ġbei jÃ£o
Ġchega va
Fo deu
Ġtrou x
IN G
Pro blema
Pro fessora
tri l
can didato
men t
Ġjun ho
dre z
ciona is
Ġtoma do
ĠcoraÃ§Ã£o zinho
Ca guei
Ca etano
Ġlindo na
ĠLa ur
Ġpapel zinho
Ġbra cinho
Ġapro xima
IS TA
ent istas
Ġtor ta
Ġtor ce
Ġtor Ã§o
Ġforma to
ES S
eca use
mi ro
tru Ã§Ã£o
Ġof f
Ġbal an
Ġbal as
Ġcho ve
trou xe
ĠprÃ³p rias
OC URA
Ġu va
ĠAi res
Ġnu tr
ende ram
ĠPra ia
Ġadi an
Ġadi antar
Ġbas icamente
ly wood
ĠJan dira
et te
ĠEn tra
ĠAr thur
HH H
Ġbu ce
Ġbu cal
ĠIn Ã¡cio
ĠIn gla
ĠIn donÃ©sia
Jo ana
Ġdom ÃŃnio
ĠCh u
Ar rombado
Ġpul ando
Ġdel ici
if icar
Ġpis car
Ġves ti
Ġjoga va
Vi va
Ġtre inando
Fi que
omo ssexual
eide gger
ĠÃģ RVORE
gl ic
Ġtex tos
Ġcru zar
ĠDu arte
ĠBar ros
Ġcomplica da
Ġimag inando
Ġris ca
Ġestre sse
ĠpolÃŃ ticos
bu qui
Ġestu dar
Ġestu dos
Ġestu dei
olo gista
ĠCon gresso
Ġapren dendo
Ġtri go
Ġ201 7
Sa ulo
Ġag itada
ĠSim one
Ġdesco bre
ĠSil as
Ġarrum ei
Ġpreocu par
Ġprova velmente
Ġapres ento
ĠQuer ia
Ġenc aixar
Ġquen tinha
JÃº lio
Ġ9 7
ĠMan dei
Cer veja
ĠsaÃŃ a
Ãĩ O
Ġator es
Ġfre ela
Ġcoloc ado
Ġyou tuber
bera r
aix ou
Ġprefer ir
Ġtroca dilho
mÃ¡ tica
Ġur so
Ġbur ca
ĠCor dovil
cal ho
Ġjus tamente
ĠCas tro
ĠCam p
Ġdiver te
Ġdiver tindo
Ġanda va
Ġrem un
ĠPer eira
ĠSol ta
pol is
sai u
Ġmon tar
Tira r
ĠÃŃn dios
Ġluta dor
ĠPre feitura
Ġprofi ssionais
Ġdesa parecer
ĠCris tina
Ġquad ra
Ġprin cÃŃ
Ġprin cesa
Ġdeci de
ĠPro jac
Ġliber ou
Ġescro ta
Ġmuda ram
Ġps ico
Ġmin im
Ġtro te
Ġconvi dar
Ġconvi dado
ĠalÃŃ vio
GU E
Ġencos to
ĠFran k
ĠFran cesa
duz indo
ĠepisÃ³ dios
Ġpros titu
Ġmov imenta
Ġcus to
Gu arda
Ġofer ecer
ĠDia bo
Ãºn cia
Ġbarra cÃ£o
Ġmexer ica
Du vido
dim ir
sab el
Ġbase ado
Ġcomi ssÃ£o
Ġrecom en
tur no
dis cu
mei ras
Ġju ventude
Ġmachu car
ĠtÃ©cn ica
TI VO
dÃŃ a
Ġprop ina
ĠNA DA
Ġescra vos
Ġrelaxa da
Ġidenti ficar
Ġcir c
Ġcir co
Ġcir urgia
Ġbloque ia
Ġrom Ã£
Ġens ina
Ġemoc i
ĠYouTu ber
Ġlocal izaÃ§Ã£o
Come Ã§ou
Ġorgan iza
Ġinteressa do
ass is
Ġfantas iado
Cl eiton
Ġnovidade s
ĠBe be
ĠBel Ã©m
AAAAAAAA AAAAAAAA
Im portante
Ju dite
arg inha
Ġbac on
Ġenro lar
Ġenro lando
Ġindi g
Gosto sa
Sus ana
fu gir
iter no
Ġdetal he
Ġenvol ver
Ġacer tar
Ġacer tei
Ġmedi das
Ġsatis faÃ§Ã£o
Inter romp
Cas amento
TR Ãģ
cra tes
cla ma
peu zinho
Ġcum prim
Ġcum pri
Ġtac ar
Ġesfre gar
ĠPal Ã¡cio
ĠFi esta
Ġemocion ado
II II
Lar gados
bon ara
pur ina
Ġincomo da
Ġchei rando
Ġadm ira
Ġnom ezinho
ĠPres ta
ĠAli anÃ§a
Ġante rior
Ġcard s
Ġapos to
oooooooo oooooooo
Ġjusti ficar
Ġobser var
Ġul tra
ĠHa van
ĠÃ¡r bitro
Ġconstran gimento
Ġinterna cional
Ġinvesti gada
Ġcro wdfunding
Ġpasse ar
ĠIs mÃªnia
Ġcola bora
Fun cionou
Li ber
uh an
uh uh
Ġmara cu
Ġcomen tÃ¡rio
ĠSU B
Ġsuger ir
ĠJac k
ĠLac an
Ġadolesc Ãªncia
Ġafas ta
Ġdesenvol ver
Mi ja
Ru a
Ġfres cura
ĠVen ezuela
Ġdescan sar
ĠespecÃŃ fica
Ġhumil har
ĠpirÃ¢m ides
Ġpsic ol
Ġacostum ando
Pens ei
VÃ¡ rias
gÃªn ero
Ġestru tural
Ġinver no
ĠVia com
aconte ceu
Ġconstru Ã§Ã£o
Ġatrave ssa
ClÃ¡ udia
MÃ¡r cio
Ġaval iar
Ġfral dinha
Ġtab let
Ġtab erna
Ġtorn eira
ĠbÃ¡s ica
ĠbÃ¡s ico
Ġje ba
ĠMu tantes
ĠDel ÃŃcia
Ġinim igas
Ġpreju ÃŃzo
peta cular
Ġmens alidade
Ġpresid enta
ĠclÃŃn ico
Consegu i
Consegu iu
Pu taria
PÃ© ra
Ġflu ente
ĠMon ique
ĠFer reira
Ġdesespera do
ĠLis boa
ĠÃ¡gu ia
PÃ¡ tria
teral mente
emo rando
ÃŃa co
Ġconfe sso
ĠCO ISA
ĠVar ella
convers ar
resp ons
ĠWh ite
ĠWh indersson
Ġmud anÃ§as
Ġinsta gram
ĠExcel entÃŃssimo
Primeira mente
Ġdimin uir
Ġdimin uiu
Bas icamente
equi li
maravil hoso
Quar enta
Ġencara r
ĠMol iterno
ĠJus tiÃ§a
ĠOL HA
Ġconfirma Ã§Ã£o
Ġdocum entÃ¡rio
jus tamente
ĠmÃºs icas
ĠsÃŃn dica
Ġrevel ar
Ġempol gado
ĠPÃ© ra
ĠAS S
ĠMora is
Ġvibra dor
ĠlÃ¡g rimas
ĠRib eiro
Ġperten ce
TAN HA
ĠInter net
Ġtravess eiro
HEI RO
Ġatro pel
Ġpilo to
Ġespor tes
Ġcompa dre
Ġacei tando
Ġconfor tÃ¡vel
ĠRoc inha
ĠGab i
ĠUS P
ĠHon da
Ġdesconhe cido
ĠVander boy
Del ÃŃcia
aque u
ĠÍ ¡Â°
Ġdur mo
Ġnin guem
Ġbigo de
ĠSEN HOR
ĠFA Z
Ġhar mon
Ġexpli quei
pergun tando
Ġimpac to
Ġrecic lagem
Ġapare Ã§a
Ġtare fa
Pare cia
Ġinfin ito
Ġproprie dade
Ġcross fit
Der ruba
LÃº cia
Pal mas
Ġxa drez
arri Ãª
Ġfrou xo
Ġocul ta
Ġenver gon
ĠparaÃŃ so
ĠFerra ri
verme c
ĠprÃªm io
Ġlegum es
Ġperform ance
ĠAguina ga
Ġfigur ino
Bat man
Ġmicos e
umba ya
dig ite
ĠPela dos
ĠMON TANHA
ĠmetÃ¡ fora
ĠJay na
cific amente
Ġcaver na
ĠcapÃŃ tulo
ĠNu tella
Ġchapis co
Ġresid Ãªncia
Ġbone co
ĠFernan des
Whats App
Ġcriminal idade
Ġestrogono fe
Gugu inha
MÃģ CIA
Put z
cÃº rio
ylv ana
ĠcentÃŃ metros
Ġska te
Ġgai ta
Ġrema ke
ĠPirul ei
ĠADICION OU
Ġpaisa gem
potif y
ĠRivo tril
ĠFAR MÃģCIA
ĠFlum inense
ĠFeice buqui
Ġexpedi ente
hernoby l
Ġasfal to
ĠmerrÃ© is
ĠescÃ¢n dalo
ĠIDE IA
ĠWoo dy
ĠRodol fo
Ġcomprom isso
Ġvassou ra
Ġespanho l
ĠIngla terra
ĠprincÃŃ pio
Interromp emos
! )
' .
' ?
) .
2 3
2 4
7 0
8 00
? ''
A P
A e
A ra
A ma
A quelas
A final
A ugusto
A juda
B us
B ORA
C I
C i
C li
C aro
C res
C heiro
C uri
C ARA
C IO
D em
D on
D os
D orm
D onald
E ba
F A
F antÃ¡stico
F uracÃ£o
G E
G G
G RA
G EM
G lobo
G eraldo
G Ãªnio
G ritos
J Ãģ
J ornal
L is
L ula
L at
L icenÃ§a
M is
M on
M el
M Ã¡rio
M ila
M ama
M iriam
M oisÃ©s
N ar
N aice
N ING
O que
O bra
O fer
O tÃ¡rio
O GO
O briga
P on
P ero
P alav
P EN
P EL
P UTA
P elos
P lateia
R os
R AAAA
R amon
S h
S or
S ÃŃ
S am
S eus
S aÃŃ
S Ãĵ
S enti
S IL
S enhoras
T re
T he
T iro
V elho
V AI
V EL
W al
W ilson
W illiam
W agner
X A
Z en
Z AR
a ten
a compan
b or
b rin
b ase
b acana
b rica
b eram
b osa
b emos
b rinha
b ack
c Ã¡
c ic
c ria
c li
c redi
c uidado
d Ã³
d Ã¡rio
d Ãµes
d entes
d Ã©ia
e ga
e dia
e fing
f en
f in
f el
f anho
f lex
f emin
f Ã³b
g anha
g inas
g rÃ¡
g estÃ£o
g rande
g rupo
h em
h id
i qu
i tÃ¡rio
i tÃ©rio
j um
j alma
j osa
k ut
l ÃŃb
l icenÃ§a
m Ã©
m un
m onte
m elhor
m ino
m ilson
n da
n am
n ando
n ing
n esta
n Ãºm
n ny
o pera
o bs
o gur
p eito
p rando
p iada
p Ã¡tica
p Ãºblica
r tar
r gula
s al
s che
t Ã£
t um
t icar
t ala
t ismo
t ÃŃssimo
t lÃ¢n
u a
u f
u el
u be
u cou
v ente
v imento
v ice
w er
w ay
x Ã¡
x ta
x es
x izinho
z as
z ia
z eiro
z ona
z uca
Â ¡
Ġ +
Ġ Q
Ġ 00
Ġ risos
Ġ !!!
qu Ãªncias
Ġa sso
Ġa sa
Ġa gon
Ġa ting
Ġa glomera
ra paz
Ġe g
Ġe ti
Ġe fica
Ġe volu
Ġd inh
Ġd icas
Ġp um
Ġp Ãª
Ġp ino
Ġp isa
Ġp Ã¢nico
Ġc le
Ġc Ã´
Ġc era
Ġc ec
Ġc roc
Ġc enas
que ta
que rem
te le
te ron
Ġn an
Ġn ulo
Ġn esta
Ġn enÃ©m
Ġm un
Ġm icar
Ġm eli
Ġm Ã³r
Ġm one
Ġm inistra
Ã© ber
Ã© dios
Ġs ar
Ġs amb
Ġs arada
Ġs mart
Ġs inais
Ġv om
Ġv ing
Ġv ici
ar t
ar ista
ar ial
en os
en cer
en tam
.. ...
ss ss
ss inha
ss ie
ss ant
Ġque ira
in k
in t
in Ã¡
in bo
in Ã¡rio
in aram
Ã¡ til
Ã¡ ticas
or t
or or
or gue
or Ã¢ncia
or gan
er rou
er gÃªncia
Ġf eu
Ġf era
Ġf oca
Ġf Ã³s
Ġf oco
Ġf aixa
Ġde tes
Ġde feito
Ġde cote
to sse
to rado
to col
Ġo sso
Ġo la
Ġo ita
Ġo tim
an k
an ca
an co
om bar
um os
um indo
al ho
al ina
Ġt ru
Ġt ron
Ġt chu
Ġt wee
oc re
oc os
oc iaÃ§Ã£o
ĠÃ© s
is on
is tente
is tÃªncia
re c
re cla
da ÃŃ
da quela
ro sso
ro la
... ''
Ġum ede
em presa
on do
on Ã´
on das
Ġte cido
Ġte cla
Ġte remos
Ġb ÃŃ
Ġb Ãº
Ġb lÃ¡
Ġb isa
Ġb aba
Ġb oce
Ġb izar
Ġb ingo
ei xeira
os tas
Ġes for
Ġes tica
Ġes teira
ou s
Ġg i
Ġg im
Ġg ado
Ġg rito
ÃŃ p
ÃŃ as
ÃŃ va
ÃŃ deo
ÃŃ men
ÃŃ cula
ia ba
Ġeu ro
le do
qui la
ara do
Ġcom em
Ġcom bater
ic Ã³
ic inha
ic itaÃ§Ã£o
Ã§ Ã£
Ã³ ca
Ã³ lar
Ã³ quio
Ġi ogur
Ġl eio
Ġl enda
Ġl ombar
Ãī RIA
ri taria
Ġno tinha
Ġno tificaÃ§Ã£o
Ġdo l
Ġdo er
Ġdo bro
gu ai
Ġpra ga
il as
il euza
Ġpor te
Ġtem pero
ab il
ab ib
ab ulÃ¡rio
ssa gem
Ġda da
Ġfal sa
un os
un tos
un ista
un ilha
Ġen ti
Ġen ca
Ġen can
Ġen velo
Ġac al
Ġac ender
Ġac amp
Ġj ale
ga dinho
ul ei
ul os
ul inha
ul ito
Ġcon d
Ġcon fer
Ġcon tem
Ġcon junto
Ġre b
Ġre per
Ġre bo
Ġre pro
Ġre formar
Ġre viver
Ġre moto
Ġre cipiente
Ġre queijÃ£o
di ga
di oca
di th
Ġem bal
Ġem prÃ©stimo
ĠC H
ĠC r
ĠC Ã©
ĠC ou
ĠC anta
ĠC ham
ĠC lay
ĠC uidado
Ġma Ã§o
Ġma drinha
ĠP S
ĠP ern
ĠP lu
ĠP OS
ĠP UC
ĠP romo
ĠP CC
he te
ĠA R
ĠA ter
ĠA pro
ĠA Ãį
ĠA ULA
ĠA loÃŃsio
ĠA TRÃģ
ĠA tlÃ¢n
ĠM O
ĠM OR
ĠM IL
ĠM INHA
ĠM iojo
ĠtÃ¡ rtar
ĠD en
ĠD or
ĠD ele
ĠD aÃŃ
ĠD aiane
ĠD jalma
ĠD Ã³lar
Ġme to
Ġme ga
Ġme tro
Ġme tal
Ġme tido
Ġme tel
Ġme dÃŃ
Ġfo le
Ġto pa
Ġto po
Ġto dinho
Ġto quei
Ġto pete
pa u
pa go
pa gou
pa ssei
ti te
ĠS r
ĠS her
ĠS OU
ĠS antar
ĠS ocorro
ĠS tron
ĠS KY
Ġele fante
us tÃ£o
us ados
Ġam am
tra ficante
tra Zen
io terapia
Ġdi d
Ġdi Ã¡
Ġdi to
Ġdi Ã¡ria
Ġpo sse
Ġpo zinho
Ġcara cter
Ġpa usa
Ġpa tri
Ġpa vÃª
Ġpa tÃ©tico
Ġpa tinete
Ġtu barÃ£o
Ġin a
Ġin Ã©
Ġin ve
Ġin tri
Ġin icial
Ġin dÃŃ
Ġin justo
Es pe
Es per
Es colhe
ĠT im
ĠT ham
ĠT OC
ĠT orre
ĠT igre
ĠT eixeira
ca p
ca usa
ca xi
ca dÃª
Ġsen so
co very
Ġal c
Ġal uno
Ġal catra
Ġal unos
ĠB ento
ĠB ado
ĠB RA
ĠB EM
ĠB aixo
ĠB uda
ĠB ill
ĠB lack
ĠB Ã¡rbara
ran Ã§as
ran dir
Que bra
po ol
Ġpre m
Ġpre tas
Ġpre gui
Ġpre parei
ce is
ce le
pe gando
pe ach
pe ak
pe ssoa
Por quÃª
com pra
com plica
com enda
com prou
Ġass untos
Ġpara dinho
Ġpara ndo
Ġpro funda
ten a
ten ente
Ġsu ÃŃ
Ġsu ado
Ġver ru
Ġver me
ĠJ uma
ĠJ erson
gar ro
Ġmes mas
ĠO ri
ĠO lÃ¡
ĠO este
ĠR G
ĠR ala
ĠR ock
ĠR ichar
ĠV e
ĠV OL
ĠV isconde
ĠV eloso
por tiva
por tÃ¡vel
Ġser vido
ĠF un
ĠF eito
ĠF rias
ĠF eli
ĠF ranÃ§a
ĠF ilha
ĠF lash
ĠF ÃīRIA
Ġan tic
Ġper man
Ġestou rar
ir inho
ir omba
Ġdes e
Ġdes m
Ġdes fi
Ġdes cendo
Ġdes cri
Ġdes odo
Ġdes bloque
Ġdes erto
vo rada
Ġter Ã§as
Ġca ia
Ġca Ã§
Ġca tando
Ġca par
Ġca Ã§ar
Ġca ÃŃdo
Ġca usando
Ġca vaco
Ġca poeira
Ġsenhor inha
pre ssion
ĠL ar
ĠL um
ĠL os
ĠL inda
ĠL UQUINHAS
Ġbo be
Ġbo iada
Ġbo quete
Ġbom bar
Ġbom bom
Ġten to
Ġten so
Ġten ham
iz ei
ĠN ar
ĠN ome
ĠN ormal
ĠN EM
ĠN ES
ĠN ick
ĠN onÃ´
ĠG er
ĠG an
ĠG osta
ĠG OS
ĠG ay
ĠG rÃ©
ĠG RAN
ĠG aleÃ£o
ĠE las
ver t
ver dade
sa ÃŃas
no ssas
Com prou
der s
der ruba
Ġtra i
Ġtra uma
Ġtra tando
Ġtra du
Ġpr Ã¡tica
Ġpr endeu
igo f
Ġex ce
Ġex ib
Ġcar to
Ġcar ente
Ġcar im
Ġcar idade
Ġcar rinho
Ġcar teirinha
Ġcar dÃŃa
Ġpar que
vi e
vi er
vi ta
vi des
vi Ã¡ria
vi deos
cis ta
Ġsem entinha
Ġli Ã§Ã£o
Ġli tera
Ġli xeira
ĠÃ³ timos
Ġmen tal
Ġmen digos
Ġesta m
Ġos tra
Ġche gamos
ba ta
Ġman as
Ġman ual
Ġman dioca
Ġar co
Ġar gent
Ġhe tero
mar ido
para m
para da
Ġas pas
Ġch al
Ġcha pa
Ġres istir
Ġres ort
ber ta
Ġmer cadinho
me t
me ga
me tro
me ans
Ġcor o
Ġcor tado
Ġcor pus
Ġap an
inh ando
tor no
Ġti os
Ġti gre
Ġra ra
Ġra pi
Ġra ios
har el
ĠÃ Ĭ
Ġficar em
ec as
Ġsai dinha
Ġali anÃ§a
Ġali enÃŃ
pera Ã§Ã£o
li de
li gando
oi to
oi dra
per deu
per idade
pi u
pi Ã³ca
Ġ2 50
ĠI greja
ĠI vete
Ġjo guei
Ġla tÃ£o
Ġla mento
Ġla vada
Ġla teral
Ġpou cas
Ġcan tora
Ġcan cro
Ġvol tinha
ne ta
Ġmo de
Ġmo les
Ġmo tiva
Ġmo tivos
Ġmor der
Ġmor cego
Po bre
Po deria
De pressÃ£o
ram ento
tr iste
bl eia
bo tou
Ġolha do
Ġolha va
ĠU OL
cer o
ris ada
Ġco pa
Ġco bi
gal o
dor m
Ac orda
Ġpass eio
Ġpass iv
Ġmal eta
Ġmal diÃ§Ã£o
ĠH Ã¡
ĠH al
ĠH EIN
ĠH eidegger
Ġcam elÃ´
segu ro
segu ranÃ§a
segu ndo
segu nda
Ġba t
ĠPor sche
jo go
Ġfor no
Ġfor mi
Ġim ensa
Ġim pedir
Ġim edia
var es
tam pa
Des a
Des culpe
Ġacab aram
ĠĠ Ċ
du e
du al
du la
Ġban ner
fa Ã§o
fa vor
Ġlu tas
Ġaju dÃ¡
Ġr ender
Ġr Ã©plica
Ã³s copo
Ġmar cada
Ġconhe cimento
ĠÃł quela
Ġpens aram
des tina
Al ine
Al guns
Ġcu zinho
Ġcu zÃ£o
Ġcol una
ĠW ilson
ĠW uhan
enta da
Ġru de
ch Ã£o
dia Ã§Ã£o
Ġgra vaÃ§Ã£o
Ġmelhor ou
?! ?
ĠcomeÃ§ am
ĠPa ty
ĠPa Ã§oquita
Ġlo op
ada p
pro grama
Ġdire ct
Ġbe bi
Ġestar em
inal do
Ġacontec em
Ġ3 2
Ġ3 3
Ġ3 6
Ġ3 8
Ġpai xÃ£o
and Ãªs
Ġconta gem
Pe ssoa
Ġresp ei
Pa y
Pa ss
Pa ssar
Ġia te
tura da
Ġdeix am
Ġun ivers
Ġun idos
Ġcai pi
Ġcai pira
vis Ãµes
Ġdaqui lo
Bo tar
ĠCar mem
Ġpergun tas
Ġpergun tam
To talmente
Ġpu ro
Ġpu tinha
Ġfiz emos
ĠPe p
Ġpres tam
ĠMa ps
Ġfam ÃŃli
ĠvÃŃ cio
ĠvÃŃ rgula
Ġven das
Ġbar zinho
Ġgan g
Ġab uso
Ġab usado
Ġab aixar
Ġprim eiras
Ġinter cÃ¢mbio
Ġpol it
Ġpol Ãªmica
Ġsal sic
be de
Ġfr yer
Ġano tado
Na tÃ¡lia
ĠCom ple
ĠCom itÃª
Enten do
Ãĥ E
esta vam
ĠAl an
ĠAl Ãª
Ãºs tria
fi que
Ġcal hou
Ġcal abresa
ÃŃn as
QU AL
for d
Ġacredi te
Ġpl us
Ġpl antar
Ġpos tal
ven der
ĠK e
ĠK i
ĠK op
Ġrela tÃ³rios
Ġsol dado
Ġga fanho
Ġsuper ior
Ġsuper poder
Ġhis tor
ke t
Ġrep lay
ĠEs car
ĠEs pon
ĠEs petacular
ĠEs tampa
Ġcur va
Ġol hÃ£o
Ġrec uso
Ġrec entemente
ĠNo vo
In veja
In teressante
ren alina
Ġespe ciais
Ġquar tos
Ġcontra ta
Ġmu dei
Ġpoder oso
Ġpoder iam
Ġmora m
Ġmora dor
Ġmora dores
Mar iana
Ġdifer encial
Ġapar Ãªncia
Ġnum ero
Ġor elha
Ġins inu
Ġins cre
Ġcl ich
ĠX er
Ġdou la
Ġassis tido
Ġassis tiu
Ġconf ia
Ġfinal zinho
Car ro
Le andro
Le genda
Ġexpl ico
Ġexpl icando
vol tar
vol tou
Ġatra sou
Ã©s b
ĠcrianÃ§a da
Ġdis tante
Ġdis tan
Ġdis creto
ĠLu isa
Ġimpor to
Ġimpor tam
Ġabri l
ĠAn tunes
ĠAn arriÃª
ib il
via gem
ĠBo dy
Ġesp el
Ġ4 7
Ġcorpo raÃ§Ã£o
ĠSu dÃ£o
Ġlic itaÃ§Ã£o
ĠLe ague
Ġlim pou
Ġlembra va
TA L
ĠmÃ© todo
cara do
Ġfec al
Ġfec hando
Ġinf ormal
ĠVal inhos
ern es
Ġrece bendo
Per ce
dr ina
Ġmam Ã£o
ER VA
fal o
tic aba
Ġtele fon
Ġsur do
ĠNe g
ĠNe ve
Ġchu te
Ġchu vei
Ġchu veiro
Do ze
fic os
Ġcora josa
ĠSe is
end Ãª
EN A
EN ÃĩÃĥO
Senhor es
ĠGu e
ĠGu ara
ĠGu gu
Val tinho
Val demar
Ġpir ulito
pres idente
Ġmole ques
Ġmole cada
Ġbrasileiro s
Ta ca
Ġsor ri
Ġhor Ã³scopo
ĠOs waldo
Ġmanda to
Ġmanda mentos
Ġad qui
Ġad vogada
Ġad icionar
Ġad versÃ¡rio
Ġad renalina
Ġques ito
Ãºm es
Ġbei j
Em bora
Fo fo
Ġtrou xa
IN NING
Pro vavelmente
ze quiel
Ġcontinu o
Ġcontinu ou
ĠJu randir
lu x
lu xo
Ġcachor rinho
men ina
Ġeng enheiro
ĠJÃº nior
Ġcoc h
Ġconseguir ia
Ġha ter
Ġha bi
Ġha via
Ġha vendo
Ġha ppy
ĠRa y
ĠRa Ã§a
ĠRa paz
ĠRa pidÃ£o
Ġliga va
Ġreal ista
man n
tel y
Ġjan tando
dou tor
Ġcomun icar
Ma ur
Ġcul tural
Ġvim os
tida mente
Ġapro var
Ġapro vado
Ġtor tura
Ġbri lho
Ġav Ã³s
Ġav anÃ§ado
Ġcria Ã§Ã£o
Ġbro to
Ġgor ila
Ġlan cha
Ġlan che
vei tando
Ġgar i
Ġforma do
ES ERVA
Ġfar da
Ġbal eado
Ġfic ha
Ġu h
ĠY piÃ³ca
Ġadi vinhar
Ġespa da
enten der
enten dendo
Ġlei tura
Ġlei lÃ£o
ly mar
Ra pidÃ£o
ĠJul inho
Ġguar do
Ġguar dando
Ġguar dado
Ġpei dou
Ġeste ja
Ġnamora r
ĠĠĠĠĠĠĠĠ ĠĠĠĠ
Tom ara
Ġpan inho
Ġdef iciente
Ġgri tou
Ġgri taria
Ã³r icos
ĠFa zer
ĠÃĶ mega
Ġpul ou
if re
Ġpis cou
Ġpin tei
Ġlar go
Ġk now
Ġtre pa
Ġtre inador
lay nny
Ġrespon di
Ġreun iÃµes
Ġfer ram
Ġfer rada
Ġalmo Ã§ou
ĠÃģ gua
Ġaf ro
Ġaf un
Ġaf li
Ġfum ou
Ġtex tura
ĠcafÃ© zinho
ĠGlobo News
gan s
pira r
ĠDu que
ĠDu tra
ĠBar bosa
Ex plo
Ġmata ram
Ġdescon s
Ġdescon fi
Ġimag ine
Ġris o
Ġcres cendo
Ġbara tinha
Ġestre ia
Ġestre ssado
abri r
Ġabra Ã§ar
Ġpri vado
Ġestu pro
ĠCon he
ĠCon rado
Ġcarre gador
Ġabs or
Ġabs ol
Co pa
Ġy oga
ĠPar que
Ch ico
Ġtri lha
ĠTo ledo
Sa Ãºde
Ġag Ãªncia
tin ni
Ġarre go
Ġprocura do
tis how
Ġ8 7
ĠLÃŃ dia
Ġarrum ando
icion ista
Ġpun ho
Ġpun hal
Ġsite s
ĠirmÃ£ s
EL HOR
Ġapres entaÃ§Ã£o
Ġtim es
Ġviol enta
Ġescri tor
Ġcomple tar
Di reto
Di ferente
Ġmis tu
Ġmis erÃ¡vel
Ġconc urso
ĠAc abei
EI TA
Ġpal e
Lem brando
ĠdÃº vidas
Ġref res
Ġref orm
Ġref rige
Ġref lexo
IC O
Ġequi v
Ġequi pamento
ĠpÃ¡ ginas
ĠBol ÃŃvia
Cer teza
Lu ÃŃsa
Ġz ueira
ĠQual quer
ĠES TA
Ġplane jando
Ġespecial ista
Ġespecial izaÃ§Ã£o
Ġinven Ã§Ã£o
Ġempres tar
Ġempres tei
Ġis ola
Ġfre quÃªncia
Ġfre ezer
ash ion
Ġcoloc am
Ġcoloc aram
Ġganha mos
aix ei
Ġido sa
Ġassal tado
Ġvagab undos
Ġur bana
Ġcre che
Ġbur rÃ£o
ĠCor eia
ĠEx Ã©rcito
ide ra
Ġgen til
Ġgen eral
ĠCam po
Ġnervos ismo
Man u
pÃŃ adas
Ġmon tado
ĠChe que
ĠChe fe
ĠChe guei
ĠPre cisa
Ġher e
Ġapa gou
Ġdep ende
Ġesquis ita
Ġid Ã©ia
Ġquad rado
Ġquad rilha
come Ã§ar
Mulher es
mer mo
Ġvar iar
Ġvar ejo
Ġvar iante
Ġfamos os
Ġdeci diu
Ġanti gamente
Ġtenta tiva
Ġmin to
Ġbi en
Ġescon di
ĠDis covery
Ġarran ca
GU EI
GU ÃīM
Ġdan ado
Ġcou vert
ĠfÃ£ s
oma top
Ġencos tar
Acab ar
duz ido
Ġconfun dir
Ġbab ado
ĠDi di
Ġpros peridade
Ġdesem penho
Ġaprovei tei
Ġata cante
Ġmem o
ĠSer queira
ĠRena tinha
aaaa aaaa
Ġati ra
ĠCel lo
ĠCel sinho
Ġpobre s
Ġalgo dÃ£o
Ġprome ti
Ġprome teu
Ġbarra ca
La ura
sab ia
Ġtrem er
Ġgaran to
Ġgaran tida
ĠsÃ© timo
Ġju dÃ©ia
dire ita
Ġmachu cou
ĠAcho u
Ġassina da
ĠLi vre
Ġmenor es
Ġcaminh ando
fora m
ĠFaz enda
Ġidenti fico
Ass al
Ass iste
UL O
UL HER
Ġbloque ado
Ġcompartil ha
Ġcompartil hando
Ġemo Ã§Ãµes
cri anÃ§a
Ġens aio
Ġapo iar
Ġfl uir
haha ha
Ġreconhe cendo
Ġquin to
Ġquin tas
Ġcarta z
Ġorgan izada
Ġmus ica
Ġmus iquinha
Ġexis tem
Ġexis tir
Ġlam bu
Ġlam bendo
Ġelim ina
Ġopera r
Ġsecre tÃ¡ria
ĠSan tinni
ĠEd son
ĠEd ileuza
Ġfilma do
Ġescu tando
Im possÃŃvel
Ju das
Ju ssara
encia da
Ġbac harel
passa do
Ġindi ano
Gosto so
Ġarrep iado
Tran s
fu tebol
Ġvoc abulÃ¡rio
Ġjura dos
ĠVI P
ĠVer dade
Ġgarra finha
Fec hado
Mal uco
gle sa
prim eiro
prim eira
Ġesfre gando
Ġconte xto
ĠPal meiras
ĠAs traZen
ĠVa vÃ¡
ĠFi quei
Ġnega tiva
HHHH HHHH
Sol ta
ky ardi
pens ar
Ġinde cisa
Ġinde ciso
Ġletra s
Ġsincer idade
Ġcigar rinho
Trabal har
Trabal hando
rÃŃ veis
Ġefeito s
ĠcÃ³ digo
ĠcÃ³ digos
Ġmolha da
Ġmolha dinha
Ġfru to
ĠCer teza
ĠPl us
ĠAM O
cera mente
Ġante ce
ĠLor en
consegu e
Ġcaix inha
Ġobser vando
pperw ares
Cam isa
Cam ila
zz zz
Ġape gado
Ġaba jur
Ġaba caxi
ĠsÃŃ filis
Ġfol ga
Ġconven Ã§Ã£o
ĠTra bal
ĠFu turo
ĠLui gi
Ġapaix onada
Ġdiscu tir
Ġmentiro sa
ĠJar bas
ĠLon drina
liv re
Ġabando nar
Ġori gem
Ġfranc esa
Ġdesempre go
IrmÃ£o s
PE RA
Pl ÃŃnio
din n
Ġvin heta
enha gen
ĠSU A
ĠBras is
ĠJac ques
ĠLem e
Ġhigi ene
Ġtrave co
Ġcurti das
Conhe ce
Ru im
Ser ve
min ton
Ġelo gio
Ġpur inho
Ã£Ã£ Ã£o
guar da
ĠCol lec
ĠTO DOS
Ġdescan so
precis ar
Ġfamiliar es
Ġposta gem
Ġhumil de
Ġ60 2
Ġpsic olÃ³gico
Ġexag era
Jul ia
Ġtamb or
Ġtec lado
Ġesper ta
Ġengo le
ĠCON S
tifica do
ĠBu enos
ĠRI T
Ġanal is
Ġanal ista
Ġcaga va
ĠHol lywood
Ġbati zado
Ġpesquis ar
Ġatrave ssar
Ġinfec Ã§Ã£o
ĠrobÃ´ s
Sur presa
Ġaval iaÃ§Ã£o
Ġess Ãªncia
Ġgira r
Ġacum ulando
ĠPE DAL
Ġind icar
ĠTom Ã©
tup ir
Ġ199 4
Ġhomossexual idade
PÃ© ss
lem bra
Ġvas caÃŃno
Ġface book
ĠMon tenegro
ĠSam ara
irul ipa
Ġdesespera da
ĠLis terine
Ġbole to
trÃ³ leo
Ġform ula
Ġform ulÃ¡rio
Ġconside raÃ§Ã£o
Ġmilitar es
Ġesquen ta
Ġesquen tar
Ġcabel inho
Ġderre pente
Dan ni
Fu tebol
Ġcem itÃ©rio
Ġdeco rar
Ġencar naÃ§Ã£o
Ġmag rinho
ĠPi res
ĠMul tilaser
ĠMul tishow
Ġcap ric
Ã¢me ras
ĠHe al
Ano ta
PO DE
Ġetern amente
ĠdÃ© bito
Ġcomemora r
und Ã¢ncia
ĠMac hado
Ġeletr Ã´nico
Ġdivers as
Ġvideo zinho
Ġalu gar
Ġassus tado
ĠJam ir
ĠOl ÃŃmpico
ĠOx um
ĠFre ud
Ġtestem unho
Cel so
Cham ou
Final mente
Ġstre ss
Ġstre aming
Ġenfer m
Ġempa te
ĠCe bola
ĠPO DE
Ġmec Ã¢nico
ĠSab ia
ĠlÃ¡g rima
ĠcatÃ³ lica
ĠcatÃ³ lico
Ġexclus ividade
Ġcopi ar
Ġorg Ã¢nico
Saudade s
Ġfriend ly
Doc umento
Je fferson
brasil eiro
caram ba
wl ands
inan ceiro
Ġbron ze
Ġenxa gu
Ġenxa queca
Ġjor nada
ĠCle an
ĠPr ÃŃncipe
ĠPic ci
ĠPic Pay
ĠBab aloo
Ġextre m
continu ar
Ġusu Ã¡rios
Ġcurios a
Ġcurios idade
Ġveg ana
Ġveg ano
ĠJuli ette
Ġxin gar
Pris cilla
Pron tinho
Ġdrin k
Ġpend ura
rece bendo
Ġespi ri
Ġital iana
ĠMAL UC
Ġdestr uiÃ§Ã£o
Ġparru do
ĠMarcel inho
ĠHer manos
Ġbande irinha
Ġren ome
Ġcolor ido
ĠWar s
ĠMag num
ĠKa du
Prepara dos
Ġtorno zeleira
Ġindep end
ĠGosto sa
ĠSnap chat
Ġexecu tiva
Bab y
BAL HO
sus piro
Ġdin Ã¢mica
ĠCI MA
ĠAdem ilton
ĠDol ly
Ã´men o
ĠSP INNING
ĠSant ana
Ġdigi tal
ĠBor elli
ĠFra jado
Ġcate gor
Ġirre gular
Ġapl icar
Ġapon tando
risti des
Ġcogum elo
ĠhistÃ³ rico
Ġrecol her
Ġcabec eira
Ġaudi Ãªncia
Ġdesenro lar
Ġlingua gem
Ġacess Ã³rio
Ġpublici tÃ¡ria
ĠjurÃŃ dico
ĠÃ¢n gulo
Abs oluta
FAM ÃįLIA
Jai r
Prome to
dana po
mel inda
Ġates tado
Ġteim oso
esc rito
Ġencor pado
Ġconquis tar
ĠPira jÃ¡
ĠTec h
ĠBO A
ĠRÃ¡ pido
boar d
ĠUF RJ
Suz ana
Ġhabil itaÃ§Ã£o
Ġquie tinho
Candida ta
ĠromÃ¢n tico
ĠJaque line
Ġberin jela
Edu ardo
Geral mente
Lon ge
SÃ©ri e
ĠÃŃdo lo
Ġades ivo
Ġvaro a
Ġign orÃ¢ncia
Ġemisso ra
ĠColo sso
Ġmatr ic
Ġmacar rÃ£o
ĠMc Donald
ĠMam ute
ĠShar k
Ġalem Ã£o
ĠFir mino
Ġcapi vara
Ġresf riado
Ġcorrup to
Ġaplau dir
ĠIv one
Ġmargar ina
Ġconstr Ã³i
Ġinscri tos
ĠAnton io
ĠLevÃŃ tico
Ġwit h
Ġwhis ky
Ġnutr icionista
ĠCamp inas
Ġremun era
assis tindo
respons abilidade
vermec tina
Lat ino
lÃŃb rio
Ġeti queta
Ġefica z
Ġdinh eirinho
Ġcec Ãª
inbo w
oror Ã³
ĠfÃ³s foro
recla mando
Ġacamp amento
ĠClay ton
ĠAter ro
ĠATRÃģ S
ĠtÃ¡rtar o
Ġmetel anÃ§a
ĠSantar Ã©m
Ġpatri ar
Ġintri ga
ĠindÃŃ gena
ĠBado o
peach ment
ĠRichar d
ĠFÃīRIA S
Ġdesodo rante
ĠGrÃ© cia
Ġlitera tura
Ġargent ino
oidra to
ĠfamÃŃli as
ĠComple xo
ĠKop enhagen
ĠEspon ja
Ġclich Ãª
ESERVA TIVO
ĠAstraZen eca
kyardi gans
ĠCollec tive
! ,
! ".
# @
% ,
) ,
1 3
1 7
2 1
2 9
8 9
9 9
; *
@ #$%
A que
A ssa
A di
A teu
A tira
A deus
B E
B O
B en
B osta
B abaca
B ale
B ranco
B enÃ©
C ra
C um
C re
C ho
C os
C es
C idade
C ris
C hora
C AL
C AR
C ÃĬ
C AN
C ON
C Ã¡tia
C RE
C PM
C ruz
D ra
D igo
D oi
D EI
D emora
E Z
E loÃ¡
F la
F es
F oca
F olha
F inge
F icam
G B
G en
G aro
G et
H er
H om
H eitor
H orrÃŃvel
H AAAAAAAAAAAAAAAA
I B
I V
I na
I DO
I QUE
J ar
J or
J am
J ennifer
K id
L Ãª
L indo
L ÃŃvia
L acan
M M
M Ã©
M es
M ul
M ENTE
M estre
M usica
N er
N ormal
N OS
N et
N abote
N enhuma
O l
O w
O de
O lho
O bjeÃ§Ã£o
P an
P es
P ir
P ena
P rem
P AR
P lay
P RO
P ff
P ique
P iroca
R eu
S S
S ente
S un
S ÃŃn
S hh
S can
S at
S Ã´nia
S Ã¡bado
T r
T am
T Ãªm
T ER
T entando
T abet
U i
U ni
V AL
V ende
V OU
V asco
V eja
W e
X uxa
Y eah
Z A
Z Ã©
Z ero
Z ueira
_ _
a e
a f
a um
a di
a Ã§a
a tr
a ju
a pos
a hh
a Ã§Ãµes
a parece
a paga
b os
b un
b ac
b eijo
b by
c m
c le
c us
c Ã¡rio
c ing
c usa
c amente
c emos
c rÃ©
c Ãºn
c entos
c use
d ras
d ÃŃcio
d Ã¢ncia
d ilha
d dy
d ense
e is
e va
e ci
e xa
e con
f em
f am
f igo
f iado
f uso
g Ã¡
g eu
g ma
g eiro
g era
g rando
g anÃ§a
g Ãºs
g ani
g icos
g rima
g ends
g Ãªmeos
h Ãª
h ista
h esa
h omem
h mm
h alo
i Ã¡
i ssa
i vi
i tei
i pava
i quia
j an
j eira
j ama
k em
k ers
l la
l endo
l lo
l ocu
l anti
m y
m oc
m is
m im
m us
m ita
m ido
m ano
m ula
m orre
m uitas
n n
n Ãª
n eiro
n ali
n ologia
n ormalmente
n Ã©sia
o W
o ter
o ba
o fer
o brigado
o ple
p um
p am
p ti
p Ãº
p ria
p ista
p Ã³s
p ula
p ulo
p uda
p icos
p tero
p ric
p izza
r se
r ice
s r
s in
s Ã´
s eira
s Ãµes
s ensacional
s ificar
t he
t us
t rio
t inal
t chau
t inta
u de
u tas
u ah
v oca
v Ãªm
v ontade
w w
w in
x ia
x iga
y l
y r
y ra
y ala
z ante
z inh
z inhas
z ios
º ½
Â ´
á º½
Ġ =
Ġ !!
Ġ âĢľ
Ġ __
qu ÃŃ
qu ista
qu ais
qu inhas
qu ador
qu ÃŃria
Ġa ga
Ġa tre
Ġa fil
Ġa tuaÃ§Ã£o
Ġa gosto
Ġa jei
Ġa turar
Ġa jeita
ra pa
ra cia
Ġe go
Ġe co
Ġe voluÃ§Ã£o
Ġd um
Ġd eno
Ġd anada
Ġp om
Ġp im
Ġp ura
Ġp inheiro
Ġp Ã¢n
Ġp lau
Ġp ense
Ġp lateia
Ġc amb
Ġc imento
Ġc osta
Ġc entra
Ġc eles
Ġc itado
Ġc entral
Ġc Ã¢meras
que tÃ¡
que nas
que zine
te to
te ir
te ch
te irÃ£o
Ġn ono
Ġm Ã³
Ġm io
Ġm Ã³vel
Ġm Ãºl
Ġm Ã³veis
do no
do ras
do filia
Ã© tr
Ã© tico
Ġs h
Ġs ta
Ġs ha
Ġs he
Ġs Ã´
Ġs co
Ġs inu
Ġv lo
ar Ã¡
ar oma
en al
en ro
en tivo
en ine
en contra
en costa
en haria
en cher
ss is
ss eiro
ss aro
ss if
Ġque bro
Ġque brando
in x
in er
in elo
in son
in Ã©s
in ze
in ame
in vesti
Ã¡ i
Ã¡ ter
Ã¡ rea
or ma
or ci
or ld
er te
er tar
er reiro
Ġf Ã³r
Ġf uso
Ġf low
Ġde com
Ġde ter
Ġde mÃ£o
Ġde batendo
Ġde ep
Ġde partamento
Ġde poimento
Ġde putados
to pe
to na
to ne
to talmente
Ġo di
Ġo Ã´
Ġo ce
Ġo usa
Ġo raÃ§Ã£o
Ġo use
Ġo perando
Ġo fegante
an u
an ic
an der
om ar
um p
um entÃ¡rio
al di
al ista
Ġt in
Ġt ras
Ġt abe
Ġt antas
Ġt into
oc he
oc ial
oc racia
ĠÃ© gua
as te
as ca
is tÃ£o
is tro
re al
re ta
da gem
ro se
ro so
ro ne
ta pa
ta tion
de ra
de za
de les
de putado
de baixo
ho sa
Ġum idade
em ento
on i
on hesa
Ġte co
Ġte oria
Ġb elo
Ġb lo
Ġb ela
Ġb esta
Ġb lu
Ġb if
Ġb ÃŃblia
Ġb ill
Ġb roca
ei as
os os
os co
Ġes ten
Ġes tas
Ġes tan
Ġes tri
Ġes tim
Ġes tÃ©tico
ou ou
ou ve
ou vindo
Ġg on
Ġg rando
Ġg lor
Ġg ene
Ġg et
Ġg iromba
ÃŃ rio
ÃŃ cero
ia dos
le d
le vei
ente r
qui te
qui ria
qui tude
Ġcom ia
Ġcom ido
Ġcom par
Ġcom anda
Ġcom ÃŃcio
Ġcom bate
Ġcom entando
Ġcom posiÃ§Ã£o
ic ida
ic one
ic Ã³rnio
ic ure
Ã§ ol
Ã§ amos
Ã§ oca
la ma
la vo
la uso
es el
es tu
es quece
es cro
es tantes
Ã³ Ã³
Ã³ tico
Ã³ loga
am as
am anhÃ£
Ġi Kid
Ġl oca
Ġl Ã©sb
Ãī h
ri tÃ³rio
ri rica
ri ficar
Ġdo pado
Ġdo brar
Ġdo aÃ§Ã£o
Ġdo idera
go vernador
tÃ¡ ce
gu ia
gu ista
gu ense
gu eiros
Ġpra tos
Ġpra tas
il ei
il ia
Ġpor taria
ab ra
Qu anta
ol i
ol Ã£o
ol Ã¡
ol he
ol Ãªncia
ol hinho
Ġna val
Ġfa xin
Ġfal iu
Ġfal ecer
Ġse ra
Ġse Ã§Ã£o
un g
un cio
un idade
Ġen vel
Ġen comenda
Ġac id
Ġj ulho
ul to
ul oso
Ġcon du
Ġcon tun
Ġcon vÃŃ
Ġcon fere
Ġcon gela
Ġcon gel
Ġcon clusÃ£o
Ġcon quista
Ġre z
Ġre in
Ġre tar
Ġre tra
Ġre por
Ġre za
Ġre me
Ġre dor
Ġre cheio
Ġre cons
Ġre bater
Ġre zando
Ġre parei
Ġre duzir
Ġre forÃ§o
Ġre clusÃ£o
Ġre tirar
Ġre gata
Ġpe drinha
Ġpe cados
di fer
di fÃŃcil
Ġem endo
ĠC D
ĠC ec
ĠC oro
ĠC AR
ĠC rus
ĠC OL
ĠC andy
ĠC achorro
ĠC VC
ĠC hernobyl
ui da
Ġma te
Ġma tando
Ġma gra
Ġma du
Ġma tado
Ġma tÃ©ria
Ġma jor
ĠP U
ĠP os
ĠP ia
ĠP la
ĠP inho
ĠP ig
ĠP ero
ĠP EN
ĠP inta
ĠP ES
ĠP roc
ĠP omba
ĠP Ã¢mela
Ġqu anta
Ġqu ÃŃm
Ġqu ÃŃmica
he he
he teiro
ma o
ma tar
va cina
ĠA ca
ĠA mar
ĠA vel
ĠA dÃ£o
ĠA ven
ĠA hh
ĠA cre
ĠA dri
ĠA juda
ĠA Ã©cio
ĠA JU
ĠA yala
ĠM r
ĠM ala
ĠM onte
ĠM ano
ĠM ach
ĠM TV
ĠM UN
ĠM estre
ĠM BL
ĠM MORPG
ĠM OLE
ĠM ÃĥE
ĠM ELHOR
ĠM ULHER
ĠD T
ĠD iz
ĠD aqui
ĠD IN
ĠD oria
Ġme dinho
Ġme dicina
Ġfo tinho
Ġfo ssem
Ġfaz iam
Ġto cou
Ġto lete
Ġto ld
pa sse
pa Ã§o
ti ver
ti das
ti ano
ti zada
Ã´ Ã´
Ã´ metro
ĠS ara
ĠS amb
ĠS ira
ĠS tu
ĠS era
ĠS ele
ĠS Ã©r
ĠS tel
ĠS hhhh
ĠS argento
ĠS now
ĠS mart
ĠS port
ĠS ylvana
ĠS potify
ĠS tone
us alÃ©m
Ġam ou
Ġam endo
Ġam ora
tra gem
Ġdi fÃŃ
Ġdi rÃ¡
Ġpo tÃªncia
Ġcara m
Ġpa y
Ġpa in
Ġpa co
Ġpa vil
Ġpa gue
Ġpa usar
Ġpa pag
Ġpa deiro
Ġpa drÃµes
ĠnÃ© h
Ġtu bo
Ġtu rismo
Ġin e
Ġin tro
Ġin gre
Ġin formar
Ġin jeÃ§Ã£o
Ġin duzido
Ġin glesa
Es pÃŃrito
Es frega
ĠT Ã£o
ĠT re
ĠT ico
ĠT ur
ĠT ÃĶ
ĠT enta
ĠT amo
ĠT ive
ĠT elma
ĠT rinta
ĠT arde
ĠT roca
ĠT abet
ĠT Ã³quio
ĠT irulipa
ca is
ca de
ca co
ca pi
ca gando
Ġsen tida
Ġsen tada
Ġvi be
Ġvi rado
Ġvi via
Ġvi veu
Ġvi ril
Ġvi ernes
Ã§a dinho
Ġal f
Ġal ga
Ġal fa
Ġal tura
Ġal cool
Ġal erta
Ġal tera
Ġal arme
Ġal heia
Ġal moc
Ġal ertar
ĠlÃ¡ tex
ĠB ara
ĠB elo
ĠB ec
ĠB oi
ĠB ros
ĠB ial
ĠB ranca
ĠB loco
ran des
po o
po ra
po po
Ġpre ga
Ġpre Ã§os
Ġpre visÃµes
ĠsÃ³ cio
ce deu
ce dido
ce aria
En gra
En trar
En gole
pe Ã£o
pe guei
Por tugal
com partil
com prando
Ġass inei
Ġass ociaÃ§Ã£o
Ġpara no
Ġpro sse
Ġpro pondo
Ġpro fundo
ten di
Ġsab Ã£o
Ġsu quinho
Ġsu bi
Ġsu posto
Ġsu ssur
Ġsu perar
Ġsu destino
Ġsu gestÃ£o
Ġsu destina
Ġver em
Ġver ifica
ĠJ r
ĠJ ura
ĠJ ano
pra y
ĠO S
ĠO z
ĠO ta
ĠO ut
ĠO lim
ĠO ficial
ĠR i
ĠR ica
ĠR EM
ĠR ose
ĠR yan
ĠR oraima
ĠV C
ĠV O
ĠV Ã¡
ĠV ac
ĠV iu
ĠV az
ĠV ISTA
eiro z
por cento
Ġser es
Ãº ria
Ãº cho
Ãº vio
ĠF U
ĠF ar
ĠF ur
ĠF lÃ¡
ĠF it
ĠF eliz
ĠF ani
ĠF olha
ĠF UN
ĠF rota
ĠF uracÃ£o
ĠF inanceiro
Ġan jos
Ġan gÃºs
Ġper fei
ina gre
ir is
Ġdes mas
Ġdes via
Ġdes cre
Ġdes fil
Ġdes cal
Ġdes caso
Ġne gar
Ġne les
Ġne cro
Ġter ras
Ġca u
Ġca fe
Ġca tuaba
pre to
pre ciso
ĠL G
ĠL im
ĠL ÃŃlia
ĠL ad
ĠL aser
Ġbo x
Ġbo que
Ġbo dy
Ġten sa
Ġten dÃªncia
se te
iz ante
iz zar
Ġcas as
Ġh el
Ġh it
Ġh ero
ĠN i
ĠN ando
ĠN Ãī
ĠN esse
ĠN elly
tu ado
tu reira
ĠG ol
ĠG ira
ĠG ana
ĠG rin
ĠG lor
ĠG ritaria
ĠE N
ĠE ver
ĠE RA
ĠE ins
ĠE NT
ĠE LA
ĠE lymar
ĠE quador
indo ws
Ġamor zinho
ver o
ver de
ver no
sa indo
Ġfil eira
Ġfil tros
ras mo
Com eu
Com partil
Ġela bora
ru guai
Ġtra jeto
Ġtra cinhos
ora r
ac ab
ac har
ac hou
ac abei
Ġmas tur
Ġmas cote
Ġex ten
Ġex tor
Ġex posta
Ġex cur
Ġex pondo
Ġex orci
ico lau
Ġcar is
Ġcar di
Ġcar pete
Ġcar bonara
Ġcar rapa
Ġpar quinho
Ġpar eceu
Ġpar cei
Ġsem ente
Ġsem estre
Ġli bri
ĠÃ³ bito
Se ques
con cel
Ġenten dem
Ġenten dimento
Ġgos te
Ġgos pel
Ġsegu rou
Ġsegu ida
Ġche car
oca usto
ba tida
Ġman cha
Ġman sÃ£o
Ġman gueira
Ġman char
Ġar mar
Ġar tistas
Ġar ruda
Ġhe y
Ġprecis ou
Ġta pas
Ġas trÃ³
Ġch oc
Ġch ances
Ġch ifre
Ġcha cina
Ġcha peuzinho
Ġres ta
Ġmer itÃŃssimo
Ġmer cÃºrio
Ġmer cearia
me xer
Ġdei tar
Ġdei tada
Ġcor e
Ġcor to
Ġcor dÃ£o
Ġcor pos
Ġap p
Ġap Ãª
Ġap osta
Ġap esar
Ġap ocalipse
Ġap lauso
Ġesc and
Ġesc udo
Ġcer eja
tor y
tor nar
Ġti pos
Ġra Ã§Ã£o
Ġra lo
Ġra ba
Ġra zo
Ġra quete
Ġra pidÃ£o
Ġra cioc
zer o
har es
Ġficar ia
ec imento
ec cionista
Ġtr enzinho
Ġtr Ã¡fico
Ġsa grado
Ġsai bam
pera ÃŃ
gra mas
li u
li gou
per sona
per Ã¡i
Ãªn ero
pi pa
pi pi
pi tais
Ġ2 20
tre m
ĠI ra
ĠI uma
ĠI sabel
ĠI saÃŃas
Ġjo inha
Ġjo gada
Ġjo gam
Ġla te
Ġla ma
Ġla pa
Ġla dinho
Ġla gos
Ġla tim
Ġla vando
Ġla tino
Ġon is
Ġtrabal ham
bra dor
ja va
Ġcan il
Ġcan eca
Ġcan tada
Ġvol ante
Ġvol tas
ĠMar quezine
ne a
Ġmo d
Ġmo dinha
Ġmo ther
Ġmo tora
Ġso sse
Ġso pa
Ġso quete
Ġmor ra
Ġmor no
Ġmor deu
Ġmor tes
Ġmor dida
Ġcome ta
Ġcome ter
Ġcome Ã§ado
Ġcome teu
Ġfavor ito
Ġfavor zinho
tr Ã£o
tr umento
bl ante
ge tar
bo x
bo pe
bo leta
SÃ³ crates
Ã¢ neo
Ã¡s cara
ĠU P
ĠU GO
cer n
Ġco bre
Ġco ord
Ġco brando
Ġco varde
Ġco brindo
Ġco erente
gal era
gal hÃ£o
ura da
Ġpass as
tinho s
Quer idÃ£o
tÃ³ ris
No va
No ssas
Ġfica do
Ġmal as
Ġmal har
Ġmal dito
ĠH Ã©lio
ĠH ote
ĠH istÃ³ria
ĠH abib
Ġcam inha
segu rando
Ġba d
Ġba ta
Ġba tu
Ġba tem
Ġba tia
Ġba timento
Ġba zuca
Ġro lo
jo gar
jo gador
Ġfor Ã§ando
Ġfor tun
Ġfor mei
Ġfor mal
Ġim prim
gun da
ig ante
Des ceu
ita is
Ġban didos
tal ho
tal eza
fa Ã§a
fa ce
fa tu
fa das
fa deza
quer er
Ġsim pa
Ġaju de
Ġaju dei
Ġr Ã³
Ġr ende
Ġr endeu
Ġr endimento
ĠÃ¡ ries
ĠÃ¡ gil
res tes
res taurante
Ã³s tata
Ġmar rom
Ġmar mita
Ġpelo tÃ£o
Ġtran co
Ġtran cado
Ġtran cada
Ġdos es
des co
des can
des tru
des cendente
des cobri
Al fa
Al fre
Ġcu ecas
ĠW e
ĠW il
ĠW ol
ĠW ord
ĠW eb
ĠW indows
ĠBrasil eira
Ġconsegu imos
Ġru ssa
Ġru ral
son s
ch i
ch Ã¡
Ġgra mas
Ġgra vidade
ĠPa u
ĠPa dre
ĠPa pel
ĠPa puda
Ġlo ve
Am ei
Am izade
ĠcÃ¡ rie
Ġcons ig
Ġcons iga
Ġbe co
Ġbe xiga
Ġpedi dos
Ã¢n gulo
Ġmil hares
ing er
ing os
ing le
Ġemb u
Ġemb rul
Ġcri an
and inha
and hi
Ġconta va
Pe ssoas
Ġvo y
Ġvo ta
cion almente
Ġresp ostas
Pa z
Pa ul
Pa tr
Pa ssando
Pa ulinho
Ġdu vido
Ġdu zentos
Ġempre gado
vers idade
ad ÃŃssima
ici ar
Ġun ida
Ġun icÃ³rnio
Bo la
ĠCar ro
ĠCar ne
Ġpergun tinha
Ġfi xa
Ġfi tas
Ġfi quem
Ġdeixa va
Ġpu xou
id inha
ĠPe ssoal
ĠPe trobras
Ġpres ti
Ġpres encial
Ġpela dos
pos tos
pos tamente
az ul
Ġven di
Ġven eno
Ġven cedor
Ġentre tenimento
Ġbar ri
Ġab out
Ġab undÃ¢ncia
mos a
Ġrou pÃ£o
Ġrou bada
val or
Ġinter locu
Ġpol trona
Ġpol inÃ©s
Ġsal do
Ġsal inha
ĠÃº tero
ĠÃº mido
RA L
RA DO
be ca
be be
Ġesque tes
Ġfr entista
Ġfr enÃ©
Ġano tei
Ġcabe Ã§as
Ġgal o
Ġgal Ã¡
Ġgal ho
Ġgal inheiro
Ãĥ N
Ãĥ ÃĥO
ĠAl to
ĠAl Ã©m
Ġcal e
Ġcal i
Ġcal mos
Ġcal Ã§ada
cl oroquina
Ġvolta va
dei xo
dei ros
dei xando
dei xou
rei ros
amento s
Ġvia gens
Ġpl ena
Ġpl antas
Ġpl ural
fo sse
fo bia
Ġpos tes
Muito s
ron izar
ÃŃs que
ÃŃs ta
ÃŃs ticas
Ġdiz em
Ġinte gra
ven de
Ġnas cido
Ġnas cendo
Ġnas cem
Ġresol vendo
Ġresol uÃ§Ã£o
ĠK l
ĠK ara
ĠK id
Ġer rar
Ġfu zil
Ġ5 6
Ġ5 7
Ġbon itos
Ġbon itÃ£o
Ġrela Ã§Ãµes
tinha m
Ġ20 32
rim Ã£o
Ġcin emas
ke y
Ġval ia
Ġdem ito
Ġdem orei
Ġdem ocracia
rer ia
ĠEs pÃŃ
ĠEs porte
Ġol im
Ġol heira
ĠNo emia
In ferno
ren ÃŃ
ren Ã§o
ane t
Ġquar enta
Ġquar tel
ĠMas ter
Ġespera m
Ġespera do
ĠDE L
ĠDE LE
Ġaten dendo
Ġmalu qui
Ġmu ch
Ġpi jama
Ã©ri to
Ġcompra do
Mar co
Mar ido
Mar isa
Ġsobre tudo
Ġor el
Ġor gia
Ġins tal
Ġins alu
Ġins ulina
Ġins trumento
Ġcl ube
Ġbol ha
Ġtrans ei
Ġdou tr
Ġcab ras
ĠZ eus
ĠZ ero
ĠZ orra
ĠZ umbi
ĠZ orgue
Ġmos trei
ĠCa t
ĠCa val
ĠCa pric
Ġpes te
Ġpes adÃŃssima
Ġconf lito
cor re
Ġfinal izar
Car linha
Le o
Ġexpl os
Ġexpl ana
Ġatra ir
Ġatra vÃ©s
ensa do
ensa gem
Ġtal o
Ġtal her
DO L
Ġdis cern
ĠJo go
ĠJo vem
ĠRe pÃºblica
ĠLu c
ĠLu cy
ĠLu quinhas
Ġgu aranÃ¡
Fal e
Fal tou
Ġhum ana
Ġliv ra
Ġliv rar
Ġliv rinho
Ġgran ola
Ġencon trando
Ġvacina Ã§Ã£o
ĠAn gra
ĠAn tes
ib ido
Ġpas to
Ġconvers ei
QUE R
Fica va
ee k
Ġesp on
Ġbran quinho
Ġbran quitude
ĠPo xa
ĠPo tira
dro id
run a
Ġ4 6
ĠSu b
ĠSu pla
ĠLe Ã£o
ĠLe gends
Ġlim pando
Ġlim pinho
Ã¢m ila
Con f
Con tra
Con vers
Con ser
Con ceiÃ§Ã£o
ni Ã§Ã£o
Che gar
Ġson hei
Ġson hou
ĠVal quÃŃria
Ġmi ssa
Ġrece pÃ§Ã£o
Ãªm en
Per de
dr inhas
Ġmaravilho sos
Ġmam ada
ER TO
teira s
Faz enda
OR GE
su cedido
cel ino
Ġdorm i
Ġdorm ido
Ġdorm ida
Pre to
Pre ci
Pre feito
Pre parado
ves tido
Ġfeliz es
tan der
tan tos
ham poo
Ġsur ra
Ġsur fa
Ġsur pres
Ġsur gir
Ġchu tando
Ġchu peta
fic am
Ġcora Ã§Ãµes
ĠNa ssif
ĠSe gunda
Ġgol pista
plica tivo
Ġterm inal
Ġped ras
ĠGu guinha
Val do
Val ent
Ġmole tom
Ta dinho
Ġsor ris
Ġri que
cre as
cre ta
cu o
Ġw on
Ġw hen
Ġacor dado
ap Ã³s
ap esar
Ġel x
Ġchega sse
Ġsin ton
Ġsin istro
Fo der
ĠQUE R
Ġci ente
Ġci entista
Ġci Ãºme
Ġtam pinha
ze te
Ġentra m
ĠJu an
Ġcachor ra
can cel
tim amente
Ġeng enharia
Ġha cker
Ġha bilidade
ros elha
usta vÃ£o
ĠRa finha
ĠRa inbow
EM A
Ġamar ro
Ġamar rar
** ?
ĠvÃ¡ cuo
Ġtoma te
man dinho
Ġtrabalha dor
Ca gar
Ca fÃ©
Ca cete
Ca ceta
inta ge
ĠLa goa
Ma tar
Ġcul pado
An derson
An tunes
An uncio
Ġbra vo
Ġbra bo
faz ia
ent Man
Ġtor ne
Ġbri lha
Ġbri gada
Ġbri efing
Ġaz ar
Ġcria mos
hado res
hado wlands
Ġgor ro
Ġlan cei
ĠPode mos
Ġgar garejo
Ġforma Ã§Ã£o
ES US
mi la
Ġfar inha
Ġbal cÃ£o
Ġcho vendo
ĠfÃ¡ brica
ger ir
Ġu rubu
Ġu ÃŃsque
ĠPra Ã§a
ĠPra zer
Ġtraz ia
col oca
col ocou
Ġadi ante
Ġcli entes
Ġsan fona
Ġsan grando
ĠTa inÃ¡
Ġarma dos
Ġpior ou
Ġpior es
Ġsus hi
OS TA
Ra y
ĠCara ÃŃva
ĠJul iÃ£o
Ġguar danapo
ĠEn tre
Ġpei da
Ġpei dando
ĠAr mandinho
Ġmenti u
Ġgaro tos
iado ra
iado res
AN H
AN HA
AN DRO
Ġbu c
Ġbu quÃª
Ġsabem os
Ġsof ri
Ġsof rÃªncia
Jo guei
Ġdom Ã©s
Ġpan das
Ġpan tur
Ġpan deiro
Ġespos o
Ã³r ico
Ġsex y
Ġjornal ista
Ar te
Da quele
if Ã³rn
if fan
Ġves tindo
Ġves tida
Ġves ÃŃcula
Vi emos
Ġpensa va
Ġtre ina
Ġtre vas
Ġtre inei
Ġrespon do
ex clus
Ġfuncion ou
Ġfuncion am
Ġfuncion Ã¡rios
20 20
Ġfer ver
Ġgas to
Ġgas tou
Ġalmo Ã§ando
Ġalmo xarifado
chu ca
chu pando
pai o
Ġaf irma
Ġaf ric
Ġcos pe
Ġcos tela
Ġcru ci
Ġcru za
Ġcru zada
ĠDu da
ĠDu bai
ĠBar celona
vez es
Aquele s
Ex elente
nas ceu
nas cido
Ġsum ida
Ġfe tal
Ġprodu tora
OL HA
.... ..
Ġestre ssar
abri u
Ġinc Ã³
Ġinc rÃŃveis
Ġinc entivo
Cha mando
Ġabra Ã§ando
Ġestu dando
Ġestu dou
ĠCon tou
ĠCon segu
Ġcarre gada
Ġy o
aio la
ĠTo dos
Ġcorre dor
Ġ201 0
Ġ201 3
Ġ201 4
Sa indo
dri dÃ£o
aquele s
tin Ãªncia
Ġbl us
Ġsorte io
gab undo
pel as
Ġcris tÃ£o
Ġshow s
Ġestra gando
ĠSil ÃŃcio
ĠSil Ãªncio
Fa Ã§a
Ġpreocu paÃ§Ã£o
Ġdesli gado
Ġdesli gou
Ġnegoc iaÃ§Ã£o
ay ne
Ġescri tura
Ġsozinho s
Ġcomple xo
Ġauto ma
Ġauto ral
Ġenc ima
Ġenc aixou
Ġpal mas
Ġcra que
Ġquen ga
Ġquen tes
Ġcomb inar
Ġcomb inei
Ġprepara dos
Ġpromo vido
Ġref u
Ġpeque nos
IC AR
Ġ9 9
ĠpÃ¡ ssaro
Ġaplica tivos
Cer tinho
Lu ana
Lu cy
Ġvaz ou
Ġvaz ando
Ġvaz amento
Ġbala da
Ġlin das
Ġlin guiÃ§a
ĠES SE
Men ino
dica da
Ãĩ ANHA
ĠlÃŃ rio
Ġsepara do
Ġja to
Ġja tinho
Ġaper tei
Ġis olar
AS E
rÃ³ ria
Ġfra co
Ġfra ud
Ġfra ude
ĠCl oroquina
Ġprefer ido
Ġverm elhas
pon ÃŃvel
Ġur na
Ġur gÃªncia
Ġpel udo
Ġcre do
ĠCor sa
ĠJe an
ĠJe ssica
ĠJe ferson
ĠEx celente
Ġpartici po
Ġza gueiro
Ġza gueiros
Ġgen gi
Ġmete or
ĠSai u
Ġinves tir
Ġanda m
Ġrem Ã©dios
ĠSem pre
Ġgro sser
Ġhos pe
ĠQu ar
ĠQu atro
ĠQu into
ĠQu eiroz
Ġconcor rÃªncia
Ã´m ito
Ġher pes
Cor ona
Ġid Ãªn
Ġtur nÃª
Ġinv oco
Ġinfer nal
come Ã§aram
Ġcole Ã§Ã£o
AM O
Ġvar ia
Ġvar rer
Ġanti gos
Ġanti gas
Ġ200 7
Ġadora va
Ġps iquia
Ġcura r
Ġtro quei
Ġescon dendo
ĠMer e
ĠMer da
ĠFab ricio
Ġarran hada
Cai pirinha
Ne ga
Ne gÃ£o
pul so
Ġdan Ã§ando
Ġcou rse
Ġencos tando
Ġconfi ante
Ġcamis as
Ġconfun diu
bom ba
tch en
ĠDi fÃŃcil
ĠTh anos
Ġdesem bar
Papai zinho
Ġencontra m
Ġaprovei tando
Ġsimples mente
espera r
ĠCha pÃ©u
ĠSer ve
aaaa a
aaaa h
OO OOO
Ġfura r
Ġbor da
Ġbor ri
Ġbor dÃ£o
Ġbor boleta
Ġcontro lar
Ġcontro lado
Ġprome te
Ġcruz ando
Ġcomi tiva
ĠCan cÃºn
Ġchin eses
ks hop
Ġras pa
Ġras tejando
Ġchor ei
dire ito
dire tamente
Ġperig os
Ġperig osa
rup ting
Ġmoto boy
Ġelei tor
TI ZAR
au to
au tor
quen tar
Ġsac olÃ©
Ġdevol vo
ans Ã£
ĠCOM O
Ġprote Ã§Ã£o
Ġprote gido
Ġescra vizar
Ġidenti fica
vÃŃ deo
Ġcen oura
ins talar
Ġcompartil ham
Ġjul ga
Ġjul gando
Ġemo ji
amba ia
ĠNO VO
Ġrom per
SE GU
Ver de
cri tÃ³rio
Ġmol hando
Ġthe y
Ġens inou
Ġprobl em
ciar ias
ĠCristo vÃ£o
cab elo
fiz eram
lis t
pren der
Ġapo ia
ĠvÃ´ o
Ġfl an
Ġfl erte
haha haha
Ġreconhe cimento
Ġmassa ge
Ġvizinho s
Ġimpre ssora
Ġorgan ismo
Ġorgan izar
Ġguarda da
Ġden tal
Ġpla ce
Ġplay list
Ġmus go
Ġlen Ã§ol
ĠFal ta
ĠFal cÃ£o
Ġcancel ou
Cl ara
Cl eide
bil izar
gro und
Ġpen al
Ġopera dora
Ġseques trou
ĠSen ador
ĠSan sÃ£o
ĠSan galo
ĠBel ina
Ġperf eccionista
Ġnecess idades
ĠGa tes
ĠEd gar
ĠEd mar
ĠEd milson
Ġescu to
Ġregis trou
ban g
ban co
Ġpica do
Ġbac anal
Ġenro lado
ĠMÃ© ier
Ġindi gente
ĠTe ve
ĠBra ganÃ§a
ĠGra cie
Ġcoach ing
Ġabor tar
Ġsobrevi ver
UN DA
Ġevi ta
ĠdÃŃ z
Ġpeda cinho
ĠOu tra
ĠOu tono
ĠRes ol
ĠFrei tas
Ġsatis feita
Ġfigura Ã§Ã£o
Ġgarra fas
Ġconceito s
TR ÃĥO
cra ft
his tÃ³ria
ĠPal io
ĠAs hley
trabal ha
trabal hando
ĠBon ito
ĠLin eu
Ġarruma do
ĠAndre ia
Ġkit net
Ġemocion ante
bon ito
ginal s
Ġpic les
Ġpic olÃ©
ĠClau dia
ĠMor ri
Ġdescar re
Ġadm ito
Fab ricio
On lyFans
Sal ve
Ter Ã§a
vin das
ĠclÃ¡ ssica
Ġest icar
Ġgig antes
Ġporteiro s
ĠAM OR
ĠAli Ã¡s
ĠBen ÃŃcio
ĠOr kut
ĠRom Ã¡rio
ĠRom ero
Ġante ci
consegu indo
Ġapos tou
Ġapos entado
ĠWal king
ĠAmor im
Ġjusti fica
Corre to
Dei x
UM E
jei ras
rome dÃ¡rio
Ġape guei
Ġaba cate
Ġfol has
Ġobri gar
Ġconven ce
ĠAL TO
ĠThe o
Ġsabor es
ĠVol tamos
ĠNas cimento
Ġgostos Ã£o
ĠHa vai
Ġhomo fÃ³b
Ġperceber em
Ġinvesti gaÃ§Ã£o
Be be
gor da
rr r
Ġdevagar inho
our met
Ġgera r
ĠCla Ãºdio
Ġdiri gindo
ĠGreg orio
pare cia
Ġpubl ica
Ġpubl icidade
ĠTati ana
Cu rou
Pl an
Ġvin gar
Ġsuger e
ĠprÃ© dios
cons ul
Ġadolesc entes
Ġtalento so
barulho s
Ġcost um
Chu va
Chu pa
Ġdesenvol vimento
Ġpossibilidade s
gri tos
Ġaum entou
Ġfes tas
Ġber Ã§o
Ġenter rado
Ġench i
ĠCol oca
ĠPA U
ĠPA TRÃĥO
ĠDom ingo
ĠTO DAS
Ġsens ÃŃvel
ĠVen eza
precis ando
ĠEli ana
Ġexplo de
Ġfamiliar izado
Ġhumil dade
Ġexag erado
Ġpatroc ÃŃnio
Ġpatroc inado
Ġpatroc inador
Ban dido
Ban heiro
COM O
Ga to
Ga ta
Pi rou
Ris ada
Ġcis terna
Ġcompor tamento
ĠAb dul
ĠMel lo
ĠBu eno
ĠRI TA
Ġans ioso
Ġexer cer
Ġextra to
Ġescor rer
Ġimun idade
Ġpresta tivo
ĠLuci ene
Continu ando
Ġinfec to
*** ,
FÃ¡ cil
Or lando
Ti rei
br ulha
fas a
Ġaqu Ã¡rio
Ġadap tar
Ġedi fÃŃcio
Ġcoi tada
Ġacum ulado
Ġje ans
Ġjapon esa
ĠCal ifÃ³rn
ĠCome Ã§ou
ĠCome dy
Ġind Ãºstria
Ġinim igo
Ġpresid Ãªncia
Ġclara mente
Ġmexic anos
ĠDESC ER
ĠDESC ENDO
vira r
Ãļ S
Ġran cor
ĠCi elo
ĠSE GU
ĠSal gueiro
ĠSam paio
Ġami guinho
Ġinten so
Ġbole tos
ĠGos tei
Ġconside rado
Ġcabel udo
Ġdisfar Ã§ar
Ġsusp eito
Ġsusp ende
Ġapresenta dor
Jun ta
Lou co
PR OCURA
iv amente
Ġafe tiva
Ġdeco rativa
rela xa
ÃŃa ca
Ġacusa Ã§Ãµes
ĠCA F
ĠCre am
ĠPei da
ĠSEM PRE
Ġino vaÃ§Ã£o
ĠVo ice
Ġdesper tador
acha Ã§a
Ġexpul sou
convers ando
ĠIta Ãº
ĠIta ipava
Ġimpe de
Ġdeprim ente
Ġdeprim ida
Sobre vi
Ġacostuma da
Ġgrampe ado
Ġgrampe ador
Ġapaixon ei
Ġapaixon ado
ĠÃ¡rvor es
BL EMA
For ma
PO OL
lv aro
ĠdÃ© cada
Ġenf ren
Ġenf iada
Ġretor no
ĠPR ESERVATIVO
ĠMara dona
Ġeletr Ã´nica
Ġameric ana
trans ando
Ġassus tar
ĠOL X
ĠOn tem
ĠOn lyFans
ĠOx alÃ¡
Ġcarb ono
Ġcarb oidrato
ĠMaca Ã©
ĠMaca cu
ĠAlem Ã£o
Ġdivul gar
Abra Ã§a
Cel sinho
Cur tir
Va gabundo
Ġcenta vo
ĠmÃºs culo
ĠsÃŃn dico
Ġfaro finha
Ġgam er
Ġgam es
Ġigu aria
Ġilim itada
ĠlÃº dico
ĠlÃº pulo
Ġenfer ru
Ġensai ando
ĠCur y
ĠCAN CEL
ĠPAR E
ĠMora es
Ġmec Ã¢nica
ĠBru ce
ĠRib eirÃ£o
Ġdespe dida
Ġexclus ivo
Ġexpecta tivas
Ġaparelho s
Ġguer reiro
Ġinflu encer
Precis amos
Ġsobreviv ente
Ġsobreviv Ãªncia
Doc umentÃ¡rio
Er rou
Son ia
Un dererÃª
bur go
pic repe
rs rs
Ġfla uta
alal alal
Ġtic ket
Ġgui tarra
Ġigno rante
Ġjar dim
Ġconfor to
ĠCle binho
Ġfof oca
ĠSER GIO
ĠTele gram
ĠRoc ha
Ġdesma tar
Ġbote co
Ġrab is
ĠÃį n
ĠÃį ndio
Ġusu Ã¡rio
ĠMateus inho
Ġdistra i
Ġmama deira
Ġsurpre ender
Ġ150 9
Ġ198 0
Dis far
Fran camente
Mando u
Mach ucou
Pr ocu
RÃ¡ pido
Term inou
namora do
Ġaven tura
Ġsam ambaia
Ġfonte s
ĠtÃ³ xico
Ġgif s
lec tual
Ġempur rar
ĠPÃ¡ tria
Ġsentimento s
Ġpersegu iÃ§Ã£o
Ġexcel Ãªncia
Ġarris cado
Ġcervej eiro
Entende ram
Ġwor kshop
Ġprior idades
Ġalea tÃ³rio
Dire tor
Ġselva gem
Ġindep endente
Ġexecu tivo
Bene vides
Cla udio
Fre e
Ten ente
TchÃª re
VAM O
VAM OS
Ġpoc hete
Ġpene trar
Ġdecor ou
Ġesbar rei
escol her
Quei mou
Ġjac arÃ©
Ġconse quÃªncias
ĠCra cker
ĠCARA LHO
ĠAdo rei
ĠDU DA
ĠDer by
ĠTran s
Ġproje tos
ĠcaÃ§a dor
Ġhipo po
ĠNes cau
ĠGre tchen
Ġexpre ssar
ĠIP VA
ĠHo t
Ġempreende dorismo
Ġclim inha
Ġtransmi ssÃ£o
Ġpesa delo
Cons igo
Ġinform Ã¡tica
Ġcruel dade
Ġabsoluta mente
Ġpequen ininho
Ġflora l
Ġconstrange dor
ĠPREC ISA
Bloque ou
Coca ÃŃna
Jus tamente
Lui gi
Mer itÃŃssimo
gy pti
goc inho
Ġara ra
Ġaus ente
Ġeven tual
ĠevangÃ© lico
Ġpisto la
Ġcele bridade
informa Ã§Ã£o
Ġfen Ã´meno
ĠtÃºn el
rol do
Ġnovel as
Ġenga jamento
Ġpedia tra
ĠCross Fit
ĠSi ri
ĠSk ol
ĠSora ia
tralha dora
Ġinvas Ã£o
Estre sse
ĠTRA BALHO
ĠalÃ©r gica
ĠJer usalÃ©m
ĠRap pi
Ġdestra va
ĠLaran jeiras
ĠGis ela
ĠEr melinda
Ġtij olo
Ġcop eiro
Ġrin ite
Ġdub lado
ĠMau Ã¡
Ġfunk eiro
Ġrecu perar
Ġinsu portÃ¡vel
Ġtransform ou
ĠLeon ardo
sussur rando
Ġengor dar
Ġaprendiz ado
Imag ino
Ġcusp indo
Ġesfrega dinha
Ġtelespec tadores
Ka tia
Zo io
Ġdil Ãºvio
Ġpil ares
Ġni tidamente
Ġsand Ã¡lia
Ġvomi tou
Ġfon due
Ġfab rica
Ġfras es
Ġox ig
ĠtÃŃm ido
Ġesvaz iar
Ġgab inete
Ġpran cha
Ġportugu eses
abu ticaba
Ġretro visor
ĠCE O
ĠCÃ¡ ssia
ĠClu be
ĠMD F
ĠSec reto
ĠSula cap
Ġindire ta
ĠVas concel
ĠFil tro
ĠGaro tinho
Complica do
Ġexpan sÃ£o
Ġparticular mente
Ġmanu tenÃ§Ã£o
Ġardil oso
Ġescan gal
ĠÃĤn gela
ĠIr Ã£
necess Ã¡rio
ĠHit ler
ĠEscor piÃ£o
Ġbrinque do
ĠmuÃ§ul manos
Ġdistrib uir
ĠGuar ulhos
Ġtroux eram
Ġadian tando
calho na
Ġpsico pata
Liber dade
Ġmaracu jÃ¡
Ġpsicol Ã³gica
ĠASS IM
Ġenvergon hado
Caro laynny
CARA LHO
acompan har
base ado
iqu Ã©r
nÃºm ero
obs er
Ġagon ia
Ġating iu
Ġeg ÃŃp
ĠcÃ´ mo
Ġmicar eta
Ġmone y
Ġsmart phone
Ġoita vo
ĠbÃŃ bl
Ġgi rando
Ġdol eiro
Ġjale co
Ġembal ar
ĠPromo Ã§Ã£o
ĠDor flex
ĠmedÃŃ ocre
ĠSher lock
ĠStron da
Ġdid n
ĠdiÃ¡ logo
Ġina ugu
ĠTham iris
ĠBRA SIL
Ġpregui Ã§oso
ĠOri ginals
ĠFeli ppo
Ġantic or
Ġdesfi le
Ġcaia que
Ġbobe ar
ĠGan cho
ĠGRAN DE
igof renÃŃ
Ġexce Ã§Ã£o
vie w
dorm indo
Ġpassiv ona
Ġbat man
Ġimedia tamente
Ġsalsic ha
Ġgafanho to
ĠEscar late
Ġinsinu ando
Ġchuvei rinho
Ġbeij inhos
Ġferram enta
Ġafun dar
Ġafli Ã§Ã£o
Ġrefrige rante
Assal to
ĠCONS IGO
tupir y
PÃ©ss imo
ĠHeal th
Ġenferm eiro
Ġenxagu ante
Ġespiri tual
ĠMALUC O
Aque cimento
Assa ss
Hom ens
Mes ma
Net flix
Pan tanal
Play boy
Sun cÃª
Sat is
atr inho
kem on
lanti dense
nali tÃ©
Ġdeno vo
ĠpÃ¢n creas
Ġsco oter
ĠfÃ³r mula
aldi Ã§o
Ġtabe la
Ġgrando na
Ġfaxin eira
Ġenvel he
ĠconvÃŃ vio
Ġreme dinho
ĠCec ÃŃlia
Ġmadu ro
ĠPinta dinha
ĠPES SO
ĠDIN HEIRO
ĠSira cusa
ĠSele Ã§Ã£o
Ġpavil hÃ£o
ĠTrinta porcento
ĠBec ker
ĠJano t
ĠFlÃ¡ via
ĠangÃºs tia
ĠGrin dr
ĠEver est
ĠEins tein
Ġexcur sÃ£o
Ġparcei rÃ£o
Ġlibri ano
Ġrazo Ã¡vel
Ġ220 8
Ġcoord enaÃ§Ã£o
ĠHote is
Ġfortun a
Ġpantur rilha
iffan y
Ġfraud ul
Ġpsiquia tra
ĠCalifÃ³rn ia
ĠTrintaporcento lÃ¢ndia
! -
! ...
" âĢĶ
# .
# %$
$ $
% ?
* -
. ,
2 2
3 4
3 8
4 9
5 5
6 6
6 8
6 00
7 5
7 7
8 0
8 6
? ,
A v
A um
A re
A ri
A ir
A ba
A ju
A ula
A vis
A dem
A HH
A posto
A eroporto
A uto
A FO
A pareceu
B F
B l
B u
B ra
B er
B is
B ur
B ura
B rin
B reno
B UM
B orra
B lack
B ecause
B ERTO
C le
C us
C hor
C ana
C Ãªs
C abe
C ura
C entro
C ap
C aso
C lau
C Ã©lio
C AM
C AB
C entral
C PF
C ENDO
C riado
C aneta
C abeÃ§a
C harles
C OSTA
C achaÃ§a
D R
D Ã£o
D or
D ando
D inheiro
D anÃ§a
D eita
D ani
D AR
D eram
D urante
D orme
D roga
E d
E ai
E ma
E varisto
F as
F is
F ina
F eito
F aro
F ing
F ani
F ON
F omos
G oi
G anha
G OU
G ame
G ordo
H an
H OS
H ipo
H UM
H eim
H ouse
H omossexual
I P
I T
I no
I hh
I ii
I DA
I nsta
I iiii
I lim
I ÃĩÃĥO
I emanjÃ¡
J onas
J usto
J amais
J ANDO
J eo
J abor
J umanji
K ara
K leber
K irk
K umbaya
L amb
L AR
L Ã©o
L HE
L eite
M y
M os
M am
M ira
M ac
M onte
M ad
M inhas
M oro
M AR
M EU
M uda
M udou
M BA
M inistÃ©rio
M Ã¡scara
M ÃļS
N S
N ice
N TE
N ormalmente
N amora
O f
O lh
O liveira
O lhar
O pÃ§Ã£o
O PERA
P V
P Ã£o
P as
P is
P ab
P un
P alha
P osta
P rÃ³
P ombo
P Ã¢mela
P siu
R G
R om
R on
R ei
R ala
R ela
R ap
R osa
R TO
R UTA
S D
S i
S ar
S he
S endo
S oca
S anto
S anta
S ER
S ES
S elma
S orte
S umiu
S CRE
S tation
S Ã¢mila
T or
T im
T ru
T ac
T ele
T anta
T aÃŃ
T rar
T rem
T erra
T roc
T enha
T rump
T arde
T roca
T CHA
T igre
U R
U ou
U ga
U fa
U sem
U EI
V os
V inho
V Ã´
V Ã³s
V az
V ER
V ontade
V AR
V IN
V IS
V iado
V OL
V irgem
V arginha
W ell
W hey
W ow
W orld
X O
X iu
X videos
Y Y
Z ona
Z ap
Z aqueu
a ta
a ha
a go
a ca
a ve
a der
a tor
a gem
a per
a ula
a vis
a parecer
a partamento
a vier
b n
b um
b Ãª
b ÃŃ
b im
b ab
b ir
b ru
b oca
b ele
b ita
b it
b aram
b udo
b ron
b aix
b Ãªbado
b inada
c r
c s
c Ã©
c to
c ci
c ana
c enÃ§a
c elular
c inas
c aixa
c abeÃ§a
c oisas
c ronizar
d ens
d ge
d enta
d ÃŃvel
d alha
d Ã³i
d Ã´nia
d inei
d Ãªncias
d Ã´men
f um
f ri
f ol
f ina
f era
f oca
f ens
f esta
f lu
f amÃŃlia
f inge
f rango
f Ã³ricos
g is
g ara
g Ã³
g ran
g ru
g ge
g ame
g eno
h u
h eu
h na
h ena
h eme
h back
i ei
i ente
i qui
i tou
i bal
i tor
i tas
i tir
i teiro
i ros
i osa
i tÃ¡ria
i deiro
i velmente
j ora
j aram
j eitar
k Ãª
k ia
k our
k len
k umbaya
l f
l l
l ic
l ora
l Ãªs
l icas
l bum
m Ã³
m ico
m ur
m enti
m eli
m udou
m amÃ£e
m entaÃ§Ã£o
m ÃŃdia
m eza
m usica
n t
n ol
n ter
n idade
n ite
n isso
n ormal
n culo
n aldo
n abel
o perar
p un
p ala
p ante
p tica
p onde
p rica
p lex
p rincipalmente
r Ãª
r ento
r imo
r inhos
r Ã³i
s or
s ia
s il
s how
s aio
s pla
t z
t ui
t ano
t anta
t ton
t ham
t Ãªnis
t Ã¢nica
t nite
u Ã£
u um
u cia
u za
u jo
u ÃŃdo
u hn
u gh
v d
v ul
v eito
v enta
v aram
v amente
v oce
v antar
v uca
w i
w ar
w ei
w ic
w ell
w atch
x u
x ic
x ica
x ambu
x ilar
y o
y s
y on
y la
y ing
y enny
z Ã¡
z ou
z Ãµes
Â ¨
Â ¿
Ã ±
Ã Ĥ
Ê ĸ
Ġ ;
Ġ Ã£
Ġ Ã¡s
Ġ uro
Ġ ****
qu ara
qu ÃŃn
qu inas
qu antas
Ġa Ã©
Ġa er
Ġa de
Ġa vel
Ġa jo
Ġa fi
Ġa xi
Ġa pela
Ġa Ã§ou
Ġa teus
ra ta
ra tern
Ġe qu
Ġe pa
Ġe fe
Ġe ee
Ġe dre
Ġe cs
Ġd re
Ġd un
Ġd erra
Ġd anos
Ġd rive
Ġd endÃª
Ġd romedÃ¡rio
Ġp am
Ġp us
Ġp ico
Ġp ne
Ġp alma
Ġp it
Ġp imenta
Ġp ocotÃ³
Ġc ÃŃ
Ġc ento
Ġc rin
Ġc ron
Ġc rem
que l
que bra
que brar
te c
te rado
Ġn Ã³
Ġn oca
Ġn Âº
Ġm Ã£
Ġm Ã´
Ġm ico
Ġm uta
Ġm oca
Ġm isto
Ġm ons
Ġm ono
Ġm ini
Ġm ichel
Ġm amba
Ġm ouse
Ġm iojo
Ġm ight
Ġm Ã©rito
do enÃ§a
Ã© gios
Ġs ara
Ġs ir
Ġs igo
Ġs lo
Ġs anto
Ġs til
Ġs now
Ġs peak
Ġs pray
Ġs hampoo
Ġv il
Ġv ul
Ġv ocal
Ġv icia
Ġv log
Ġv ocaÃ§Ã£o
Ġv inagre
Ġv Ã´mito
ar Ã£o
ar ran
ar ela
ar th
ar rÃ©
ar iante
en ar
en ga
en di
en pe
en ci
en dar
en ne
en tas
en tante
en cos
en cara
en izar
en fia
en cinha
.. ,
ss al
ss eira
ss ura
ss enta
ss uro
ss Ã©s
Ġque brei
in Ã©
in oc
in es
in am
in tes
in ing
in oso
in zÃ£o
in felizmente
Ã¡ l
Ã¡ cia
Ã¡ lcool
or e
or i
er cÃŃcio
er cing
Ġf enda
Ġf Ãªme
Ġf ocada
Ġde da
Ġde va
Ġde dÃ£o
Ġde trÃ¡s
Ġde ck
Ġde vido
Ġde creto
Ġde dicar
Ġde clara
Ġde gus
to ca
to mou
to grÃ¡
Ġo c
Ġo w
Ġo le
Ġo ci
Ġo pre
Ġo li
Ġo ral
Ġo posto
Ġo usado
Ġo bede
an ga
an cia
an das
an ne
an cer
an tia
an Ã§ar
an gÃ£o
an acan
om bi
om ide
um ar
al f
al que
al eto
Ġt w
Ġt Ãª
Ġt ara
Ġt rio
Ġt Ãºm
Ġt antos
Ġt witter
oc Ã©
oc as
oc ha
oc ca
oc ante
oc ida
oc aba
oc entes
oc ivo
oc ruz
ĠÃ© ramos
is ado
re b
re u
re z
re as
re un
re tra
re oi
re ito
re cu
re pente
da Ã§o
da mente
da dos
ro gaÃ§Ã£o
ta c
ta mo
ta me
ta forma
ta gon
ta cular
de a
de on
de ma
de vem
de pressÃ£o
de raÃ§Ã£o
de vagar
de lidade
de irÃ£o
de veria
... ,
... ".
ha el
ha co
ha aa
ocÃª n
em bar
em pres
em bleia
on ÃŃ
on ial
on hada
on ese
Ġte tra
Ġte ile
Ġte quila
Ġte atrinho
Ġb um
Ġb el
Ġb li
Ġb Ã´n
Ġb lor
Ġb rus
Ġb lau
Ġb rÃ³
Ġb isco
ei l
ei rinha
ei jado
os as
os pital
Ġes ma
Ġes cul
Ġes tante
Ġes tÃ³ria
Ġes tudo
Ġes tende
ou sse
Ġg es
Ġg iz
Ġg ema
Ġg reg
Ġg aiola
ÃŃ z
ÃŃ con
ÃŃ per
ÃŃ dos
ÃŃ ris
ÃŃ tica
ÃŃ deos
ÃŃ vea
ÃŃ ssimos
ÃŃ fen
ia o
ia dinha
ia bÃ¡
Ġeu tanÃ¡s
Ġeu fÃ³ricos
sso l
le to
le la
le Ã§Ã£o
le zinho
ente cos
qui ar
qui car
qui lidade
qui daÃ§Ã£o
ai on
im por
im ado
im ber
im Ã´nia
im portante
Ġcom parando
ic Ã£o
ic Ã§Ã£o
ic ÃŃdio
Ã§ e
la h
la var
la dimir
es o
es tra
es co
es tas
es tru
es tina
es lei
es tive
es conde
Ã³ n
Ã³ pia
Ã³ gicos
am en
am par
Ġi da
Ġi tem
Ġi dio
Ġi Pa
Ġi gre
Ġi lu
Ġi remos
Ġi lÃŃ
Ġi diom
Ġl oc
Ġl as
Ġl ona
Ġl enta
Ġl ocu
Ãī Ã©Ã©
Ãī DIO
ri Ã£o
ri ando
ri lo
Ġno tei
Ġdo eu
Ġdo es
Ġdo ando
go dÃ£o
el d
el x
el Ã£o
el Ã©
el ar
el ol
el har
el ancer
tÃ¡ xi
tÃ¡ logo
gu es
gu ento
gu aba
gu istÃ£o
Ġpra ta
Ġpra tica
Ġpra tic
il i
il da
il os
il ou
il inha
il eia
il has
il sinho
il hena
Ġpor re
Ġpor Ã§Ã£o
Ġuma zinha
Ġtem pos
ab ando
ol do
ol ando
ol anda
Ġna to
Ġna tivo
Ġna dando
Ġna zista
Ġda deira
Ġda vam
Ġfa cial
Ġfa cÃ£o
Ġfa xina
Ġfal as
Ġfal ante
Ġfal tava
Ġse e
Ġse da
Ġse ta
Ġse quer
Ġse parou
Ġse ssÃµes
un der
un dererÃª
un ami
un ning
Ġen xo
Ġen for
Ġen rus
Ġen rique
Ġen comen
Ġen divi
Ġen quad
Ġen tope
Ġac ol
Ġac res
Ġac ons
Ġac ende
Ġac esa
Ġac ampar
Ġj Ãº
Ġj ump
Ġj abuticaba
ga va
ga zine
ul k
ul t
Ġcon ten
Ġcon ver
Ġcon cer
Ġcon cha
Ġcon ch
Ġcon cl
Ġcon tente
Ġcon jun
Ġcon osco
Ġre is
Ġre ia
Ġre gu
Ġre vi
Ġre fer
Ġre vol
Ġre vez
Ġre tira
Ġre fere
Ġre gula
Ġre gur
Ġre cadinho
Ġre encar
Ġre comeÃ§ar
Ġre capi
Ġpe Ã§as
Ġpe rante
Ġpe tista
Ġpe pino
Ġpe dofilia
Ġpe jora
di es
di dade
di ram
di Ã¡rio
di via
di ocese
di ondo
Ġem a
Ġem p
Ġem ergÃªncia
ĠC S
ĠC hor
ĠC ora
ĠC ana
ĠC entro
ĠC az
ĠC Ãģ
ĠC ib
ĠC HA
ĠC lica
ĠC lÃ³
ĠC inco
ĠC AB
ĠC AC
ĠC eda
ĠC PM
ĠC ezar
ĠC abeÃ§a
ĠC ambo
ĠC harles
ĠC UME
ui do
ui tton
Ġma go
Ġma Ã§a
Ġma tam
Ġma quina
Ġma cete
Ġma quete
Ġma cro
Ġma tter
Ġma king
Ġma xilar
Ġma quiar
ĠP D
ĠP J
ĠP on
ĠP Ãī
ĠP ez
ĠP eito
ĠP it
ĠP rem
ĠP AL
ĠP OU
ĠP ene
ĠP AI
ĠP Ãºbl
ĠP astor
ĠP enha
ĠP siu
ĠestÃ¡ s
ĠestÃ¡ dio
ĠestÃ¡ gio
Ġqu Ã£o
Ġqu antia
he za
ma das
ma deira
va c
va gab
va dÃŃssimo
ĠA p
ĠA u
ĠA ta
ĠA ri
ĠA gos
ĠA conte
ĠA ranha
ĠA quelas
ĠA pare
ĠA uto
ĠA zul
ĠA aaah
ĠA VC
ĠA corda
ĠA ristides
ĠA roldo
ĠM y
ĠM un
ĠM elo
ĠM ur
ĠM uita
ĠM Ãºsica
ĠM eli
ĠM ene
ĠM EI
ĠM ell
ĠM oura
ĠM entira
ĠM ut
ĠM IM
ĠM alhaÃ§Ã£o
ĠM usica
ĠM ocotÃ³
ĠM ST
ĠM UI
ĠtÃ¡ tica
ĠD J
ĠD em
ĠD on
ĠD inho
ĠD iga
ĠD ani
ĠD IS
ĠD Ã³ria
ĠD IGO
ĠD ores
ĠD Ã©cio
ĠD ALE
ĠD umon
Ġme xo
Ġme tida
Ġme lado
Ġme ant
Ġme dal
Ġfo guinho
Ġfo fu
Ġfo gueira
Ġfaz e
Ġfaz en
Ġfaz emos
Ġto s
Ġto y
Ġto me
Ġto par
Ġto pando
Ġto pou
Ġto pava
Ġto nto
pa sso
pa po
pa gando
pa tite
ti ro
ti es
ti di
ti Ã§o
ti plica
ti zando
ti veiro
ti Ã³pia
ĠS ar
ĠS in
ĠS Ã¡
ĠS el
ĠS tre
ĠS ch
ĠS OC
ĠS EI
ĠS ique
ĠS IM
ĠS mil
ĠS elva
endo c
Ġele g
us ou
Ġam bas
Ġam pu
Ġam onto
Ġam aldiÃ§o
tra ram
io tta
Ġdi sser
Ġdi ocese
Ġdi aleto
Ġpo tes
Ġpo eta
Ġpo popo
Ġpo kemon
Ġcara vana
ica te
Ġpa to
Ġpa tro
Ġpa pada
Ġpa use
Ġpa drinho
Ġpa jÃ©
Ġpa Ã§oca
Ġtu ris
Ġtu fo
Ġtu bar
Ġin j
Ġin tra
Ġin co
Ġin je
Ġin au
Ġin icio
Ġin gÃªn
Ġin vej
Es p
Es tar
Es quer
Es cu
Es tende
Es perando
Es conde
Es creve
ĠT r
ĠT s
ĠT en
ĠT an
ĠT ro
ĠT am
ĠT ri
ĠT ina
ĠT ite
ĠT EN
ĠT EU
ĠT OM
ĠT olo
ĠT AM
ĠT ananÃ£
ĠT inhoso
ĠT iffany
ca ta
ca Ã§a
ca ju
ca chor
Ġsen tou
Ġsen ado
Ġvi vi
Ġvi talÃŃcio
Ġvi zinh
Ã§a o
co Ã³
co ras
co alha
co raÃ§Ã£o
Ġal l
Ġal guem
Ġal eijado
Ġal coÃ³
ĠlÃ¡ pis
ĠB N
ĠB is
ĠB ul
ĠB amb
ĠB ala
ĠB ur
ĠB aÃŃ
ĠB AL
ĠB IC
ĠB ull
ĠB AT
ĠB rincadeira
ĠB ecause
ĠB AFO
ran da
po la
po pÃ³
po pular
Ġpre ci
Ġpre ver
Ġpre tos
Ġpre ven
Ġpre tendo
Ġpre cip
Ġpre tensÃ£o
Ġpre encher
mo Ã§o
mo tor
mo rando
mo rar
ve do
ve teria
ĠsÃ³ dio
En con
En ton
En ergia
En contra
En terra
En colhe
pe Ã§o
pe gou
Por Ã©m
Por tuguÃªs
Por nÃ´
com prei
com entando
com emora
com emorando
Ġass ar
Ġass inando
Ġpara b
Ġpara dinha
Ġpara fina
Ġpara lela
Ġcois inhas
Ġpro pos
Ġpro gre
Ġpro lon
Ġpro jeÃ§Ã£o
Ġpro vidÃªncia
Ġpro tocol
ten sa
Ġsu ando
Ġsu gar
Ġsu pl
Ġsu deste
Ġsu posta
Ġsu peraÃ§Ã£o
Ġsu postamente
Ġver ÃŃ
Ġver ga
ĠJ ana
ĠJ AN
ĠJ ESUS
gar es
gar gal
Ġmes Ã£o
Ġmes inha
pra to
ĠO H
ĠO din
ĠO lavo
ĠO restes
ĠO pala
ĠR A
ĠR O
ĠR U
ĠR os
ĠR ela
ĠR ece
ĠR OL
ĠR aio
ĠR EE
ĠR ELA
ĠV A
ĠV Ã£o
ĠV endo
ĠV io
ĠV AR
ĠV IA
ĠV EM
ĠV arginha
ĠV AMO
ĠV uitton
ci pl
ci des
por quÃª
por nÃ´
por cionalmente
Ġser vo
Ġser inga
Ãº va
ĠF in
ĠF iz
ĠF ora
ĠF ez
ĠF aro
ĠF iu
ĠF res
ĠF inal
ĠF lu
ĠF ini
ĠF rida
ĠF ICA
Ġan e
Ġan gol
uma do
uma da
Ġper s
Ġper gam
Ġper neta
eus a
ir ra
ir im
ir udo
ir vana
ir guistÃ£o
Ġfazer em
Ġdes pa
Ġdes iste
Ġdes vio
Ġdes cola
Ġdes bei
Ġdes isti
vo ir
Ġne gada
Ġne guinho
Ġter Ã¡
Ġter Ã§o
Ġter res
Ġter mos
Ġter ninho
Ġter ritÃ³rio
Ġca em
Ġca tra
Ġca der
Ġca che
Ġca ps
Ġca derno
Ġca galhÃ£o
Ġca tupiry
Ġca tÃ¡logo
Ġca tiveiro
pre sso
pre ocu
pre ssionante
ĠL E
ĠL I
ĠL s
ĠL and
ĠL eia
ĠL ib
ĠL EM
ĠL ord
ĠL ins
ĠL Ã³gico
ĠL icenÃ§a
ĠL EG
ĠL SD
ĠL iotta
Ġbo de
Ġbo ina
Ġbo ju
Ġbo tava
Ġbom bado
Ġbom bou
Ġten tam
Ġten tado
se is
se ja
se quÃªncia
se xta
iz onte
Ġcas inha
Ġcas ca
Ġcas tor
Ġcas eira
Ġcas trar
Ġcas ual
Ġcas quinha
Ġcas hback
Ġh Ã³s
Ġh Ã©r
Ġh ugo
Ġh ÃŃfen
ĠN um
ĠN IN
ĠN AS
ĠN ilson
ĠN UN
ĠN icolau
tu ando
tu ba
tu rou
tu reiro
ĠG O
ĠG lÃ¡
ĠG iga
ĠG ib
ĠG eral
ĠG ama
ĠG IF
ĠG irl
ĠG Ãªmeos
ĠG omes
ĠG rosso
ĠG andhi
ĠG ustavÃ£o
ĠG ANH
ĠG rÃ³ria
ĠG omide
ĠG elol
ĠE va
ĠE pa
ĠE ssas
ĠE if
ĠE dÃŃ
ĠE Ts
ĠE zequiel
ĠE rasmo
Ġamor es
cia do
cia ram
ver tido
ver tida
ver gonha
sa ia
sa udade
Ġir rita
Ġir mao
no ite
no grafia
ras ta
ras tas
Com un
Com enta
Com pletamente
ru ga
Ġfalar ia
Ah hhh
der es
Ġtra ga
Ġtra ma
Ġtra tado
Ġtra vando
Ġtra duz
tÃ© tica
tÃ© rias
elo dia
elo deon
Ġpr endo
Ġpr endendo
Ġpr Ã¡tico
Ġpr omi
Ġpr Ã³stata
ac or
ac os
ac ima
ac yr
Ġex i
Ġex cl
Ġex cesso
Ġex chan
Ġex elente
Ġex clama
ico te
ter r
Ġcar ga
Ġcar tinha
Ġcar eta
Ġpar cial
Ġpar kour
vi te
vi ou
vi le
ĠÃī poca
lo ok
Ġsem blante
ado rei
Ġle em
Ġle ave
cul as
cul ando
Ġli po
Ġli gue
Ġli tros
Ġli tt
Ġli teralmente
ima g
ĠÃ³ ptica
ala ce
Se ra
Se para
Se paraÃ§Ã£o
bri ficante
her e
her ia
her ever
Ġmen tor
Ġmen isco
Ġmen inx
con tam
con dicion
era r
Ġcomo vente
Ġenten da
Ġenten dia
Ġgos ma
Ġesta Ã§Ã£o
Ġesta cion
Ġesta ciona
Ġos ten
so zinha
Ġsegu i
Ġsegu em
Ġsegu rada
ba ti
ba gun
ba tal
Ġman tendo
Ġman ip
Ġman chete
Ġman icure
Ġar om
Ġar de
Ġar tÃ©ria
Ġhe pÃ¡tica
Ġhe diondo
Ġprecis e
mar es
Ġta pe
Ġta dinha
Ġta xi
Ġta vam
Ġta quicar
para bÃ©ns
Ġas par
rou bando
Ġch ar
Ġch rom
Ġch iquÃ©r
ome tria
Ġcha me
Ġcha veiro
Ġres ina
Ġres pi
Ġres umo
ber ry
za ga
za Ã§o
Ġmer mÃ£o
Ġcor te
Ġcor tina
Ġcor tada
Ġcor rimÃ£o
Ġap Ãªn
Ġap ito
Ġap onta
Ġap eli
Ġap itar
Ġap lausos
Ġap ologia
Ġap imentar
Ġesc ura
Ġesc lar
Ġ1 30
inh Ã£o
Ġcer e
Ġcer ol
Ġcer tas
Ġcer tamente
Ġcer tinha
Ġcer tidÃ£o
tor cendo
Ġti as
Ġti re
Ġti tia
Ġti tio
Tu valu
Tu barÃ£o
Ġra pa
Ġra par
Ġra lado
Ġra bada
Ġra diaÃ§Ã£o
Ġra zÃµes
har mon
ec hat
ec hal
Ġsa que
Ġsa em
Ġsa ga
Ġsa po
Ġsa quei
Ġsa tan
Ġsa far
Ġsa gitÃ¡rio
ens ÃŃvel
Ġali ens
Ġali via
Ġali viado
gra r
gra va
gra dÃ¡vel
li tes
li gh
li teralmente
oi te
per os
per na
per der
per dÃ£o
per man
Ãªn Ã§Ã£o
pi or
pi la
pi ons
tre la
ĠI G
ĠI b
ĠI lha
ĠI vo
ĠI za
ĠI NT
ĠI vermectina
ĠI bope
ĠI Ãªmen
ĠI ansÃ£
ĠI guaba
Ġjo al
Ġjo gÃ£o
Ġla tas
Ġla udo
Ġla deira
Ġla mba
Ġla tindo
Ġla men
Ġla vei
Ġla brador
Ġla bir
Ġon omatop
Ġpou sar
Ġcan ho
Ġcan ela
Ġcan til
Ġcan alha
Ġcan taram
Ġcan ibal
Ġvol tam
Ġvol tamos
ĠMar li
ĠMar ques
ĠMar iano
ĠMar ginal
ĠMar tha
ĠMar tell
ĠMar echal
ne te
ne ssas
Ġmo ranga
Ġso le
Ġso vaco
Oi to
Ġmor e
Ġmor dendo
Ġcome ce
Ġcome dor
Po p
Po dcast
Po dridÃ£o
Po popÃ³
De le
De ssa
De vol
De vem
De leta
fer ro
tr oc
ge e
tas y
Ġolha m
Ã¢ nea
ĠU H
ĠU ga
ĠU va
ĠU ns
ĠU NO
ĠU ruguai
ĠU cr
cer Ã¡
ris hna
ju teria
Ġco to
Ġco bro
Ġco Ã§ar
Ġco taÃ§Ã£o
Ġco late
Ġco operar
dor mir
ura i
Ac redi
Ac eita
Ac ordo
Ġpass os
Quer em
Quer ida
Ġneg ros
Ġneg resco
tÃ³ xico
vel em
No ssos
No vembro
Ġfica vam
Ġmal ho
Ġmal ig
ite ira
ite ral
ĠH mm
ĠH ORA
ĠH ouse
ĠH ospital
ĠH ulk
Ġcam elo
Ġba ga
Ġba Ã§o
Ġba dal
Ġba dalo
ĠPor ral
ĠPor tela
Ġro Ã§a
Ġro dar
Ġro das
Ġro bo
Ġro taÃ§Ã£o
Ġro Ã§ando
Ġro dada
Ġro lÃ©
Ġro lÃª
Ġro dela
Ġfor Ã§as
Ġfor rÃ³
Ġim pres
Ġim enso
Ġim poss
xo te
xo to
ig ner
car ne
Des te
Des iste
Des ejo
Des viar
Des carre
Des ligou
Des igner
trar te
Ġacab am
Ġacab ado
ema is
du Ã¡
du za
du wic
Ġban quinho
Ġban cada
fa to
fa ia
Ġlu tando
Ġlu brificante
quer que
hei ras
Ġr ÃŃ
Ġr ÃŃm
Ġr Ã©veillon
Ġr umos
ĠÃ¡ ra
ĠÃ¡ lbum
ĠÃ¡ reas
res pira
res pirando
Ġmar es
Ġmar co
Ġmar cado
Ġmar quis
Ġmar ginal
pl in
pl us
pl anta
Ġpens am
Ġtran ca
des l
des ta
des culpe
des ligar
Al to
Al Ãª
Ġcol ant
Ġcol oraÃ§Ã£o
Ġcol ÃŃrio
ĠW a
ĠW el
ĠW ine
ĠW at
ĠW ise
ĠW ayne
enta grama
Me xeu
ĠBrasil eirÃ£o
Ġpessoal zinho
Ġconsegu em
Ġconsegu iram
Ġru ÃŃdo
son hei
ch Ã³
ch endo
Ġgra vado
Ġgra mado
par em
par ceiro
par ceira
enh eiros
ĠcomeÃ§ amos
ĠPa ssar
Ġlo te
Ġlo gar
Ġlo irinha
Pode mos
Ġcons tante
Ġcons elho
Ġcons umir
Ġcons umiu
Ġcons ider
Ġcons umindo
Ġcons istente
Ġdire tora
Ġbe e
Ġbe au
Ġbe tter
Ã¢n dia
vai r
Ġlegal zÃ£o
Pra ticamente
Ġ- ,
Ġ3 4
Ġ3 60
Ġemb ar
Ġemb aixa
Ġcri tica
Ġconta tos
Ġconta bilidade
Pe dido
Pe diu
Pe quen
Pe drinho
Ġvo ado
Ġvo yer
cion ados
Ġresp eite
Pa ga
Pa ÃŃs
Ġempre iteiro
Ġempre iteira
Ġdeix aram
vers Ã£o
ad dad
it indo
Ġun der
Ġun idades
quei ros
Bo tou
Ġpassa sse
Ġpassa va
Ġpassa porte
anta do
ĠCar pe
ĠCar olina
ĠCar ioca
ĠCar ds
ĠCar luxo
Ġfi os
Ġfi delidade
Ġpu tinho
Ġpu xando
id ra
id enta
ĠPe t
ĠPe gou
ĠPe guei
ĠPe cado
ĠPe trÃ³
ĠPe ssoa
ĠPe ters
Ġpres os
Ġpres taÃ§Ã£o
Ġpres erva
Ġ? ?
ĠMa ta
ĠMa cela
ĠMa gno
ĠMa Ã§Ã£
ĠMa gazine
Ġfam ilia
Ġtira m
pos icion
ĠvÃŃ nculo
oo h
oo oh
Ġven cer
Ġven tinho
Ġven dia
Ġven dem
Ġven dado
Ġven cido
Ġven cendo
Ġentre vis
Ġentre guei
Ġfoto graf
esse te
Ġbar rinha
Ġbar beiro
Ġbar binha
Ġbar budo
Ġab ol
Ġab ismo
Ġab duz
Ġab elhas
Ġab aixei
Ġab aste
Ġab dÃ´men
mos tra
tado ra
Ġprim os
Ġprim Ã¡rio
Ġinter cedeu
Ġinter rogaÃ§Ã£o
Ġpol ig
Ġsal gado
Ġsal gada
Ġsal vando
Ġsal vaÃ§Ã£o
Ġsal iva
Ġsal arial
ĠÃº rico
ĠÃº teis
RA R
be as
aÃŃ s
Ġesque Ã§o
Ġfr om
Na tal
Ġgal inhas
ĠCom ando
ĠCom igo
Ãĥ n
esta gi
esta bele
ĠAl ana
ĠAl fre
ĠAl pes
ĠAl ison
ĠAl cides
Ġlem bre
Ġlem brei
Ġlem branÃ§a
Ãºs culo
Sim one
Ġcal ar
Ġcal ado
Ġcal end
ÃŃn dio
ÃŃn cter
Ġvolta ram
for te
for mo
dei x
Ġvac ilÃ£o
Ġcomp rim
Ġcomp rimento
Ġcomp ensar
fo gar
fo der
Ġpos i
Ġpos tura
Ġpos tado
Ġpos tava
Ġpos itiva
Ġinte lectual
Ġnas cimento
Ġnas cenÃ§a
Ġpassar inhos
tido res
Ġresol vida
cos o
ĠK Y
ĠK u
ĠK ing
ĠK aio
ĠK inder
ĠK arina
ĠK lan
ĠK ong
ĠK lux
ĠK ombi
Ġfu dendo
Ġfu tura
Ġ5 1
Ġbon de
Ġrela tar
Ġrela xando
Ġsol tou
Ġsol tando
Ġsol ici
Ġsol teira
Ġfun dada
Ġbai xou
Ġga Ãºcho
Ġsuper ei
Ġsuper fa
Ġescol ar
Ġescol ho
rim os
Ġcin tinho
Ġcin zeiro
Ġgosta ram
gio ta
Ġdem ons
Ġdem andas
Ġdem onÃŃ
Ġrep ris
ĠEs que
ĠEs ta
ĠEs tÃ£o
ĠEs tado
ĠEs pecial
ĠEs quisito
ĠEs trela
Ġcur sos
Ġol ÃŃm
Ġbrin cou
Ġbrin calhona
Ġrec ente
Ġrec he
Ġrec usa
Ġrec usar
Ġrec reio
ĠNo w
ĠNo tificaÃ§Ã£o
In ves
In dep
ren da
ren dendo
ane te
Ã©r icas
Ġespe cificamente
Ġespe ciarias
Ġlou ra
gi as
gi la
gi ando
gi tar
heiro s
Ġquar teirÃ£o
Ġproc riar
Ãĵ h
Ãĵ tima
ĠDE U
ĠcomeÃ§ar em
Ġaten tado
Ġaten taram
Ġcontra tos
Ġcontra tado
Ġcontra taÃ§Ã£o
Ġmu te
Ġmu ro
Ġmu dado
Ġmu vuca
Ġqueri dos
Ġmora dia
Ġindo nÃ©sia
Ġrapaz es
bro ta
Ġpi rou
Ġpi ano
Ġpi ercing
Ġcompra ram
Ġcompra mos
Mar io
Mar ÃŃlia
Mar cel
Ġajuda do
Ġajuda da
Ġdifer enciada
Ou vi
Ġor la
Ġor den
Ġor quÃŃ
Ġor togrÃ¡
Ġins er
Ġins iste
Ġins tante
Ġins titu
Ġcl icou
Ġcl eiton
oco la
ĠX ororÃ³
ĠX box
ĠX avier
Ġbol inho
Ġbol sos
Ġbol onhesa
Ġdou rado
Ġdou torado
Ġcab er
Ġcab ral
Ġcab ideiro
Ġchama vam
ĠZ an
ĠZ aqueu
ĠZ aion
Ġmos tro
Ġado rou
ĠCa pital
ĠCa tho
ĠCa xambu
Ġpes ar
Ġconf usa
Ġconf ratern
cor rer
Car ol
Car pe
Car teira
Le t
Le vo
Le var
Le van
Le gen
Le ticia
Le tÃŃcia
Ġexpl orar
uro s
vol tado
Ġatra sando
Ã©s tia
Ġtal k
Ġtal co
Ġva go
Ġva za
Ãģ udio
Ãģ RIO
Ġdis para
Ġdis tin
Ġdis lex
Ġdis posto
Ġdis lÃ©
Ġdis cipl
Ġmai onese
ĠJo ga
ĠJo vi
ĠRe g
ĠRe ino
ĠRe bu
ĠRe pÃ³rter
ĠRe beca
til heiro
ĠLu cia
ĠLu ani
ĠLu quinha
Ġgu ia
ĠpÃ´ quer
Ġtranqui l
Ġtranqui lÃ£o
Ġabri ram
Ġgran ada
Par que
ĠAn os
ĠAn gÃ©
ĠAn droid
ĠAn nabel
ĠTem os
ĠTem po
ib occa
Ġpas tel
ĠBo x
ĠBo la
ĠBo tando
ĠBo heme
Ġchamar ia
Ġesp an
Ġesp inha
Ġesp iadinha
Ġbran cas
Ġbran quinha
ĠPo tter
dro ga
Ġ4 2
Ġ4 4
les tero
Ġcorpo ral
feito s
ĠSu deste
Ġlic hia
Ġlic encinha
ĠLe tÃŃcia
ĠLe ader
Ġlim onada
ĠhÃ¡ lito
Ã¢m pago
Con firma
Con trato
TA S
ni ano
ni ficar
ni tude
tinu a
Ġau ten
cara ca
Ġson da
Ġson so
Ġson ega
Ġfec ho
Ġinf ar
Ġinf laÃ§Ã£o
ĠVal ter
ĠVal divia
iza das
Ġmi ssÃµes
Ġrece bido
Per do
dr y
dr ome
ĠDes portiva
ER TA
lar ia
lar gar
ĠmÃ¡ fia
Ġvir gens
Ġvir gin
fal ta
fal am
su ah
ĠAm ei
ĠAm iga
ĠAm eric
ĠAm Ã©ricas
Pre feitura
Ġtes tando
Ġtes tes
Ġtes ouro
bar ra
ves tida
Ġfeliz Ã£o
tan an
Ġsur tando
Ġsur fado
Ġsur giu
ĠNe gada
ĠNe gro
Ġchu pe
Ġchu pÃ£o
fic as
fic aram
fic Ã¡cia
Ġve te
Ġve ada
aran dÃ¡
ĠNa th
ĠSe te
ĠSe ques
alav ra
AL AL
EN E
EN T
Ġgo zando
Ġgo iaba
ion Ã¡rio
ion omia
abou t
Ġterm inei
Re al
Re de
Re duÃ§Ã£o
Re pete
Re encar
Val dir
ĠsÃ©ri ezinha
ĠDe ezer
pres enta
Ro da
Ta picrepe
rom bada
Ġsor veteria
Ġcham amos
Ġhor inha
ĠOs klen
AR UL
As hley
Ġri der
Ġri ram
Ġri gor
Ġad miro
Ġad voca
ĠSa to
ĠSa di
ĠSa fa
ĠSa fado
ĠSa quar
ĠSa turno
Ġbota fo
cu te
che go
che fe
aba tella
Ġw e
Ġw ho
Ġw ow
puta dor
Ġpon tas
Ġpon tinho
ĠMe gan
ĠMe ssi
ĠMe deiros
HA N
ap enas
Ġel emento
Ġmonte i
Ġbei jando
Ġbei jinho
SO L
SO M
SO U
Ġsin dica
Ġvindo s
Ġprimeira mente
Fo tinho
Su co
Su ruba
Su deste
ĠQUE M
Ġci entistas
Ġci Ãºmes
Ġtam an
Ġtrou ce
IN A
Pro te
Pro tes
Pro grama
Pro paganda
Ġ7 3
Ġ7 7
Ġlev am
Pera i
Ġcolocar em
can Ã£
can ti
Ġtio zinho
Ġeng enho
ĠSenhor es
ĠSenhor ita
pode mos
Ġ( ?)
Ġpron tos
ĠRa ia
ĠRa quel
Ġliga das
Ġimportante s
Ġjun tas
Ġop rim
Ġreal izar
** .
Ġavis aram
Ġtoma das
man j
tel Ã£
unda Ã§Ã£o
AAAA A
AAAA AA
Ca ta
Ca de
Ca xambi
Ġcomun ico
Ġnot ici
ĠLa tino
Ma taram
Ma halo
An d
An dar
An jo
An dre
Ġapro vam
Ġapro funda
Ġapro pria
IS TE
ent imento
Ġtor to
Ġtor rando
Ġtor cendo
Ġtor cedor
Ġbri gou
Ġbri lhar
Ġav anÃ§ar
Ġaz ia
Ġcria dor
Ġcria tivo
Ġcria tivos
Ġsom meli
hado ra
Ġgor dinha
Ġlan Ã§ou
ĠTu pperware
ĠTu pperwares
Ġder rota
Ã¡r men
Ġgar Ã§
Ġforma da
Tra go
Tra va
Tra ficante
Ġfar is
ĠCo po
ĠCo elho
Ġcho ver
Ġcho veu
Ġfic Ã§Ã£o
Ãį CIO
Ãį VEL
Ġu retra
Ġnu cle
orre ia
tora de
Ġtraz em
col o
col ar
col is
col oco
col ocando
vas ivo
ĠY o
ĠY uri
Ġadi anto
Ġadi antei
ssor es
Ġbas ta
Ġespa Ã§oso
enten as
enten di
enten dido
ĠTa co
ĠTa ke
ĠTa vares
ĠTa quara
pela do
Ġrola va
ly s
Ġ6 5
Ġ6 00
Ġama do
Ġama ssada
ĠEn g
ĠEn em
ĠEn fim
ĠEn gen
ĠEn costa
Ġpei xes
ĠAr y
ĠAr ras
ĠAr tur
ĠAr madas
Ġperce ba
Ġperce bo
Ġperce beram
Ġsaco de
Ġnamora dinha
Ġescre vo
AN A
AN Ãĩ
Ġbu g
Ġbu z
Ġbu eiro
Ġbu Ã§o
Ġbu cha
Ġbu zina
ĠIn clusive
ĠIn fante
ĠIn flu
Ġsof rido
Ġsof istica
Ġpan elas
Ġdef ende
Ġgri pado
Ġsex to
ĠCh Ã¡
ĠCh uta
ĠCh eio
ĠCh ibocca
ĠFa Ã§o
ĠFa ustÃ£o
Ar ruma
Ar thur
Ar didas
Ar reb
Ġpul ei
Ġpul so
Ġpul seira
Ġce ga
Ġce bola
antas ia
rÃ¡ ul
Ġpis o
Ġpis ar
Ġpis ando
Ġpis quei
Ġsi esta
Ġsi ririca
Ġves te
Ġves tÃŃ
Ġves tidos
oce sso
Ġpin tar
Ġpin tou
Ġpin tando
Ġpin tor
Ġestran har
Ġestran has
Ġleva do
Ġleva va
Ġcheiro sa
Ġcheiro sinho
Ġjoga sse
Vi das
Vi tÃ³ria
Ġqui eta
Ġqui ere
Ġpensa da
Ġtre zentos
Ġtre inamento
Ġsub terr
ĠUber X
ĠUber POOL
TE I
TE LE
ex per
ex clama
pal har
Ġreun ir
Ġreun iao
Ġpare des
Ġfuncion amento
Ġfuncion Ã¡ria
Ġfuncion aria
20 19
Ġsoc or
Ġgas tos
ĠÃģ lvaro
grade zinho
gl ish
Ġaf ir
Ġaf inal
Ġfum ante
Ġesti gma
ON DE
gan har
Ãł Ãł
ĠDu rante
ĠDu ende
ĠBar co
Ex cuse
Ex ercÃŃcio
Ġsum i
Ġsum iram
Ġfe tos
Ġfe dido
ali e
gura Ã§Ã£o
Ġmata dor
Ġdescon tro
Ġdescon fia
Ġdescon fiado
Ġ19 0
oooo o
Ġimag inÃ¡rio
dic ando
dic ley
Ġris cos
Ġcres Ã§a
Ġcres cimento
Ġbara lho
Ġbara tinho
abri ela
Ġpaz es
Ġinc enso
Cha ta
Cha mar
bu zina
bu querque
Ġabra Ã§a
Ġpri vile
ĠCon tra
ĠCon tinua
Co po
Co ach
Co varde
ĠPar Ã¡
ĠPar tido
Ġproce dÃªncia
Ġproce ssando
ub anacan
ssion ar
Ġfin os
Ġfin inha
Ġfran co
Ġfran ja
Ġtri glic
Ġtri gÃªmeos
Ġtri Ã¢ngulo
ĠTo p
ĠTo da
Ġcorre Ã§Ã£o
Ġ201 1
Ġ201 6
Ġbrinca va
Sa ci
Sa fada
Sa tanÃ¡s
dri ve
Ġag il
ĠcomeÃ§a va
tin i
tin tas
ley ton
Ġdesco berta
ach u
Ġarre pi
Ġarre don
ser ia
Ġestra go
Ġestra ga
Ġestra gou
Ġarrum o
AI DS
Fa ce
Fa vor
Ġpun ido
Ġpreocu pando
Ġdesli gando
EL O
Ġagrade cimento
Ġtim ing
Ġescri ta
Ġcomple tÃ£o
ĠQuer ido
Ġenc am
Ġenc olha
ĠAc redi
EI RA
EI TO
EI DER
Gra tidÃ£o
qual e
Ġcra vou
Ġcra wl
Ġcra chÃ¡
Ġquen tinho
Ġok ay
Ġprepara ndo
Ġprepara tivos
Ġanivers ario
ĠdÃº zia
Ġref rÃ£o
Ġref lex
Ġdesen ha
Ġdesen fre
Vol te
Vol tei
gn ita
Ġequi lÃŃbrio
ĠpÃ¡ ra
ĠpÃ¡ tina
ĠMan dir
ĠMan ches
ĠMan chete
ĠBol sa
Ġverde lho
Ġrecla mou
Lu is
Lu gar
Lu ane
Ġz ÃŃper
Ġlin gu
Ġlin dinha
conhe ce
conhe cer
conhe cido
conhe cimento
ĠsaÃŃ rem
?? ??
Bora t
Men inas
Ġcidade s
ich eira
ĠlÃŃ rico
Ġtema ki
Ġsepara Ã§Ã£o
Ġsepara ram
ĠMen ino
Ġinven tam
ĠBom bom
ĠVi tor
ĠVi eira
ĠVi ven
ĠVi talÃŃcio
Ġempres as
Ġadianta do
Pres identa
Ġx inga
Ġis o
Ġfre ira
Ġfre elancer
Ġgela dinho
Ġgela tina
Ġganha va
Ġfra ca
ĠCl Ã©ber
Ġprefer em
Ġprefer ida
Ġassal tar
Ġassal tando
Can tando
Can cela
Can sei
Ġur ina
Ġur sÃµes
ĠpÃ£o zinho
Ġbur rice
ĠCor ta
ĠEx iste
Ġpartici pa
Ġpartici pando
Ġpartici pou
Ġza ga
ĠpÃºbl icos
Ġgen Ã©rico
ĠCas amento
ĠCam pos
ĠCam peonato
Ġmete u
Ġinves te
Ġperdo ar
Ġperdo ado
Ġesquece ram
ĠPer gunta
ĠPer erÃª
ĠFo go
ĠFo der
ĠFo fÃ£o
ĠFo fura
Ġperdi dinho
HO JE
Man eiro
Man dar
pol it
pol icial
Ġhos pitais
Ġ100 0
Ġsimp Ã¡tica
Ġsimp Ã¡tico
ĠQu ei
ĠQu irguistÃ£o
ĠÃŃn dia
Ġconcor dar
Ġconcor dou
Ġconcor dÃ¢ncia
ĠPre ta
Ġdesa pare
Ġdesa gradÃ¡vel
Ġexperi Ãªncias
Cor tou
Cor reria
ET IU
IL IA
Ġapa gando
Ġapa guei
Ġapa vorada
Ġdep ender
Ġdep endendo
Ġesquis itÃ£o
Ġtur binada
Ġinv ic
Ġcole tar
Ġcole tiva
Ġimagina Ã§Ã£o
Ġdeci dido
vado ra
Ġliber o
Ġescro tada
Ġ200 3
Ġ200 8
Ġ200 9
Ġmuda m
Ġmuda da
Ġmoral zinha
Filho s
Ġaleg oria
Ġbi Ã³logo
Ġbi quÃŃn
Ġbi juteria
Ġescon dida
imar rÃ£o
Ġconvi ver
ĠMer iva
ĠFab inho
ĠEm pre
Ġgostar ÃŃamos
Ġarran hÃ£o
Ġresolve ram
GU MA
pul co
Ġcou ve
Ġsil en
Ġsil enciar
Ġsil icone
ĠAma da
ĠMi randa
Ġservi u
Ġservi Ã§os
Acab o
Ġcamis eta
Ġexa ger
Ġquei xa
Ġquei jos
Ġbab ando
ĠgrÃ¡ vido
ĠDi esel
ĠDi reito
Ġanima dÃ£o
Ġaprovei tou
Ġata ca
Ġata ques
Ġcus tou
Ġcus tando
Ġmel hora
Ġflor ido
ant ismo
ĠCha to
ĠCha ma
ĠCha ves
ĠCha pol
ĠCha plin
ĠSer ginho
ĠBan co
ĠGo ta
ĠGo verno
aaaa aa
Ado lf
Gu erra
HÃ£ n
Ġati var
Ġati rar
Ġob es
Ġofer enda
Ġofer eci
Ġbor Ã¡
Ġpobre za
Ġpaga va
Ġhon esto
contra to
Ġsinto mas
Du du
La va
cei tu
cÃŃ lio
cÃŃ cios
sab or
sab endo
Ġtchau zinho
Ġbase ada
Ġgaran te
ĠCan ina
ĠCan cela
ĠCan sei
Ġdescul par
Ġdescul pinha
Ġcapa cidade
Ġchin esa
Ġcanto ras
Ġeconom izar
Ġeconom ias
Ġbesteira s
dis ponÃŃvel
Ġras par
Ġras guei
Ġchor inho
Ġju ÃŃzo
Ġmach Ã£o
Ġmachu cando
ĠLi pe
ĠLi via
ĠcartÃ£o zinho
SA CI
au voir
dÃŃ zio
Ġsac u
Ġsele tiva
Ġprote ÃŃna
ĠJun ta
ĠJun ho
ĠJun queira
Ġsapa tos
Ġsapa tinho
Ġsapa tÃªnis
Precisa va
Ass ina
Ass ista
Ġdura Ã§Ã£o
Ġcen Ã¡rios
Ġcir cula
Ġcir cular
Ġcir rose
Ġbloque ar
Ġgeral mente
Ġjul gado
Ġjul gamento
Ġarro to
Ġrom p
Ġrom peu
Ba teu
Ba tidas
Sab onete
ff led
lamen tar
Ġens inando
Ġmad alena
ĠAna tel
bei jar
Ġ0 4
Ġrepe te
Ġrepe ti
Ġrepe tindo
Ġquin tal
Ġquin dim
Come Ã§ando
Ġcarinho sa
Ġimpre vis
Ġimpre ssi
Ġautor idade
ass istir
pr ome
pr imento
pr ocesso
Ġden unciar
Ġden unci
Ġden Ãºncia
Ġpia dinha
Ġpla car
Ġpla centa
Ġplay boy
Ġlen Ã§o
ĠPOR TA
ĠDa tena
Ġexis tÃªncia
Ġcaro Ã§o
Ġmanter rupting
Ġbagun Ã§ado
Ġbagun cinha
Ġelim inada
Ġelim inaÃ§Ã£o
Ġelim inados
Ġlarga va
Mo Ã§a
Mo derno
Mo leque
bil iza
bil izada
jos as
Ġdevia m
Ġseques trar
Ġsecre ta
Ġsecre tÃ¡rio
ĠSan toro
ĠSan tander
ĠBel monte
Ġperf eita
Ġnecess Ã¡rio
ĠGa torade
Ġapel ar
Ġescu tei
ĠHum mm
Ġimprovis a
Ġ202 2
Ġ202 6
Ġengan ou
Ġengan ado
ĠlÃŃder es
Im pressionante
Ju dith
ban deira
ban dido
ban cada
mal l
Ġdever iam
ĠMÃ© re
ĠDO IS
ĠBra desco
Ġplan tando
Ġplan ilhas
Ġsobrevi ve
Ġsobrevi veu
Ġarrep ender
Ġarrep endimento
Jos ias
Sus piro
Sus peito
lh inha
Ġoi tenta
Ġenvol ve
Ġacer ta
Ġacer tou
ĠPris cil
ĠMo gli
ĠMo acyr
Ġposs amos
Ġinva diu
ĠRes ende
ĠFrei re
Segu rou
Segu rando
Ġconser te
Ġconser ta
Ġconser tado
Ġconser vadora
Inter venÃ§Ã£o
Cas ou
Mal ala
POR QUE
cra vidÃ£o
cla mam
sen tido
Ġcum pre
Ġvel has
Ġvel Ã³rio
ĠPal estina
ĠPRA IA
trabal har
ĠBon d
ĠBon fim
ĠBon ner
ĠVa der
ĠFi bra
Ġperson nalitÃ©
Ġinterrom pida
Marc inho
Ġaguenta va
HHHH H
Ġemocion ar
LE TA
Lar gar
bon ita
pens ei
Ġcla que
Ġcun hada
quero so
Ġfis cais
Ġfis ionomia
ĠbÃªbado s
ĠClau diom
ĠClau dinei
ĠAle gria
ĠMor don
ĠSon inha
ĠSon ora
Ġincomo dando
ĠRu te
ĠGon zaga
ĠEM BORA
Ġcheira do
Ġadm inis
Ġlevanta da
Ġsusten to
Sal Ã¡rio
Ter ceira
ĠcÃ³ pia
ĠcÃ³ coras
Ġsente i
enÃ§o ado
eros idade
umb rante
ĠCer zinha
ĠAM IGO
ĠBen Ã§Ã£o
ĠRom ilda
ĠFor Ã§as
ĠFor taleza
ĠFor tnite
Ġapos tar
ĠWal ter
Ġfigu rante
Ġfigu rinha
Ġfigu rantes
Ġpesco tapa
lesc ente
gosto sa
Ġmistura r
Dei xar
gh el
Ġul tima
Ġul timamente
Ġape go
Ġatual izado
Ġobri gaÃ§Ã£o
Ġboc he
ĠAL GUMA
ĠMal ali
ĠMal bec
tif ul
Ġsenta dinho
Ġproib ir
Ġgostos inha
Ġchur ros
Ġconstran gido
Ġinterna cionais
Ġacorda va
Ġinvesti dor
HE TA
PM DB
Ġala van
Ġpente ar
ĠCelular i
Ġhid rÃ¡ul
Ġestab anada
Ġarqui vos
Ġarqui teto
Ġarqui bancada
Ġmorta dela
Ġabando nou
Ġori fÃŃcio
Ġfranc amente
Cu eca
Diz em
Fun cionÃ¡rio
Pl anta
UC A
VI D
pu bl
pu taria
ud anÃ§a
Ġmara tonar
Ġvin ga
Ġvin das
Ġesco var
Ġnoj enta
Ġrepres entaÃ§Ã£o
ĠPu taria
ĠME DO
ĠMeire les
ĠMeire lles
ĠSU RU
ĠTit to
ĠTit anic
ĠBro xa
Ġsuger iu
term inou
Ġmilksha kes
ĠespÃŃ ritos
Ġafas tada
Chu tou
DI DO
Ham s
bul Ãªncia
bus car
Ġaum enta
Ġpur inha
Ġpur ga
Ġpur purina
Ġfei tiÃ§o
Ġfres ca
Ġfres co
Ġdepos ita
Ġben Ã§Ã£o
Ġben zÃ£o
ĠgÃªme a
ĠgÃªme as
guer ia
Ġenter ro
Ġenter rou
ĠPA ULO
Entre ga
precis amos
Ġexplo dir
Ġpsic olo
Gal inha
He y
Jul inha
Mor ri
Mor don
UU U
ak anda
gÃªn ico
Ġocu pada
Ġbru ta
ĠCON TRA
ĠAb aixa
Ġdig itais
Ġinver tida
Ġprotes tando
ĠVia gem
ambu cano
Ġexer cÃŃcios
Ġarras tar
Ġarras tando
Ġchate ada
Ġescor piÃ£o
ĠHol anda
ĠHol mes
ĠHol ocausto
Ġbatal hÃ£o
Ġimun e
Algum as
ĠMaur Ã£o
Ġpesquis as
Ġpesquis ei
Ġconfir mou
Ġespir rar
Ġsurf ista
Ġchopp s
ĠGonÃ§ al
Or dem
Sur fe
Ti rou
Ti kTok
TRA S
TRA BAL
Vo vÃ³
VOCÃĬ S
br imento
eo vani
final mente
mil hÃµes
tÃŃ cula
Ġaqu arela
Ġadap tando
Ġess enciais
Ġts unami
Ġesf ol
Ġesf riou
Ġesf ÃŃncter
amar is
Ġnov inhos
Ġacum ula
Ġje jum
ĠCal oi
ĠCal abresa
ĠCome Ã§a
ĠMu fasa
ĠMelhor ou
ĠSur f
ĠSur iname
Ġind icou
Ġinim igos
ĠTom ar
Ġpreju dicar
terna cional
Ġmanif estantes
Ġpresid encial
Ġadul ta
Ġwhat sapp
Ġ199 7
Ġ199 8
ĠDESC E
Ġhomossexual ismo
Cal or
Ãļ LIA
Ãļ ltima
Ġran Ã§o
ĠcrÃŃ tico
Ġvic iada
encon trei
entinho s
Ġflu xo
Ġocor rÃªncia
Ġgrin ga
Ġporno zinho
Ġreli gios
ĠCi vil
ĠPab llo
ĠSal vador
Ġinten Ã§Ãµes
Esque ceu
Ġviral izar
ĠBi enal
ĠBal de
ĠBal anÃ§a
poder oso
Ġprecon ceitu
ĠJor jÃ£o
ĠFer ro
irul ito
ĠLo bÃ£o
ĠLo bato
Ġbole tim
Ġsobra ram
ĠUr ca
ĠHu go
Ġtransa va
Ġtransa Ã§Ã£o
HAHA HAHA
Ġderre te
Ġsusp ense
Ġapresenta ram
Ġapresenta dora
Ġobje tos
Ġsubstit ui
Bon ita
Bei jÃ£o
Bei jos
Fu turo
Fu giu
Ha ppy
Jun inho
Rena ta
Ġapre ensÃ£o
Ġapre ensivo
Ġaze da
Ġmir ranca
Ġth ink
Ġbre chÃ³
Ġlis inho
Ġconfe ssar
Ġconfe ssou
ĠCO VID
Ġmag nitude
ĠPei xe
Ġino var
Ġindica dor
ĠVo z
Ġdesper dÃŃcio
ĠLou is
Ġcorri gir
Ġescuro s
ĠHe be
Ġimpe dido
Ġinterpre tado
ÃĥÃĥ ÃĥÃĥ
ĠlimÃ£o zinho
ĠCorona Vac
Ġdeprim ido
Ġfrita deira
Bas ta
For Ã§a
LA U
Rec eita
pensa do
ĠQU AL
ĠQU ASE
Ġasse dia
Ġcrim inoso
Ġnor mais
Ġnor destino
Ġdedinho s
Ġcomemora Ã§Ã£o
Ġenf iado
Ġretor n
ĠMara canÃ£
Ġtomo grafia
Ġdivers Ã£o
Ġdivers idade
Ġvideo game
Ġalu gando
ĠJam es
ĠJus celino
ĠOl inda
ĠFre e
Ġcoz inhar
Ġcoz inhando
Ġbaix ei
Ġtestem un
Ġtestem unha
Ġengas gar
Ġdefin ir
Ġdocum entaÃ§Ã£o
Ġdivul gaÃ§Ã£o
Cur ti
Cham ei
Pei da
Pei xe
Va za
cum ba
jus tiÃ§a
Ġagre ssiva
Ġagre ssivo
Ġeta pa
Ġmito lÃ³
Ġfacil idade
Ġfacil ita
Ġfacil itar
Ġensai ar
Ġconv icÃ§Ã£o
Ġrevel ando
Ġempa tado
ĠCU RTO
ĠCe arÃ¡
ĠCala the
ĠCur tiu
ĠCAN AL
ĠPAR IU
ĠPlay Station
tiba ia
ĠSab rina
ĠBet Ã¢nia
ĠperÃŃ neo
Ġpermi tido
Ġdesenho u
ĠGal inha
ĠGal vÃ£o
ĠGal ileia
Ġorg Ã¢nica
Ġtransferir ia
Ġmaio zinho
Ġguer reira
Ġinflu encia
Ġjuntinho s
Ġrecomenda Ã§Ã£o
Ġsobreviv entes
Ġfiscal izaÃ§Ã£o
Ġtravess eiros
Ġassass inato
Ġhashtag s
Er rada
Lim pem
Mu dar
Rou pa
mu tar
mu dar
mu ffled
mor e
mor rer
Ġdon os
inter net
Ġbron ha
Ġblog s
Ġgui ar
ĠiF at
Ġacalma da
ull s
Ġressusci tar
Ġressusci tou
ĠCu iabÃ¡
ĠmaÃ§ Ã£
ĠmaÃ§ aneta
ĠAI DS
ĠTele visÃ£o
ĠBri tto
pega va
Ġextre ma
Ġargumento s
tempo rada
resol ver
Ġmama ta
Ġsurpre ende
gosta ssem
ĠJuli eta
Ġsofre u
Ġdesconhe cida
Ġarreb entando
Ġpopular es
Ġinventa ram
ĠProblema tizar
EEEE E
EEEE EE
Ġcostuma va
ĠVander lei
Ġciclo pe
Amar elx
Pris Ã£o
Ven dido
flor esta
ĠÍ ľ
Ġafo gando
Ġdrin que
Ġpend rive
Ġneu rÃ³
Ġsam urai
Ġbigo dinho
Ġital iano
elen inha
Ġenjo o
Ġenjo ada
Ġenxer ga
Ġempur ra
ĠPER MI
ĠApp le
ĠMad alena
ĠDar th
Ġalcan ce
Ġalcan Ã§o
ĠFA VOR
ĠGui omar
Ġprende ram
Ġexcel entes
Ġexpli que
Ġcervej inha
ĠMarcel Ã£o
ĠHar ry
ĠHar oldo
Ġros Ã©
Ġbande irÃ£o
ĠWar craft
ĠMag ic
Ġtare fas
Sub iu
Sub way
Ġazu is
Ġazu lejo
Ġproduz ir
Ġprior idade
ĠPark inson
Dire tamente
Resol ve
Ġborra cha
Ġproprie tÃ¡rio
Ġenlouque cida
At lantidense
Bel ÃŃssima
HU A
Nu eva
Sin ceramente
Sin dicley
Sig nifica
TchÃª rer
Uh m
apro veitando
cai r
dan Ã§ar
fing indo
Ġagar rar
Ġagra dar
Ġpio rar
arrum o
arrum ar
Ġfur to
Ġfron teira
Ġdeli berar
Ġtan que
Ġtui tes
Ġbun ker
Ġesto que
Ġesqui va
Ġgem endo
ÃŃl imo
ÃŃl ula
Ġjac arandÃ¡
Ġconec tar
Ġconec tado
Ġrele vante
Ġrepara ram
ĠCons tituiÃ§Ã£o
ĠCAS A
ĠAdo ro
ĠAdem ir
ĠSO ZINHO
Ġdigi tar
Ġindis tintas
Estu dou
ĠFAL AR
Ġdesl igo
Ġdeso va
Ġcaval os
Ġhem or
Ġhip ster
ĠNes presso
ĠGre enpe
ĠIN SCRE
ĠIP TU
Ġempreende dora
Ġfrus trado
ĠhistÃ³ rica
Ġclim Ã£o
Ġclica va
Ġcabec inha
Ġpesa gem
Leon or
Leon ardo
ĠRey nol
Ġinfil traÃ§Ã£o
Ġestuda va
ĠJosi el
uuuuuuuu uuuuuuuu
Ġconstrange dora
Ġpublici tÃ¡rio
Ġamea Ã§ando
ĠjurÃŃ dica
Bloque ia
Ce ci
Gol pe
Lui za
Meire lles
San gue
Vin heta
ful ness
fec ha
pei do
Ġxo xo
Ġatu ar
Ġatu ando
Ġpira r
Ġcele bra
Ġcredi to
ingu ido
Ġfas c
Ġflex Ã£o
Ġflex ÃŃvel
ann el
ĠtÃºn ica
Ġilum inar
Ġent ume
Ġente diante
Ġcontam inar
Ġredon do
Ġrevolu cionou
Ġrevolu cionÃ¡rio
ĠCul tura
ĠPas quale
ĠAP ER
ĠSor ocaba
Ġincl uir
Ġinvas ivo
ĠalÃ©r gico
ĠBus ca
ĠFri ends
Ġpertur bando
Ġdesgas tada
ĠGis ele
Ġexig ente
Ġexig Ãªncia
Ġextin Ã§Ã£o
Ġextin tor
Ġparcela do
ĠleÃ£o zinho
Ġlide ranÃ§a
Ġmergu lha
Ġmergu lhar
chama da
Ġbarbe ar
Ġcomprome ter
Ġinspira do
Ġdispon ÃŃvel
Ġdispon ibil
ĠLuis inho
ĠcientÃŃ fica
ĠcientÃŃ fico
Ġcomunica Ã§Ã£o
Arras ou
Ġtrol lei
Ġcusp ir
Ġsacane ar
Ġsacane ando
Ġsubstitu indo
Ġengravi dar
Ġengravi dou
Ap enas
DEU S
FL ETIU
Lin eu
Mand Ã¡
Pou ca
san du
san gue
xim ando
Ġevid Ãªncias
Ġejac ulada
Ġcrus h
Ġcrus tÃ¡ce
Ġsani tÃ¡ria
Ġvara l
Ġdegra u
Ġdepi la
Ġdelica do
Ġdelica da
umon ia
ref res
Ġestal o
Ġgom inho
Ġil us
Ġentu pido
Ġacion ar
Ġcontrib uiÃ§Ã£o
Ġrel Ã¢mpago
Ġemagre cer
ĠCuri tiba
ĠPen inha
ĠPrim eiro
ĠAT Ãī
ĠAT ENÃĩÃĥO
ĠMin eiro
Ġtoss ir
Ġtoss indo
tiza Ã§Ã£o
Ġdipl om
Ġdipl oma
Ġint uito
Ġint uiÃ§Ã£o
ĠTes oura
Ġalim entando
ĠBei ja
ĠBac kyardigans
ĠBaixa da
Ġsuce ssos
Ġvers ÃŃculo
ĠRon ilson
ĠRou anet
Ġperi quita
Ġdesvi ou
Ġdesaba fo
Ġhol andÃªs
ĠLON G
ĠNOS SO
ĠGas par
ĠGlau ber
ĠGlau tÃª
Ġexam es
Ġexci tado
Ġparceira Ã§o
Ġchil ique
Ġapron tar
Ġescal ado
Ġlav anda
Ġlav abo
Ġforne cedor
Ġimpl antar
Ġimpuls ivo
Ġimpuls iva
Ġcup im
Ġmilit ante
ĠMato ki
Ġsolu cionar
Ġrecor de
Ġrecor rente
Ġespec tador
Ġclar os
Ġdistribu indo
Ġtelef Ã´nica
Ġtelef Ã©rico
ĠSegu ranÃ§a
Ġeleito rado
ĠLaur en
ESS ANDRO
ĠChu pa
Ġdelici oso
Ġvesti dinho
glic emia
Ġmovimenta Ã§Ã£o
discu tindo
Ġcirc uns
Ġemoci ona
Ġemoci onada
Ġindig naÃ§Ã£o
Ġcumpri r
Ġcumpri u
Ġadmira Ã§Ã£o
Ġobservar em
Ġultra passado
ĠSUB IU
ĠJack son
equili brado
Ġatropel ou
ĠÍ¡Â° )
ĠFAZ ER
Ġharmon ia
Ama z
Bus iness
Ci garro
Lis terine
Nar uto
Ofer ece
brin car
credi tÃ¡vel
hid ro
mÃ© ticos
tum bo
ĠQ G
Ġasso prar
Ġcle an
Ġmeli ante
ĠmÃ³r bida
Ġving anÃ§a
Ġdetes to
rec Ã©m
Ġumede cido
Ġtecla dista
Ġesfor Ã§ar
icÃ³ ptero
Ġiogur te
abil itaÃ§Ã£o
Ġenti dade
Ġenvelo pes
Ġacal mar
Ġcond ensado
Ġconfer ida
Ġcontem por
Ġreper tÃ³rio
Ġrebo b
ĠCÃ© lia
ĠCham pions
ĠPOS IÃĩÃĥO
ĠAtlÃ¢n tida
ĠMO ÃĩO
ĠMIL F
ĠDen zel
ĠinÃ© dita
Ġinve josas
Espe cialmente
Ġalc anÃ§a
Ġprem iada
complica da
ĠsuÃŃ Ã§o
ĠRala dinn
ĠVOL TAR
ĠFeito za
Ġdese jos
Ġdesm ai
Ġdescri Ã§Ã£o
Ġdesbloque ar
ĠLar ga
ĠNick elodeon
ĠcardÃŃa co
Ġcoro a
Ġapan hando
ĠalienÃŃ gena
Ġmode los
Pobre zinho
Ġcobi Ã§a
Ġformi gueiro
Ġloop ing
Ġunivers al
ĠPep pa
ĠXer ez
Ġdistan ciamento
Ġespel hado
Ġtelefon ema
ĠGue des
Ġcoch ilo
Maur Ã£o
Explo de
Ġabsor ver
Ġequiv ocada
Ġescondi dinho
Ġmemo rando
Ġantece dÃªncia
Ġtambor im
ĠPEDAL AR
ĠPicci ani
Ġextrem amente
Ġindepend Ãªncia
Ġcategor ia
Ġpatriar cado
Bale ado
Cos play
Ces inha
Fla vÃ£o
Fes tinha
Get Ãºlio
Ina creditÃ¡vel
Jam ir
MÃ© dico
Ner vos
Pes ado
PRO BLEMA
Pff t
Reu ni
Scan er
Tam anho
bun al
econ Ã´mico
fam iliar
gani Ã§ada
iÃ¡ trica
morre ram
pÃº cio
Ġafil hado
teir ista
Ġmio jos
ĠmÃºl tipla
Ġsinu ca
Ġdeter gente
Ġoce ano
Ġousa dia
Ġestri tamente
amas tÃª
Ġloca is
ĠlÃ©sb ica
abra Ã§ado
Ġnaval ha
Ġcontun dentes
Ġcongela dor
Ġrez am
Ġretar dada
Ġemendo u
ĠCrus h
ĠCOL OC
ĠProc on
ĠAvel ar
ĠAdri ana
ĠMala faia
ĠMonte iro
ĠMano el
ĠMUN DO
ĠSamb Ã´
ĠSera sa
ĠSÃ©r via
ĠStel mann
ĠSnow den
Ġamendo im
Ġpapag aio
Ġingre ssos
ĠTre vas
Ġalcool ismo
Engra vi
Ġparano ico
Ġprosse guir
Ġsussur ros
ĠOut look
ĠOlim pÃŃadas
ĠREM ÃīDIO
ĠVO DOL
ĠVÃ¡ rias
ĠFUN DOS
Ġdescre vendo
ĠLG BT
ĠLad en
Ġbody board
izzar ia
Ġhel icÃ³ptero
Ġhero ÃŃna
ĠGlor inha
Compartil ha
Ġelabora r
acab ar
Ġmastur bando
Ġexten so
Ġextor qui
Ġcaris mÃ¡tica
Ġcardi ologista
Ġracioc ÃŃnio
Ġonis ciente
Ġsimpa tias
Alfre d
Ġembrul hando
Ġcrian cinhas
Patr ulha
Ġpresti giar
ĠpolinÃ©s io
ĠfrenÃ© tica
ĠgalÃ¡ xia
Ġintegra l
ĠKara metade
ĠEspÃŃ rita
Ġmaluqui ce
Ġorel hinha
Ġinsalu bridade
ĠCapric Ã³rnio
Ġexplos Ã£o
Perde mos
Valent ina
Ġrique za
Daquele s
Ġafric ana
ĠincÃ³ gnita
Ġautoma ticamente
Ġrefu gia
Ġgrosser ia
TIZAR TE
Ġidentifica Ã§Ã£o
Ġflan elinha
Ġmassage ar
Clara mente
ĠdÃŃz imo
ĠResol ve
Ġaposentado ria
ĠHavai anas
Plan ilha
Ġcostum am
Ġinfecto logista
ĠCAF Ãī
Ġenfren tar
ĠÃįn dia
Disfar Ã§a
Ġescangal hado
obser vando
ĠcÃ´mo da
Ġinaugu rar
Ġanticor po
igofrenÃŃ co
ĠPESSO A
Ġfraudul enta
$$ @
Ema gre
FON E
MÃļS ICA
Olh em
OPERA ÃĩÃĥO
Palha Ã§ada
PrÃ³ xima
Tru co
Tele fone
UEI RAAAA
VIN HETA
ator ze
bÃŃ trio
bron ze
spla ining
yon cÃ©
ĠaÃ© rea
Ġaxi la
ĠaÃ§ou gue
Ġedre dom
Ġecs tasy
Ġpne umonia
Ġcrin ge
Ġcron Ã´metro
Ġnoca ute
Ġmichel ang
Ġslo gan
Ġstil l
Ġdeva ssa
Ġoli va
ĠtÃºm ulo
reoi de
Ġbli tz
ĠbÃ´n us
Ġblor g
ĠbrÃ³ colis
ÃŃcon e
ĠeutanÃ¡s ia
entecos tal
imber ly
Ġidio tas
ĠiPa d
Ġigre jas
Ġenxo fre
Ġendivi dado
Ġconch inha
Ġrecapi tular
ĠCaz arrÃ©
ĠCib ele
ĠClÃ³ vis
ĠCeda e
ĠCPM F
ĠCambo ja
Ġmacro econÃ´mico
ĠPez Ã£o
ĠPOU CO
ĠPene do
ĠPÃºbl ico
vagab unda
ĠAgos tinho
ĠAconte ce
ĠApare cida
ĠMene ghel
ĠMEI O
ĠMut haco
ĠMUI TO
ĠDumon t
ĠSique ira
ĠSmil inguido
Ġpatro a
Ġtubar Ãµes
ĠingÃªn u
Ġinvej osa
Esquer da
ĠTEN HO
ĠTOM AR
Ġsenado res
Ġvizinh anÃ§a
ĠBamb am
ĠBaÃŃ a
ĠBAL ANÃĩ
ĠBAT ER
Ġprecip ÃŃcio
Enton ces
Ġpropos tas
ĠJana ÃŃna
ĠREE IA
ĠFiu k
ĠFinal mente
ĠFrida y
Ġangol anos
Ġpergam inho
Ġterres tre
ĠLEM BRA
ĠLEG AL
ĠhÃ³s tia
ĠhÃ©r nia
ĠNIN GUÃīM
ĠNUN CA
ĠGlÃ¡ ucia
ĠGib son
ĠEif fel
ĠEdÃŃ lson
Ġexchan ger
Ġlitt le
Ġtaquicar dia
ĠapÃªn dice
Ġrapar iga
ligh ting
ĠINT ER
ĠUcr Ã¢nia
iteral mente
ĠPorral heira
Descarre go
duwic z
ĠrÃŃm el
Ġmarquis e
ĠWat son
Ġbeau tiful
Ġembaixa dor
ĠPetrÃ³ polis
ĠPeters burgo
Ġcalend Ã¡rio
ĠdemonÃŃ acos
Legen das
Ġdistin guir
Ġdislex ia
ĠdislÃ© xico
ĠAngÃ© lica
ĠAnnabel le
lestero l
nificar ia
Ġvirgin dade
Ġadvoca cia
ĠSaquar ema
Ġsindica to
Ġsommeli er
Ġnucle ar
ĠEngen haria
ĠvestÃŃ gio
TELE FONE
Ġtriglic er
ĠManches ter
ĠbiquÃŃn i
ĠClaudiom iro
ĠSURU BA
ĠCalathe a
ĠProblematizar te
ĠGreenpe ace
ĠReynol ds
PROBLEMA TIZARTE
" ]
" ..
$ #
% &
% ...
% #@
' re
( ?)
) :
* !
* .
- #
- *
. '
0 2
0 5
1 30
1 50
2 5
2 6
3 00
4 8
4 00
5 9
5 29
6 7
6 47
6 529
7 4
7 8
7 9
7 00
8 5
9 5
; @
? -
? .
? ..
? '',
@ ,
A D
A V
A z
A qu
A ta
A gu
A mo
A ce
A com
A ci
A tor
A cer
A pos
A fo
A aa
A QUE
A ni
A trÃ¡s
A gente
A Ãį
A QUI
A eeee
A venida
A ff
A pren
A gro
A tende
A guar
A tualmente
A aaah
A loÃŃsio
A pagou
A cele
A ristides
A aaaah
A dry
A presenta
B I
B R
B oc
B ara
B un
B ac
B ron
B ern
B OU
B olo
B ingo
B ÃŃblia
B RI
B inge
B ELE
B ÃīM
B ack
B rinca
B loco
B rincadeira
B ARUL
C U
C em
C ir
C amb
C az
C aÃŃ
C oco
C oro
C usta
C Ãį
C EU
C rÃ¡
C OL
C rime
C aixa
C leber
C HE
C RI
C rivella
C reio
C riou
C riar
C oraÃ§Ã£o
C heia
C hernobyl
C ÃŃcero
C uida
C Ã¡rmen
D D
D T
D U
D Ã©
D en
D al
D ÃŃ
D ura
D ig
D entro
D isso
D ÃĬ
D Ãį
D INHA
D ICA
D RI
D endÃª
D emais
E A
E e
E h
E l
E ia
E vi
E con
E TE
E lim
E rupÃ§Ã£o
E BA
E ÃĩA
E veraldo
E logia
E VEL
E zequiel
E ae
F im
F ic
F rio
F ac
F ur
F eira
F esta
F rei
F OR
F AL
F IA
F lu
F AB
F UN
F lamengo
F umo
F inan
F lora
F umar
F antasia
G an
G ri
G ui
G ado
G ala
G Ãªn
G Ã¡s
G AR
G rito
G ilson
G AB
G ENTE
G LE
G ANDO
G RI
G hos
G IU
G rosso
G ENA
G randes
G igante
G abriela
H S
H i
H o
H as
H on
H ab
H ol
H ome
H ES
H OU
H enrique
H istÃ³ria
H ÃŃmen
H PV
H eleninha
I mi
I GU
I vete
I deal
I phone
I ronia
I sabel
I vermectina
J A
J D
J O
J an
J uma
J erson
J ulinho
J ORGE
J ÃļLIA
K Ã¡tia
K elly
K enny
L ei
L ÃŃ
L inha
L ois
L ac
L ele
L ig
L eia
L Ãģ
L enda
L IN
L OS
L aranja
L ÃŃdia
L icitaÃ§Ã£o
L enine
L iteralmente
M c
M Ã¡
M ai
M ic
M Ã´
M anha
M enti
M ani
M AL
M eli
M Ã©dio
M OS
M ilton
M acho
M INHA
M orte
M ÃŃmica
M Ã©re
M andando
M Ã³vel
M ind
M eme
M irra
N ado
N eto
N Ãĩ
N AS
N elly
N Ã£Ã£
N ick
N CIA
N ÃĩA
N elson
N Ã£Ã£o
N Ã£Ã£Ã£o
N nn
N ÃŃvea
N amastÃª
O H
O P
O p
O x
O ss
O ta
O ver
O xe
O OU
O ÃĩA
O JE
O bede
P I
P T
P in
P ri
P ira
P onte
P ÃĶ
P rin
P lu
P OS
P ON
P izza
P ICA
P itoco
P enso
P irulito
R as
R ab
R ui
R ac
R ita
R ON
R aio
R ENDO
R Ã©veillon
R ISA
R enan
R ose
R ELA
R oraima
R ENA
R RADO
S H
S as
S tar
S ora
S ac
S ome
S ula
S iga
S bi
S EN
S pan
S hhh
S ÃŃria
S hhhh
S hhhhh
S ylvana
S potify
S hadowlands
T h
T ro
T ÃŃ
T endo
T hor
T amos
T ico
T ec
T ens
T ÃĶ
T OR
T iÃ£o
T HA
T chu
T ON
T ÃŃm
T inder
T INHA
T endeu
T umb
T INDO
T adinha
T TER
T ung
T JD
U A
U so
U sei
U dy
U AH
U TOS
U haaa
V T
V is
V indo
V ive
V enho
V IA
V EM
V ice
V AS
V endendo
V ejo
V endeu
V isconde
V ÃŃdeo
V ander
V ariante
V ocÃ©
W h
W anessa
W TF
W ork
W esley
W hy
W oW
W herever
W akanda
X I
X X
X i
X er
X Ã´
X OU
X IM
X ororÃ³
Y N
Y a
Y ou
Z er
Z eus
Z ES
Z UEIRAAAA
[ "
a v
a am
a gu
a sse
a ti
a tem
a tivo
a ham
a tiva
a pres
a grade
a tual
a vÃ³
a fora
a final
a juda
a tirando
a parecendo
b le
b la
b es
b ran
b ico
b ria
b li
b Ã¡s
b ista
b ino
b ing
b ulo
b anda
b oro
b anho
b eiros
b Ã´nica
b ranca
b ose
b rincadeira
b icho
b runa
c Ã³
c uma
c rio
c ala
c ris
c res
c hando
c Ãµes
c ÃŃvel
c udo
c rim
c unda
c entar
c umento
c teri
c ind
d Ã£
d Ã©
d le
d Ã´
d Ã¢
d res
d ulo
d Ãªm
d ismo
d ini
d ang
d berg
d xs
e ar
e ss
e tou
e vi
e das
e du
e ing
e tinha
e ws
e bas
e tern
e jas
e vita
e jeira
f r
f Ã£
f Ã¡
f Ãª
f os
f amos
f uma
f ir
f rio
f ac
f res
f ici
f eliz
f ocar
f ende
f antas
f ting
f ados
f usÃ£o
f ry
f iciente
f low
f inados
f lexo
f riou
g m
g to
g ira
g ras
g ana
g Ãµes
g ida
g Ã©s
g rante
g Ã¡ria
g nada
g enas
g Ã¡vel
g icamente
g iram
g lobal
g Ã¢mico
g igante
g bang
g war
h g
h m
h s
h an
h un
h endo
h ento
h ima
h oca
h ante
h uu
h tag
h omossexual
i ou
i gu
i pe
i ten
i dar
i fe
i Ãªncia
i quinho
i tido
i hh
i ssÃ£o
i dir
i vado
i diota
i Ã¡tica
i ere
i ka
i Ã³logo
i ssant
i ous
i gramas
i wi
j is
j inha
j ul
j ica
j uiz
j antar
j este
k en
k an
k ara
k el
k ita
k ay
k Pi
k achu
l r
l do
l in
l inho
l Ã´
l tra
l ista
l anÃ§a
l inhas
l culo
l one
l has
l ocal
l Ã¢mico
l ders
m om
m endo
m ica
m ina
m igo
m ala
m era
m eia
m elho
m inis
m ono
m oniz
m uda
m icos
m orreu
m ÃŃmica
m binho
m amar
m emo
n d
n g
n Ã£
n in
n ei
n es
n Ã³
n go
n el
n il
n ab
n eus
n iz
n ec
n udo
n ecendo
n este
n Ã³is
n izando
n esto
n Ã¡lia
o b
o x
o z
o tos
o bra
o quei
p h
p Ã£
p to
p Ãª
p im
p ina
p ru
p eira
p ano
p rin
p eia
p almente
p Ã©r
p les
p end
p ismo
p inta
p ice
p ene
p iado
p antes
p rÃ©
p endendo
p ulaÃ§Ã£o
p iroca
p tion
p uca
p hia
p enha
p rise
p estade
p hy
p omes
p alavra
r t
r enta
r Ã´n
r ero
r inhas
r Ã©s
r Ãªm
r ros
r culo
r entes
r ich
r Ãªncias
r more
r cuma
s i
s um
s inha
s ir
s tre
s ig
s Ã©rio
s enti
s entar
s omos
s ÃŃmbolo
s enhoras
s ocial
s rsrs
t cha
t ine
t su
t tan
t rito
t tis
t Ã´nia
t Ã´nico
t Ã´nica
t ler
t ulos
t Pass
u e
u er
u Ã³
u indo
u ter
u das
u dinho
u ais
u tico
u ÃŃda
u zz
u ÃŃsio
u rantes
u ega
u tely
u leto
v Ã©
v ento
v ino
v Ãªncia
v inte
v ÃŃn
v antes
v Ã¡rios
v iram
v izou
w Ã¡
w or
w hat
w ear
x is
x os
x inho
x ista
x inar
x ame
x iado
x ono
x imar
x ÃŃlio
x uga
x ang
y n
y ou
y zista
y out
y sandu
z i
z al
z elo
z za
z entÃ£o
z eta
z ismo
z uÃª
Ã ¼
â ĸ
Ġ ui
Ġ imo
Ġ rios
Ġ ze
Ġ **
Ġ ....
Ġ ÃŃm
Ġ QUI
Ġ âĢĵ
Ġ ***
Ġ Entendo
Ġ Â´
Ġ ÃŃcone
qu indo
qu Ãªs
qu antos
qu ash
qu inze
Ġa y
Ġa ri
Ġa ul
Ġa der
Ġa bal
Ġa tr
Ġa ge
Ġa bo
Ġa ura
Ġa du
Ġa res
Ġa rei
Ġa tiva
Ġa quis
Ġa fim
Ġa tua
Ġa jeito
Ġa Ã©re
Ġa deus
Ġa tualmente
Ġa erado
Ġa aaah
Ġa dep
Ġa jeitar
Ġa giota
ra u
ra x
ra ra
ra inha
ra dos
ra bado
ra sado
ra vada
ra dical
ra ka
ra ft
Ġe S
Ġe is
Ġe re
Ġe pi
Ġe reto
Ġe ficÃ¡cia
Ġd Ã´
Ġd ino
Ġd ano
Ġd ane
Ġd enti
Ġd ick
Ġd entistas
Ġd vd
Ġp ru
Ġp lo
Ġp Ãªs
Ġp Ã¡s
Ġp ito
Ġp Ãµ
Ġp lÃ¡
Ġp onde
Ġp ani
Ġp ilha
Ġp icas
Ġp hone
Ġp Ãºl
Ġp entagrama
Ġp ÃŃlula
Ġp izzaria
Ġp neus
Ġc Ã£o
Ġc Ã©
Ġc il
Ġc rio
Ġc ida
Ġc los
Ġc Ã³r
Ġc estÃ£o
Ġc ezar
Ġc antei
Ġc entenas
que t
que ra
que im
que na
que no
que ima
que ja
que ada
que teira
que rida
Ã£o zinha
te ima
te atro
te tive
Ġn Ã¡
Ġn Ãª
Ġn ice
Ġn ight
Ġn ocivo
Ġn irvana
Ġm ia
Ġm ic
Ġm ira
Ġm oi
Ġm ona
Ġm inas
Ġm olo
Ġm ousse
Ġm elodia
do o
do la
do ce
do se
do so
do ria
do gue
do uro
do cumento
Ã© n
Ã© tica
Ã© ramos
Ġs k
Ġs ra
Ġs Ã¡
Ġs as
Ġs is
Ġs tro
Ġs elo
Ġs iga
Ġs aram
Ġs oro
Ġs enten
Ġs ki
Ġs lim
Ġs heila
Ġs low
Ġs lide
Ġs pam
Ġs tory
Ġs well
Ġs idra
Ġs quash
Ġv era
Ġv inda
Ġv Ã©s
Ġv ilÃ£o
Ġv uel
Ġv intage
Ġv rau
ar i
ar ma
ar ezinho
ar ruma
ar quite
ar rasta
ar bÃŃtrio
en i
en tÃ¡
en ce
en cio
en das
en dei
en dem
en dado
en che
en guinho
en cy
en graÃ§a
en didos
en chendo
ss in
ss om
ss um
ss io
ss indo
ss emos
ss ias
ss entinha
Ġque tamina
in de
in em
in Ã³
in ui
in va
in ten
in dade
in no
in fe
in inhas
in ser
in dra
in cen
in tite
in vasivo
in ternacional
Ã¡ h
Ã¡ fo
Ã¡ gio
Ã¡ cido
Ã¡ vamos
Ã¡ gil
or to
or inha
or ido
or don
or niano
er Ã©
er ia
er var
er Ã¡rio
er Ãªncia
er sÃ£o
er eca
er osa
er erÃª
Ġf an
Ġf om
Ġf le
Ġf Ã³
Ġf ul
Ġf ina
Ġf anto
Ġf ee
Ġf Ãªm
Ġf rios
Ġf lamengo
Ġf antÃ¡stico
Ġf lash
Ġf lying
Ġf ocado
Ġf ashion
Ġf iadora
Ġde b
Ġde ra
Ġde mente
Ġde ba
Ġde fe
Ġde cha
Ġde forma
Ġde vas
Ġde cida
Ġde dada
Ġde claro
Ġde lito
Ġde cente
Ġde tonar
Ġde colar
to a
to v
to ral
to mei
to lis
to ssindo
Ġo ssa
Ġo ba
Ġo rar
Ġo tima
Ġo cas
Ġo ssos
Ġo oooo
Ġo este
Ġo posiÃ§Ã£o
Ġo cular
Ġo usada
an ar
an go
an tra
an dar
an ista
an jo
an dinho
an ula
an Ã©r
an gos
an col
an has
an esa
an Ãºn
an ny
an dez
an dira
om Ã£o
om bra
om Ã¢n
om brada
om bose
um inho
um ano
um ÃŃnio
um ores
um idaÃ§o
al de
al ia
al vo
al izado
al erta
al arme
Ãª bada
Ġt v
Ġt un
Ġt amos
Ġt Ãº
Ġt igo
Ġt aro
Ġt cha
Ġt hou
Ġt inder
Ġt anan
Ġt rones
Ġt here
oc io
oc ris
oc ÃŃlia
oc aram
oc ion
oc rÃ¡
oc ados
oc ambo
ĠÃ© h
ĠÃ© tica
ĠÃ© tico
ĠÃ© Ã©Ã©
as y
as min
as tPass
is Ã£o
is tido
is tinha
is tia
is ola
is tÃŃssimo
is pru
re Ã³
re ac
re ad
re fei
re duz
re pou
re cep
re viver
re moto
re ssant
re lla
da y
da is
da ma
da va
da ir
da gio
ro y
ro de
ro quina
ro gas
ro quinha
ro logista
ta to
ta deira
de co
de pi
de cha
de via
de vido
de irinha
de lis
de tta
de partamento
de mora
ho tel
ho sos
ho pping
ho lders
... (
... ",
ha o
ha ter
ha das
ha mos
em i
em p
em pa
em plo
em inis
em bora
em inaÃ§Ã£o
em brulha
on y
on der
on jo
on entes
on line
on aria
on omatop
Ġte ia
Ġte las
Ġte linha
Ġb ou
Ġb la
Ġb ois
Ġb ica
Ġb ens
Ġb ula
Ġb erra
Ġb zz
Ġb Ãºl
Ġb und
Ġb runa
Ġb ÃªnÃ§Ã£o
ei Ã³
ei Ã§Ã£o
ei tando
ei res
ei reiro
ei don
os h
os tamento
Ġes gu
Ġes po
Ġes mo
Ġes gar
Ġes no
Ġes tes
Ġes far
Ġes mal
Ġes ganiÃ§ada
ou los
ou rinho
ou rÃ£o
ou rinha
ou ld
ou viu
ou nt
Ġg amb
Ġg ana
Ġg ala
Ġg usta
Ġg ent
Ġg emas
Ġg inga
Ġg estaÃ§Ã£o
Ġg irl
Ġg uloso
Ġg roselha
Ġg ourmet
ÃŃ ra
ÃŃ qui
ÃŃ sse
ÃŃ ca
ÃŃ za
ÃŃ fer
ÃŃ ram
ÃŃ ns
ÃŃ tico
ÃŃ ola
ÃŃ cito
ÃŃ cius
ÃŃ geno
ia pismo
Ġeu for
sso almente
eu r
eu ra
le e
le z
le ra
le Ã£o
le tivo
le ase
le vanta
le lÃª
ente nde
qui tÃ£o
qui tos
qui tinha
qui lÃ£o
qui rana
ai t
ai re
ai de
ai tÃ¡
ai ti
ai xe
im al
im as
im da
im pe
im bo
im ita
im Ã´nio
im entando
im entou
im estre
im entinho
im irim
ara l
ara ÃŃ
ara ma
ara dinha
ara jÃ©
Ġcom es
Ġcom pi
Ġcom pos
Ġcom parou
Ġcom Ã©rcio
Ġcom entado
Ġcom pac
Ġcom plicar
Ġcom itÃª
Ġcom paraÃ§Ã£o
ic ÃŃ
ic ol
ic ica
ic lo
ic repe
Ã§ al
Ã§ udo
Ã§ áº½
la c
la m
la x
la tra
la Ã§o
la mar
la deira
es pe
es no
es con
es quer
es tica
es taria
es cre
es tim
es quis
es cada
es fre
es cal
es cida
es palha
es tranho
es frega
es tiver
es corre
Ã³ quei
Ã³ tica
Ã³ dr
Ã³ rios
Ã³ fil
Ã³ rica
Ã³ leo
Ã³ lace
Ã³ polis
am Ã¡
am er
am il
am ante
am ÃŃb
am igÃ£o
Ġi h
Ġi i
Ġi de
Ġi di
Ġi tin
Ġi phone
Ġi Tumb
Ġl Ã©
Ġl os
Ġl ia
Ġl ente
Ġl un
Ġl us
Ġl ima
Ġl inhas
Ġl isa
Ġl ombo
Eu u
Ãī U
Ãī ee
Ãī rico
Ãī ramos
ri de
ri Ã§o
ri dinho
ri tinha
ri fÃŃcio
ri ble
ri quitinha
Ġno tou
Ġno tic
Ġno tifica
Ġno itada
Ġno od
Ġno ivado
Ġdo o
Ġdo bra
Ġdo lor
Ġdo entes
Ġdo wn
Ġdo dÃ³i
go to
go as
go tÃ¡
el f
el ga
el se
el lo
el ido
el ing
el hinho
el hante
tÃ¡ veis
gu Ã¡
gu as
gu ÃŃ
gu il
gu era
gu inhas
gu lhar
il ando
il inho
il iado
il eide
il ares
il oche
Ġpor os
Ġpor tÃ£o
Ġpor tando
Ġpor centa
Ġpor quinhos
Ġtem e
ab ares
ab erta
ab erto
ssa indo
ssa uro
Qu inta
Qu ie
Qu atorze
inha is
ol in
ol la
ol li
ol hei
Ġna dou
Ġna taÃ§Ã£o
Ġna quilo
Ġda d
Ġda das
Ġfa da
Ġfa tura
Ġfa una
Ġfa chada
Ġfal ir
Ġfal tei
Ġfal tam
Ġfal ida
Ġfal sificar
Ġfal ocÃªn
Ġse quela
Ġse quinha
Ġse jam
Ġse duzir
Ġse dan
Ġse vero
un e
un ia
un das
un tÃ¡rio
Ġen v
Ġen ri
Ġen sa
Ġen ig
Ġen cha
Ġen via
Ġen tros
Ġen sab
Ġen terra
Ġen tanto
Ġen quete
Ġen comendo
Ġen viou
Ġac ne
Ġac abe
Ġac ele
Ġac Ãºs
Ġac endendo
Ġac eso
Ġac rÃ©s
Ġac uer
Ġac ostamento
Ġac arajÃ©
Ġj er
Ġj ente
Ġj ui
Ġj et
Ġj antei
sse d
ga u
ga sse
ga tas
ga yzista
Ġvai ando
ul u
ul tura
ul fo
Ġcon sa
Ġcon je
Ġcon dÃ£o
Ġcon vida
Ġcon ting
Ġcon dicion
Ġcon tamina
Ġcon forme
Ġcon ferir
Ġcon creto
Ġcon ges
Ġcon tornar
Ġre ab
Ġre tÃ£o
Ġre pa
Ġre po
Ġre gar
Ġre Ãº
Ġre pre
Ġre ju
Ġre ite
Ġre vis
Ġre cl
Ġre gre
Ġre gi
Ġre tic
Ġre bar
Ġre fil
Ġre log
Ġre volta
Ġre toma
Ġre passando
Ġre jun
Ġre bel
Ġre daÃ§Ã£o
Ġre pito
Ġre gular
Ġre voluÃ§Ã£o
Ġre trato
Ġre dimir
Ġre instalar
Ġre ssal
Ġre abilitaÃ§Ã£o
Ġre gatas
Ġpe co
Ġpe pe
Ġpe des
Ġpe ssim
Ġpe dro
Ġpe tralha
Ġpe trÃ³leo
Ġpe ople
Ġpe drinhas
Ġpe eling
di e
di ando
di ri
di tos
di antes
di dÃŃ
di versidade
Ġem as
Ġem pe
Ġem bri
Ġem ba
Ġem enda
Ġem pan
Ġem pla
Ġem patia
ĠC C
ĠC R
ĠC V
ĠC ei
ĠC os
ĠC onte
ĠC har
ĠC ano
ĠC ÃŃn
ĠC ane
ĠC onde
ĠC ER
ĠC OR
ĠC IN
ĠC OC
ĠC aso
ĠC EL
ĠC inder
ĠC aixa
ĠC roc
ĠC iro
ĠC idadÃ£o
ĠC ocÃ´
ĠC lash
ĠC HU
ĠC ÃŃcero
ĠC leyton
ĠC ÃīU
ĠC ileide
ui va
Ġma ga
Ġma us
Ġma ke
Ġma uro
Ġma Ã§ar
Ġma gos
Ġma gro
Ġma tern
Ġma ker
Ġma goa
Ġma jestade
Ġma tinal
Ġma cumba
ĠP C
ĠP H
ĠP eu
ĠP ri
ĠP un
ĠP ul
ĠP ica
ĠP onte
ĠP ens
ĠP inheiro
ĠP Ã´n
ĠP ing
ĠP aram
ĠP Ãĵ
ĠP ensa
ĠP aran
ĠP erson
ĠP AS
ĠP ilha
ĠP rior
ĠP Ãµe
ĠP este
ĠP ior
ĠP uxa
ĠP rome
ĠP onto
ĠP ong
ĠP ulei
ĠP elÃ©
ĠP SOL
ĠP ilares
ĠP inhais
ĠestÃ¡ vel
ĠestÃ¡ dios
he w
he tinha
he teria
ma u
ma te
ma to
ma ta
ma tou
ma con
ma uro
ma cho
ma tch
ma cy
ma king
ma dal
ma ssagem
va is
va ga
va dos
va dinho
va Ã§Ãµes
va zio
ĠA F
ĠA N
ĠA z
ĠA di
ĠA tra
ĠA Ã§Ã£o
ĠA ir
ĠA me
ĠA tor
ĠA per
ĠA vil
ĠA lÃ¡
ĠA AA
ĠA be
ĠA ER
ĠA gente
ĠA ze
ĠA dis
ĠA ssem
ĠA fu
ĠA deus
ĠA Ã§aÃŃ
ĠA PR
ĠA del
ĠA irl
ĠA NDA
ĠA didas
ĠA AAAH
ĠA HHH
ĠA pagou
ĠA NOS
ĠA ssis
ĠA TRAS
ĠA tibaia
ĠA dagio
ĠM S
ĠM ic
ĠM ando
ĠM ira
ĠM eio
ĠM aro
ĠM Ãºs
ĠM ÃĥO
ĠM IN
ĠM MA
ĠM esmo
ĠM Ã©dia
ĠM och
ĠM Ã£es
ĠM AC
ĠM eme
ĠM inan
ĠM unho
ĠM ensagem
ĠM udanÃ§a
ĠM ÃĥÃĥÃĥÃĥ
ĠM eires
ĠM ourÃ£o
ĠD in
ĠD os
ĠD ez
ĠD oi
ĠD entro
ĠD AR
ĠD OS
ĠD oce
ĠD ON
ĠD ance
ĠD entista
ĠD Ãļ
ĠD ISSO
ĠD IZ
ĠD onald
ĠD ST
ĠD roga
ĠD hom
ĠD amaris
ĠD rogas
Ġme dir
Ġme che
Ġme ans
Ġme tralhadora
Ġme dalha
tar e
tar ias
Ġfo di
Ġfo das
Ġfo guei
Ġfo tinha
Ġfo quinha
Ġfo finha
Ġfo finho
Ġfo od
Ġto o
Ġto le
Ġto ur
Ġto cha
Ġto quinho
Ġto ns
Ġto cado
Ġto cante
Ġto param
pa te
pa is
pa ce
pa dos
pa tinho
pa gan
pa drÃ£o
pa pÃ£o
pa quito
ti Ã£o
ti to
ti ri
ti ga
ti tas
ti rei
ti pas
ti jÃ£o
ti ficante
ti queira
ti zado
ti zei
ti zante
ti olli
Ã´ o
Ã´ menos
ĠS te
ĠS ha
ĠS ente
ĠS uma
ĠS oca
ĠS and
ĠS id
ĠS aÃŃ
ĠS tan
ĠS AL
ĠS can
ĠS acanagem
ĠS col
ĠS hhh
ĠS amba
ĠS AC
ĠS tand
ĠS umiu
ĠS wee
ĠS ssss
ĠS IDO
ĠS hadowlands
ĠS abatella
ĠS TJD
ĠS pice
ĠS hopping
Ġele tri
Ġele vado
Ġele gante
us h
us os
us am
us co
us ion
us tta
us tÃŃvel
Ġam os
Ġam ena
Ġam anha
Ġam ostra
Ġam pli
Ġam pola
Ġam uleto
tra tou
tra ve
tra dos
tra dor
tra tivo
tra dicional
io late
io vani
Ġdi ar
Ġdi la
Ġdi va
Ġdi visÃ£o
Ġdi vido
Ġdi vir
Ġdi alo
Ġdi aria
Ġdi tador
Ġdi arre
Ġdi arista
Ġdi gerir
Ġpo h
Ġpo ha
Ġpo ia
Ġpo tÃ£o
Ġpo Ã§o
Ġpo ema
Ġpo drÃ£o
Ġpo emas
Ġpo tente
Ġpo od
Ġpo int
Ġcara i
Ġcara lh
ica do
Ġpa d
Ġpa us
Ġpa ca
Ġpa ci
Ġpa tinho
Ġpa ula
Ġpa ck
Ġpa garam
Ġpa usado
Ġpa tins
Ġpa ulada
Ġpa ciente
ĠnÃ© goc
Ġtu torial
Ġin com
Ġin ci
Ġin sa
Ġin gra
Ġin tr
Ġin dio
Ġin dia
Ġin forme
Ġin segura
Ġin clusÃ£o
Ġin ace
Ġin chada
Ġin seguro
Ġin seguranÃ§a
Ġin ocentes
Ġin tac
Ġin justiÃ§a
Es tra
Es tica
Es cre
Es porte
ĠT ar
ĠT al
ĠT ic
ĠT ac
ĠT oca
ĠT rou
ĠT hat
ĠT iÃ£o
ĠT che
ĠT ap
ĠT IA
ĠT OU
ĠT entando
ĠT erm
ĠT AB
ĠT ranca
ĠT ang
ĠT RAN
ĠT ouro
ĠT ili
ca dÃ£o
ca ke
ca use
Ġsen tando
Ġsen tia
Ġsen su
Ġvi ro
Ġvi sse
Ġvi ru
Ġvi ria
Ġvi tr
Ġvi tam
Ġvi tal
Ġvi rem
Ġvi vem
Ġvi vos
Ġvi tim
Ġvi brar
Ġvi tÃ³rias
Ġvi vidÃ£o
Ġvi gil
Ġvi ews
Ã§a dÃ£o
co a
co zinha
co pan
co vado
co brimento
Ġal Ã§a
Ġal tas
Ġal var
Ġal imento
Ġal tinha
Ġal una
Ġal tÃŃ
Ġal uga
Ġal terna
Ġal icate
Ġal bino
Ġal umÃŃnio
ĠlÃ¡ bio
ĠlÃ¡ bia
ĠB in
ĠB ran
ĠB Ãº
ĠB ira
ĠB oca
ĠB ito
ĠB rando
ĠB enta
ĠB and
ĠB ron
ĠB acana
ĠB ib
ĠB rito
ĠB ene
ĠB AN
ĠB olo
ĠB ono
ĠB ach
ĠB AI
ĠB abaca
ĠB ell
ĠB ut
ĠB itcoin
ĠB orra
ĠB ambi
ĠB lan
ĠB UNDA
ĠB renda
ĠB ENE
ĠB oulos
amos os
ran g
ran o
ran s
ran cel
Que brou
lha do
po ssa
po xa
po bre
po dendo
po ssi
Ġpre go
Ġpre ca
Ġpre gar
Ġpre tÃ©
Ġpre za
Ġpre ssas
Ġpre ze
Ġpre garam
Ġpre guinha
Ġpre parou
Ġpre cipi
Ġpre cioso
Ġpre fira
Ġpre ssis
Ġpre ssionar
Ġpre pÃºcio
mo le
mo leque
ve ra
ve ado
ve za
ce dida
ce ssÃŃvel
En fer
En car
En costa
pe x
pe Ã£
pe to
pe go
pe zinha
pe les
pe rante
pe dito
pe tista
pe trÃ³leo
pe quenas
pe quena
Por n
Por nografia
com bo
com Ã©dia
com ple
com unista
Ġass ento
Ġass usta
Ġass inou
Ġass inado
Ġass ume
Ġass umo
Ġass umiu
Ġass embleia
Ġass ombra
Ġpara m
Ġpara que
Ġpara va
Ġpara ram
Ġpara dinhas
Ġpara nÃ³
Ġcois o
Ġpro vol
Ġpro ximo
Ġpro pon
Ġpro posto
Ġpro fun
Ġpro jÃ©
Ġpro gramas
Ġpro tagon
Ġpro pagan
ten s
ten tou
ten deu
ten tes
ten ada
ten ham
ten cou
Ġsab ado
Ġsab one
Ġsu ar
Ġsu ei
Ġsu jando
Ġsu vaco
Ġsu pri
Ġsu jeira
Ġsu cata
tro se
Ġver i
Ġver y
Ġver ba
Ġver bo
Ġver dinho
Ġver bas
Ġver sus
Ġver niz
Ġou t
ĠJ E
ĠJ ur
ĠJ unto
ĠJ uiz
ĠJ BL
ĠJ umanji
ĠJ abu
ĠJ ORGE
gar o
gar Ã§om
Ġmes ada
Ġmes trado
pra quele
pra ticamente
ĠO b
ĠO f
ĠO que
ĠO vo
ĠO ba
ĠO ne
ĠO fer
ĠO AB
ĠO briga
ĠO peraÃ§Ã£o
ĠO dair
ĠR J
ĠR Ã©
ĠR en
ĠR as
ĠR ab
ĠR Ã´
ĠR ico
ĠR aÃŃ
ĠR OU
ĠR ich
ĠR AS
ĠR abel
ĠR isadas
ĠR ider
ĠR alf
ĠV im
ĠV inha
ĠV indo
ĠV ala
ĠV ida
ĠV it
ĠV las
ĠV ane
ĠV EN
ĠV ÃĬ
ĠV ende
ĠV Ã¡rios
ĠV ÃŃdeo
ĠV ladimir
ĠV ilhena
ĠV HS
ĠV Ã´o
ci que
ci ante
ci tando
ci tos
ci das
ci fer
ci ano
ci enti
ci Ã¡ria
por Ã³
por tuguÃªs
Ġser mos
Ġser rar
Ġser gio
Ġser ral
Ġser vindo
Ãº da
Ãº ma
Ãº na
Ãº jo
Ãº cula
ĠF E
ĠF an
ĠF Ãª
ĠF el
ĠF ina
ĠF ac
ĠF ico
ĠF lo
ĠF orm
ĠF anta
ĠF ron
ĠF IN
ĠF ly
ĠF irma
ĠF ique
ĠF ORA
ĠF inge
ĠF ull
ĠF rozen
ĠF ashion
ĠF EZ
ĠF ICAR
ĠF RUTA
ĠF undaÃ§Ã£o
ĠF BI
ĠF astPass
ĠF amosos
Ġan t
Ġan ta
Ġan de
Ġan Ãµes
Ġan ular
Ġan dei
Ġan cho
Ġan imar
Ġan tÃ´nio
Ġan jinho
Ġan arri
Ġan gus
Ġan unci
Ġan tena
Ġan tenada
uma cher
Ġper sa
Ġper dia
Ġper forma
Ġper vertido
Ġper ebas
ina fre
Ġestou ro
Ġestou rando
ir inhas
Ġdes as
Ġdes ca
Ġdes tro
Ġdes gar
Ġdes ci
Ġdes ento
Ġdes cia
Ġdes pro
Ġdes cara
Ġdes fal
Ġdes tina
Ġdes uso
Ġdes pes
Ġdes cem
Ġdes gosto
Ġdes pedir
Ġdes erta
Ġdes pedindo
Ġdes tron
Ġdes equi
Ġdes pen
Ġdes istiu
Ġdes equili
Ġdes necessÃ¡rio
Ġdes mutar
Ġdes umano
amb ai
vo te
vo tei
vo quei
vo Ã§áº½
Ġne w
Ġne ta
Ġne on
Ġne ca
Ġne gado
Ġne tos
Ġne ed
Ġter rÃŃvel
Ġter iam
Ġter Ã§os
Ġca go
Ġca sse
Ġca co
Ġca dar
Ġca tei
Ġca ju
Ġca fa
Ġca cos
Ġca gue
Ġca pan
Ġca ssar
Ġca tin
Ġca gam
Ġca fun
Ġca ÃŃda
Ġca pÃ´
Ġca peta
Ġca cau
Ġca piro
Ġca usada
Ġca usados
Ġca cto
Ġca xang
Ġho t
Ġho w
Ġho tÃ©
Ġho bby
na is
na dos
na tal
na cional
na dores
na firma
pre ss
pre so
pre fer
pre feito
pre endente
pre feria
ĠL A
ĠL as
ĠL ois
ĠL ine
ĠL ee
ĠL ost
ĠL ock
ĠL UTA
ĠL argo
ĠL izete
ĠL IGA
ĠL enine
ĠL amen
ĠL OP
Ġbo t
Ġbo ome
Ġbo tam
Ġbo fe
Ġbo xe
Ġbo ther
Ġbo juda
Ġbo tÃµes
Ġbo bÃ³
Ġbo icote
Ġbo tijÃ£o
Ġbom bei
Ġbom binha
Ġten deu
Ġten tem
Ġten dÃªncias
se xo
se ques
se dÃªncia
se ssenta
iz i
iz Ã£o
iz amos
ira s
Ġcas aram
Ġcas tan
Ġcas tanha
Ġcas calho
Ġh Ã£
Ġh al
Ġh as
Ġh im
Ġh Ã´
Ġh ema
Ġh ans
Ġh emo
ĠN ig
ĠN az
ĠN essa
ĠN ive
ĠN amora
ĠN ÃĥÃĥ
ĠN ilma
ĠN uno
ĠN enÃ©m
ĠN euza
ĠN ULO
ĠN ÃĥÃĥO
ĠN eusa
ĠN inno
ĠN alde
ĠN amÃŃb
tu as
tu da
tu la
tu ca
tu rando
tu des
tu cando
tu cho
tu bar
tu rÃ£o
tu ps
tu tti
ĠG G
ĠG Q
ĠG un
ĠG ina
ĠG ram
ĠG Ã¡s
ĠG ula
ĠG RA
ĠG anho
ĠG estÃ£o
ĠG ilson
ĠG ide
ĠG OO
ĠG mail
ĠG rupo
ĠG lock
ĠG eis
ĠG randes
ĠG roselha
ĠG ourmet
ĠG eovani
ĠG VT
ĠG kay
ĠG ordon
ĠE h
ĠE co
ĠE ba
ĠE sses
ĠE dir
ĠE ric
ĠE lis
ĠE DI
ĠE terno
ĠE loÃ¡
ĠE tiÃ³pia
ĠE RRADO
ver se
ver ino
ver ine
ver tÃªncia
ver pool
sa co
sa ke
sa udÃ¡vel
Ġfil m
Ġfil oso
Ġfil hÃ£o
Ã§o la
Ã§o es
no t
no Ã£
no va
no ve
no grama
no vela
no ssos
no tÃŃcia
no vamente
Com i
Com endo
Com pro
Com pan
Com ecei
ru im
ru ama
ru aÃ§a
Ġfalar emos
der ou
der oso
der nar
Ġtra tou
Ġtra lha
Ġtra mas
Ġtra ge
Ġtra vado
Ġtra vada
Ġtra duÃ§Ã£o
Ġtra iner
tÃ© rios
tÃ© cn
tÃ© lites
ora da
ora ma
Ġpr Ã¡ticas
Ġpr iapismo
Ġsei o
Ġsei ta
ac ei
ac res
ac ost
Ġmas ti
Ġex al
Ġex tro
Ġex cre
Ġex pel
Ġex cep
Ġex term
Ġex tensÃ£o
ter remoto
Ġcar Ãªncia
Ġcar inhas
Ġcar cum
Ġcar comida
Ġcar Ã¡ter
Ġcar caÃ§a
Ġcar cunda
Ġpar em
Ġpar ir
Ġpar me
Ġpar ecem
Ġpar lamentar
vi al
vi dos
vi rando
vi ano
vi rei
vi dando
vi via
vi dro
vi dado
vi vendo
vi vas
vi vier
vi dual
ez as
ez ers
icar dinho
lo vers
lo tti
Ġsem anal
Ġsem elhante
Ġle t
Ġle al
Ġle ram
Ġle tr
Ġle tal
Ġle trei
cul ano
cul ares
Ġli do
Ġli da
Ġli tro
Ġli tr
Ġli bre
Ġli fe
Ġli dando
Ġli garam
Ġli gamento
Ġli ght
Ġli fting
Ġli toral
mas cul
ana uÃª
ĠÃ³ tica
ĠÃ³ timas
Tem peros
ala da
Se ca
Se bÃ¡
bri d
bri l
her o
her es
her ne
je ta
je jum
Ġmen opa
Ġmen diga
ur y
ur inha
ur inho
ur Ã´
ur sado
ur sos
con tar
con ec
con ge
con ven
con tigo
con ser
con fun
con forme
con ceito
con firma
con corda
uta Ã§Ã£o
Ġmim o
Ġenten desse
Ġesta t
Ġesta dos
so b
so la
so pro
ria m
Ġcasa sse
Ġsegu iu
Ġsegu rei
Ġsegu idos
Ġsegu iram
Ġche es
Ġche gada
Ġche gue
Ġche ck
Ġche gam
Ġche etos
ba g
ba u
ba que
Ġman to
Ġman de
Ġman us
Ġman gue
Ġman dal
Ġman eir
Ġman ÃŃaco
Ġman splaining
Ġnada va
Ġnada dor
Ġar der
Ġar car
Ġar rom
Ġar tim
Ġar minha
Ġar tigo
Ġar dÃªncia
Ġar ticular
Ġar gila
Ġar tilheiro
Ġar rasado
Ġar trose
Ġar ruaÃ§a
Ġsua da
Ġhe teron
Ġhe patite
Ġprecis amente
mar ia
mar iam
mar telo
Ġta xas
Ġta tame
Ġta xista
Ġas pira
Ġas trona
Ġas queroso
Ġas iÃ¡tica
rou pa
rou bar
Ġch i
Ġch oca
Ġch art
Ġch ocola
Ġch imarrÃ£o
Ġdia bÃ©
Ġdia gon
Ġcha t
Ġcha mas
Ġcha tas
Ġcha gas
Ġcha pel
Ġcha pado
Ġcha far
Ġcha ssi
Ġcha coalha
Ġres er
Ġres ga
Ġres ul
Ġres enh
Ġres umir
Ġres isti
Ġres istiu
ber ibe
ber tadores
Ġdar k
Ġdar Ã¡
Ġmer e
Ġmer o
Ġmer ito
dar es
me te
me ter
me lete
me xeu
me tragem
me diÃ¡rio
bal l
bal ife
Ġcor in
Ġcor na
Ġcor tante
Ġcor rom
Ġcor taram
Ġcor pinho
Ġcor onha
Ġcor rimento
Ġcor respon
Ġcor onhada
Ġap u
Ġap Ã³
Ġap imenta
Ġap anhou
Ġap urada
Ġap itou
Ġesc ar
Ġesc urinho
eito nas
Ġcer tos
Ġcer cada
Ġcer tificado
Ġcer imÃ´nia
tor m
tor pec
Ġti ene
Ġti vemos
Ġti tila
Tu as
Tu pperware
Ġra m
Ġra r
Ġra to
Ġra ia
Ġra ja
Ġra fa
Ġra dica
ĠÃ ļ
ec k
ec Ã£o
ec os
ec ando
ec ologista
ec raft
Ġtr Ã¡
Ġtr end
Ġtr ombose
Ġtr istÃŃssimo
Ġsa inha
Ġsa gra
Ġsa iam
Ġsa fra
Ġsa vero
Ġsa fadeza
Ġsa tÃ¢nica
Ġsa fados
Ġsa tÃ©lites
Ġsai d
Ġali enaÃ§Ã£o
Ġali viar
gem idos
gra Ã§Ã£o
li x
li ss
li an
li gado
li ber
li xo
li onato
li berar
per di
per ce
per dendo
per tador
per nil
Ãªn us
pi e
pi re
pi rou
pi das
pi tam
pi ano
pi ros
pi olhinho
inda da
ĠI ara
ĠI dade
ĠI hh
ĠI sto
ĠI GU
ĠI eman
ĠI noÃ£
Ġjo gue
Ġla gar
Ġla Ã§o
Ġla je
Ġla vou
Ġla taria
Ġla van
Ġla guinho
Ġla cra
Ġla gosta
Ġla grima
Ġla yout
Ġtempo radas
Ġon colo
Ġtrabal hinho
Ġtrabal hista
bra ba
Ġfala da
ja t
ja vali
Ġpou pa
Ġcan tou
Ġcan tos
Ġcan cer
Ġcan sou
Ġcan etas
Ġcan etou
Ġcan jica
Ġcan didÃŃ
Ġvol tem
Ġvol tado
Ġvol Ã¡til
Ġvol untÃ¡rio
aro la
ĠMar t
ĠMar Ã©
ĠMar inha
ĠMar inho
ĠMar Ã§o
ĠMar quei
ĠMar tinha
ĠMar ias
ĠMar roc
ĠMar rone
ne le
ne la
ne gro
Ġmo b
Ġmo er
Ġmo der
Ġmo bi
Ġmo zÃ£o
Ġmo dal
Ġmo bilidade
Ġmo rango
Ġmo biliza
Ġmo edas
Ġso la
Ġso am
Ġso fa
Ġso zinhas
Ġmor de
Ġmor ou
Ġmor na
Ġmor rem
abe to
Ġcome ti
Ġcome dinha
Ġcome diantes
Ġaque cer
Po w
Po eta
Po tira
Po tente
Po wer
Ġfavor ita
De sse
De vo
De tal
De ssas
De veria
fer enÃ§a
ram bo
tr ui
tr ico
tr ing
tr inhas
tr inta
tr uiu
tr ocando
tr Ã¡fico
tr Ã¡fo
bl b
bl blb
bo to
bo om
bo tei
bo tava
SÃ³ dio
Ã¢ o
Ã¢ mo
Ã¡s io
Ã¡s ticas
ĠU i
ĠU mas
ĠU TI
ĠU eslei
ĠU ltra
cer e
cer to
cer tinho
cer teza
cer veja
ris a
ris te
ris cado
ris alho
ju ro
ju bÃ¡
Ġco ver
Ġco tas
Ġco rante
Ġco ice
Ġco Ã§ando
Ġco pia
Ġco brou
Ġco pinho
Ġco xas
Ġco turno
Ġco opera
Ġco tidi
Ġco lesterol
Ġco fres
Ġco erÃªncia
Ġco vidado
gal Ã´
bre ch
ura r
ura lidade
Ac or
Ac hando
Ac ende
Ġpass amos
Ġpass ion
Quer emos
Ġneg ras
tÃ³ lica
tÃ³ grafo
tÃ³ gono
vel ho
No ve
No emia
Ġfica sse
Ġmal ÃŃcia
Ġmal zÃ£o
Ġmal andra
Ġmal dita
Ġmal abares
ĠH A
ĠH B
ĠH an
ĠH is
ĠH ora
ĠH ino
ĠH orm
ĠH ern
ĠH OR
ĠH ass
ĠH UN
ĠH orrÃŃvel
ĠH BO
ĠH IV
ĠH IP
ĠH iros
ĠH addad
ĠH OJE
ĠH aiti
Ġcam pos
Ġcam inhos
Ġcam elos
Ġcam uf
segu i
Ġvem os
Ġaconte Ã§a
Ġba to
Ġba cia
Ġba tido
Ġba tida
Ġba hia
Ġba derna
Ġba unilha
ĠPor ca
ĠPor tuguÃªs
ĠPor tiolli
Ġro las
Ġro dinha
Ġro sado
Ġro lÃªs
Ġro dÃŃzio
Ġro teirista
jo ta
jo ia
jo gou
jo guei
jo elho
Ġfor em
Ġfor tinho
Ġfor tal
Ġfor tes
Ġfor Ã§ou
Ġfor mou
Ġverdade s
Ġim undo
Ġim per
Ġim ita
Ġim par
Ġim pÃµe
Ġim itei
Ġim postos
Ġim pulso
Ġim ersÃ£o
Ġim possi
var d
gun Ã§a
ig n
ig oso
ig rantes
car b
car Ã¡
car ro
car inha
car ona
car teira
car Ã¡ter
tam inho
tam anho
Des pa
Des tro
Des cul
Des con
Des truir
Des isti
Des equilibrado
ita dinha
Ġus amos
Ġus ted
du o
du ca
du ras
du rou
du tos
du vido
inu ÃŃda
Ġban gu
Ġban hei
Ġban cando
Ġban dana
Ġban cÃ¡rio
ÃĶ oo
tal ina
tal gia
fa vela
Ġlu cha
hei rinho
Ġsim pl
Ġsim ula
Ġboa tos
Ġaju dinha
Ġaju dante
fe tinha
Ġr enas
Ġr rr
Ġr unning
Ġr srsrs
Ġr umores
Ġr ocambo
Ġr ush
res to
res ta
res piraÃ§Ã£o
res trito
Ã³s nia
tes oura
Ġmar i
Ġmar ta
Ġmar cha
Ġmar cando
Ġmar gina
Ġmar idos
Ġmar cam
Ġmar cante
Ġmar cen
Ġmar chas
Ġmar rento
Ġmar tini
Ġmar roquina
Ġconhe Ã§a
Ġconhe cida
Ġconhe cemos
Ġacha mos
Ġacha vam
pl ane
Ġpens Ã£o
Ġpens Ã¡vamos
Ġtran so
Ġtran ssexual
Estou rou
'' ...
des con
des cu
des espera
des truir
des enro
des necessÃ¡rio
Al l
Al Ã¡
Al dir
Al mir
Al erta
Al fas
Al godÃ£o
Al moÃ§o
Al fac
Ġcu t
Ġcu ica
Ġcu rei
Ġcu cara
Ġcu tÃŃcula
Ġcu ÃŃca
Ġcol ou
Ġcol inho
Ġcol Ã´nia
Ġcol chÃ£o
ĠW ern
ĠW atch
ĠW oW
ĠW yl
ĠW ander
ĠW eek
enta o
ino duto
ĠQue brada
ĠTÃ¡ xi
Me do
Me ta
Me tade
ĠBrasil eir
cha to
cha ve
cha mando
cha mento
cha mei
cha mbinho
Ġru ins
Ġru elas
ais on
Ġsaber Ã¡
son al
son arista
ch in
ch eira
ch ior
ch imbo
dia do
dia ÃŃ
Ġgra f
Ġgra de
Ġgra vou
Ġgra vada
Ġgra Ãºdo
Ġgra tificante
par te
par to
par ente
par tici
?! )
ĠPa to
ĠPa go
ĠPa ul
ĠPa ssos
ĠPa ola
ĠPa quetÃ¡
ĠPa ysandu
Ġlo ver
Ġlo gin
Ġlo irinho
Am ou
Am amos
Am eric
Am Ã©rica
Am igos
Am stel
Am igÃ£o
aqui ce
Ã´n omo
lÃ¡ cido
ĠcÃ¡ lculo
Ġcons ta
Ġcons iste
Ġcons entimento
Ġcons cienti
pro fessor
pro posta
pro paganda
pro ibido
pro porcionalmente
Ġdire toria
Ġbe ta
Ġbe at
Ġbe cause
Ġpedi da
Ã¢n io
Ã¢n cias
Ġmil k
Ġmil has
Ġmil igramas
ing on
ing amentos
Ġlegal mente
Pra ta
Ġacontec imento
Ġemb aran
Ġcri em
Ġcri tic
Ġcri tÃ©rio
and ler
and angos
Ġhom Ã£o
Ġhom es
00 3
Ġconta sse
Ġconta ram
Pe di
Pe Ã§a
Pe dir
Pe dindo
Pe garam
Ġvo sso
Ġvo ssa
Ġvo ga
Ġvo taria
Ġvo taÃ§Ã£o
Ġvo taram
Ġvo adora
Ġvo vÃ´
cion ei
cion ando
cion ador
Bom beiro
ida do
Pa sso
Pa go
Pa sse
Pa gou
Pa gando
Pa guei
Pa dre
Pa pinho
Pa vÃª
Pa ty
Pa quetÃ¡
Pa quera
Ġproblema tizaÃ§Ã£o
Ġdu ram
Ġdu vida
Ġdu zentÃ£o
tura dor
Fala va
iste cona
inte ira
inte ressante
Ġempre ender
Ġempre guinho
Ġempre endimento
vers idades
ad re
ad rado
ad vogada
ad minton
ici ando
ici ona
ici almente
ici pal
Ġtrabalho s
Ġun e
Ġun ir
Ġcai p
Ġcai xote
Bo bo
Bo dy
Ġpassa das
ĠCar lito
ĠCar lson
ĠCar ref
ĠCar pool
ĠCar mim
ĠCar reta
ĠCar rero
ĠCar doso
Ġfi Ã©is
Ġdeixa sse
To pa
To tal
To quei
To toro
Ġpu p
Ġpu tÃ£o
Ġpu tos
Ġpu dor
Ġpu xo
Ġpu teiro
Ġpu dim
Ġpu ÃŃda
Ġpu rificar
Ġpu bli
id ante
ĠPe dra
ĠPe dras
ĠPe ople
ĠPe queno
Ġpres te
Ġpres tou
Ġpres unto
Ġpres entes
Ġpres ÃŃdio
Ġpres ervar
ĠRo bson
redi r
ĠMa o
ĠMa tri
ĠMa yer
ĠMa tt
ĠMa jestade
ĠMa ÃŃra
Ġpela dinho
Ġtira ram
pos t
pos tando
ĠvÃŃ timas
oo ou
az inha
Ġven dida
Ġven ham
Ġven cida
Ġven tila
Ġentre garam
Ġentre tanto
Ġentre linhas
Ġfoto gra
Ġfoto grafia
esse is
Ġbar ro
Ġbar reira
Ġbar celona
Ġbar iÃ¡trica
Ġgan sos
Ġgan dula
Ġab usa
Ġab duÃ§Ã£o
Ġab usando
como da
mos trar
mos trando
mos fera
guei redo
Ġlugar zinho
val ia
val ente
Ġinter ino
Ġinter mi
Ġinter cep
Ġinter fere
Ġinter mediÃ¡rio
Ġpol uiÃ§Ã£o
Ġpol uÃŃdo
Ġsal ve
Ġsal dÃ£o
Ġsal Ã¡rios
Ġsal vado
Ġsal vador
Ġsal gadinho
Ġsal varam
RA M
be tÃ¡
be rando
be th
udo so
Ġfr Ã¡gil
Ġano tou
Na h
Na o
Na quela
Na th
Na tural
Ġgal op
Ġgal ego
ĠCom prei
ĠCom bate
ĠCom emora
ĠCom putador
Ãĥ h
esta ca
esta cionado
ĠAl do
ĠAl Ã³
ĠAl dos
ĠAl deia
ĠAl dir
ĠAl ves
ĠAl erta
ĠAl asca
ĠAl buquerque
ĠAl uÃŃsio
fi ar
fi xo
fi anÃ§a
fi xiado
Ġcal o
Ġcal cul
Ġcal Ã§as
Ġcal can
Ġcal cula
Ġcal minho
Ġcal cinhas
Ġcal Ã³rico
Ġdesculpa do
cl isma
cl ore
for to
for mais
for Ã§ado
for tÃ¡vel
Ġvac ilo
Ġvac ilar
Ġvac ilei
Ġcomp ul
Ġcomp us
Ġcomp li
Ġcomp aixÃ£o
Ġcomp onentes
Ġcomp ridinho
Ġvia j
Ġvia dos
Ġvia turas
Ġvia duto
Ġvia dutos
Ġpl ant
Ġpl eura
Ġpl uralidade
Ġsegun das
Ġsegun dinhos
fo ga
fo tos
Ġpos ter
Ġpos icionar
Ġpau zÃ£o
ron i
ÃŃs ticos
Ġinte ra
Ġinte rativa
gre gaÃ§Ã£o
fÃŃ cios
ven ir
ven cia
ven ido
ven dida
ven tualmente
ven iente
ven escida
Ġnas Ã§a
Ġpassar ia
Ġpassar ela
Ġcelular es
Ġresol va
Ġresol via
ĠK ar
ĠK en
ĠK al
ĠK el
ĠK EL
ĠK arde
ĠK enny
ĠK KK
ĠK rishna
ĠK ubanacan
ĠK imberly
ĠK raka
Ġer rando
Ġer vil
Ġer ros
Ġer radas
inar ia
Ġpega sse
ero x
Ġfu te
Ġfu ga
Ġfu di
Ġfu ru
Ġfu rou
Ġfu dida
Ġfu gido
Ġfu zuÃª
Ġrela x
Ġrela cionar
Ġsol ar
Ġsol ic
Ġsol tinho
Ġsol tinhas
Ġsol tÃµes
Ġsol itÃ¡rio
Ġsol icitaÃ§Ã£o
Ġsol itÃ¡ria
Ġfun go
Ġfun gada
Ġfun Ã§Ãµes
Ġfun ds
Ġbai ta
Ġbai rros
Ġga te
Ġga in
Ġga go
Ġga tas
Ġga til
Ġsuper li
Ġsuper visÃ£o
Ġsuper legal
Ġsuper visor
Ġescol inha
Ġescol has
rim ir
Ġcin tos
Ġcin zas
Ġcin turÃ£o
Ġcomer ciais
Ġhis teria
Ġgosta sse
Ġgosta vam
ke ada
ke din
Ġval Ã£o
Ġval idade
Ġval et
Ġdem itindo
Ġpap ilas
Ġrep icar
Ġrep udia
Ġrep elente
Ġrep ensar
Ġrep utaÃ§Ã£o
Ġrep rimir
ĠEs te
ĠEs tu
ĠEs cola
ĠEs pan
ĠEs panha
ĠEs tela
ĠEs tella
ĠEs cuta
ĠEs paÃ§o
ĠEs critÃ³rio
ques tÃ£o
ques tion
Ġcur tinho
Ġcur tinha
Ġcur ry
Ġol ÃŃmpico
Ġol fato
Ġrec ord
Ġrec orte
Ġrec usando
Ġrec ursos
Ġfora gido
ĠNo ta
ĠNo ssos
ĠNo vembro
ĠNo bel
ĠNo kia
Ġmaravil has
In tro
In Ãªs
In fer
In fo
In glÃªs
In tui
ren ar
Ã©r son
Ã©r rima
Ġespe tinho
Ġespe cie
Ġespe cialmente
Ġespe tacular
Ġlou ro
Ġlou rinha
gi ana
gi deira
gi osa
gi ban
tran ca
tran hado
tran quilo
tran gimento
Ġproc ria
Ġproc essa
Ġproc uro
Ġespera mos
ĠDE NT
ĠDE IX
ĠDE VEM
Ġaten do
Ġaten tos
Ġaten dia
Ġaten dem
Ġaten dente
Ġcontra rio
Ġcontra tando
Ġcontra iu
Ġcontra taria
Ġcontra riado
Ġmalu cas
Ġmalu cona
Ġmu que
Ġmu tar
Ġmu Ã§ar
Ġmu quirana
Ġpoder es
clus o
clus ivo
bro to
Ġpi e
Ġpi p
Ġpi x
Ġpi anista
Ġpi roquinha
Ġcompra va
Mar ca
Mar cia
Mar Ã§o
Mar vel
Mar quinho
Mar tinha
Mar cado
Mar quinhos
Mar tha
Mar rone
Ġajuda m
Ġajuda va
ive te
Ġdifer e
Ġapar t
Ġapar entemente
Ġapar ecem
Ġnum era
Ġsobre ssaindo
Ou ro
Ou ve
Ou vir
Ou viu
Ġor gÃ£o
Ġor din
Ġor elhas
Ġor dens
rado ra
Ġbrasil eiras
Ġins tru
Ġins tin
Ġins tÃ¢ncia
Ġins tag
Ġins piraÃ§Ã£o
Ġins tituiÃ§Ã£o
Ġins istiu
Ġins truÃ§Ã£o
Ġins tala
Ġins istÃªncia
Ġins eminaÃ§Ã£o
gina da
ssim as
Ġchegar em
Ġcl oro
Ġcl ub
Ġcl ick
ĠX ico
ĠX videos
ĠX XX
Ġtar ja
Ġtar dinha
Ġtar ugo
Ġbol sas
Ġbol ivi
Ġbol sonarista
Ġtrans aram
Ġtrans pira
Ġtrans versal
Ġtrans torno
Ġtrans pirar
Ġtrans gÃªnico
Ġtrans parente
bi tos
Ġcab ia
Ġcab inho
Ġcab resto
ĠZ ara
ĠZ eca
ĠZ ezinho
ĠZ ika
Ġmos ca
Ġado tou
Ġado ram
Ġado rando
Ġado rada
Ġado tada
ĠCa de
ĠCa ga
ĠCa tar
ĠCa tra
ĠCa gou
ĠCa guei
ĠCa valo
ĠCa ps
ĠCa tuaba
Ġassis tente
Ġassis tÃªncia
Ġpes ou
Ġpes car
Ġpes ados
Ġconf undo
Ġconf iam
cor d
cor tar
cor tou
cor dar
cor tei
cor rupÃ§Ã£o
cor onel
ĠvÃª is
Ġfinal e
Ġpouquinho s
Car minha
Car ioca
Car bonara
Le vou
Le ague
pp ene
Ġexpl ano
Ġexpl anar
mando u
vol tando
ensa Ã§Ã£o
dem ias
Ġobrigado s
Ġtal har
Ġtal entos
Ġva que
Ġva gÃ£o
DO R
DO U
DO IS
Ãģ guia
Ġdis per
Ġdis puta
Ġdis posiÃ§Ã£o
Ġdis parado
Ġdis pensa
Ġdis pensar
ine ta
ĠJo ta
ĠJo el
ĠJo ice
ĠJo esley
ĠRe d
ĠRe x
ĠRe is
ĠRe ais
ĠRe giÃ£o
ĠRe don
ĠRe ginaldo
ĠRe inaldo
til har
til ista
ĠLu cro
ĠLu pÃ©r
Ġbic h
Ġbic hado
Ġgu ela
Ġgu guinha
Ġgu inada
Ġimpor tado
Fal tam
bs titu
Ġhum m
Ġhum ani
Ġhum anas
Ġmandar em
Ġmandar ia
fica da
fica va
ĠpÃ´ de
Ġliv ros
Ġencon tre
Par em
Par tiu
Par ceira
ĠAn da
ĠAn visa
cho u
cho que
cho ve
cho ado
via mente
Ġpas te
Ġpas mo
Ġpas tas
Ġpas tilha
Ġpas teis
Ġconvers as
ĠBo tei
ĠBo bs
ĠBo lete
ĠBo ys
ĠBo echat
ĠBo eing
Ġesp um
Ġesp antar
Ġesp anca
Ġesp inafre
ĠPo le
ĠPo dem
ĠPo deria
ĠPo wer
run k
Ġ4 1
Ġ4 3
Ġ4 8
Ġnos talgia
ĠSu ÃŃ
ĠSu co
ĠSu pre
ĠSu zete
Ġlic ensa
ĠLe t
ĠLe vanta
vos inha
Ġlim itado
Ġlim itaÃ§Ã£o
ĠhÃ¡ bito
Ã¢m ide
Con fe
Con versa
Con fun
Con fli
Con sequÃªncia
muito s
TA MENTE
Ġau t
Ġau dio
Che go
Che gando
cara dos
cara cter
Ġson inho
Ġson oro
Ġson ÃŃfer
Ġgru dada
Ġinf lama
ĠVal ente
ĠVal sa
ĠVal eca
ĠVal Ãªncio
ĠVal quiria
Ġmi Ã§
Ġmi rando
Ġmi jado
Ġmi jei
Ġmi jou
Ġrece p
eita da
Per i
Per mi
Per don
Per tur
Per feita
Per igoso
enti vando
Ġmam ona
Ġmam aria
rios idade
ĠDes liga
ĠDes cobrimento
Ġbanheiro s
ER J
ER O
ER RA
lar e
ĠmÃ¡ xima
ĠmÃ¡ rmore
fal as
fal tam
su ja
su cesso
su ssuro
tic on
xi xe
alha u
ĠAm il
ĠAm igos
ĠAm bulÃ¢ncia
ĠAm igÃ£o
ĠAm endoc
ĠAm Ã©n
ĠAm aral
cel mo
Ġdorm ia
Pre so
Pre ssion
Pre fere
Pre trobras
Pre conceito
Ġtes t
Ġtes ou
Ġtes tado
Ġdisse sse
ĠrÃ¡ pidas
ves pa
ves timento
tan t
tan as
tan ia
Ġsur to
Ġsur tar
ĠNe w
ĠNe y
ĠNe go
ĠNe ws
Ġexem plos
Ġchu po
Ġchu teira
Ġchu pada
Ġchu pou
Do eu
Do gueria
fic amos
Ġve ge
Ġve getar
ĠNa quele
ani e
ĠSe x
ĠSe ca
ĠSe ja
ĠSe xo
ĠSe bÃ¡
ĠSe xy
ĠpÃ© rola
Ġgol fe
Ġgol pes
AL OGO
EN DA
EN FIA
Ġgo ia
Ġgo tinha
Ġ10 3
Ġterm ino
Ġped al
Ġped rada
Ġped reiros
Ġped Ã¡gio
Ġmatar em
Ġmatar Ã¡s
ĠGu y
ĠGu er
ĠGu ga
ĠGu aranÃ¡
ĠGu erreiro
ĠGu cci
ĠGu Ã¡l
ĠGu dang
Re para
Re vista
Re alengo
Re duzir
Re forÃ§o
Re pito
Re comen
Re cipiente
Val quiria
Ġagu da
Ġagu entou
Ġagu entei
Ġagu arde
Ġagu arda
Ġagu lhinha
Ġpir u
ĠsÃ©ri as
tava do
ĠDe pressÃ£o
ĠDe ise
pres as
pres ta
pres ente
pres tar
Ġmole za
Ro xo
Ro xono
Ta vam
rom a
Ġsor ry
Ġcham Ã¡
Ġcham binho
Ġcham inÃ©
Ġhor Ã¡rios
Ġhor izonte
Ġhor telÃ£
orn ar
Ã§ar imda
ĠOs asco
vida va
AR RI
dÃ¡ via
ii e
Ġri to
Ġri em
Ġri fa
Ġri val
Ġri rem
Ġri tual
Ġri dÃŃ
Ġri vais
Ġad mi
Ġad entrar
Ġad vertÃªncia
Ġad versidades
Ġques tÃµes
ĠSa ara
ĠSa indo
ĠSa dia
ĠSa udade
ĠSa ulinho
ĠSa puca
cre me
Ġbota sse
Ġmenina da
cu z
cu dos
cu jo
cu riosidade
che tes
che garam
Ġw om
Ġw al
Ġw ay
Ġw ork
Ġw hey
Ġw eek
Ġw ould
Ġw ait
puta da
Ġpon tinha
Ġpon tuaÃ§Ã£o
Ġpon tinhas
ĠMe d
ĠMe te
ap lau
ap rendendo
ap imirim
ap elido
[...]
