{"<s>":0,"<pad>":1,"</s>":2,"<unk>":3,"<mask>":4,"!":5,"\"":6,"#":7,"$":8,"%":9,"&":10,"'":11,"(":12,")":13,"*":14,"+":15,",":16,"-":17,".":18,"/":19,"0":20,"1":21,"2":22,"3":23,"4":24,"5":25,"6":26,"7":27,"8":28,"9":29,":":30,";":31,"<":32,"=":33,">":34,"?":35,"@":36,"A":37,"B":38,"C":39,"D":40,"E":41,"F":42,"G":43,"H":44,"I":45,"J":46,"K":47,"L":48,"M":49,"N":50,"O":51,"P":52,"Q":53,"R":54,"S":55,"T":56,"U":57,"V":58,"W":59,"X":60,"Y":61,"Z":62,"[":63,"\\":64,"]":65,"^":66,"_":67,"`":68,"a":69,"b":70,"c":71,"d":72,"e":73,"f":74,"g":75,"h":76,"i":77,"j":78,"k":79,"l":80,"m":81,"n":82,"o":83,"p":84,"q":85,"r":86,"s":87,"t":88,"u":89,"v":90,"w":91,"x":92,"y":93,"z":94,"{":95,"|":96,"}":97,"~":98,"¡":99,"¢":100,"£":101,"¤":102,"¥":103,"¦":104,"§":105,"¨":106,"©":107,"ª":108,"«":109,"¬":110,"®":111,"¯":112,"°":113,"±":114,"²":115,"³":116,"´":117,"µ":118,"¶":119,"·":120,"¸":121,"¹":122,"º":123,"»":124,"¼":125,"½":126,"¾":127,"¿":128,"À":129,"Á":130,"Â":131,"Ã":132,"Ä":133,"Å":134,"Æ":135,"Ç":136,"È":137,"É":138,"Ê":139,"Ë":140,"Ì":141,"Í":142,"Î":143,"Ï":144,"Ð":145,"Ñ":146,"Ò":147,"Ó":148,"Ô":149,"Õ":150,"Ö":151,"×":152,"Ø":153,"Ù":154,"Ú":155,"Û":156,"Ü":157,"Ý":158,"Þ":159,"ß":160,"à":161,"á":162,"â":163,"ã":164,"ä":165,"å":166,"æ":167,"ç":168,"è":169,"é":170,"ê":171,"ë":172,"ì":173,"í":174,"î":175,"ï":176,"ð":177,"ñ":178,"ò":179,"ó":180,"ô":181,"õ":182,"ö":183,"÷":184,"ø":185,"ù":186,"ú":187,"û":188,"ü":189,"ý":190,"þ":191,"ÿ":192,"Ā":193,"ā":194,"Ă":195,"ă":196,"Ą":197,"ą":198,"Ć":199,"ć":200,"Ĉ":201,"ĉ":202,"Ċ":203,"ċ":204,"Č":205,"č":206,"Ď":207,"ď":208,"Đ":209,"đ":210,"Ē":211,"ē":212,"Ĕ":213,"ĕ":214,"Ė":215,"ė":216,"Ę":217,"ę":218,"Ě":219,"ě":220,"Ĝ":221,"ĝ":222,"Ğ":223,"ğ":224,"Ġ":225,"ġ":226,"Ģ":227,"ģ":228,"Ĥ":229,"ĥ":230,"Ħ":231,"ħ":232,"Ĩ":233,"ĩ":234,"Ī":235,"ī":236,"Ĭ":237,"ĭ":238,"Į":239,"į":240,"İ":241,"ı":242,"Ĳ":243,"ĳ":244,"Ĵ":245,"ĵ":246,"Ķ":247,"ķ":248,"ĸ":249,"Ĺ":250,"ĺ":251,"Ļ":252,"ļ":253,"Ľ":254,"ľ":255,"Ŀ":256,"ŀ":257,"Ł":258,"ł":259,"Ń":260,"qu":261,"Ġa":262,"ra":263,"Ġe":264,"Ġd":265,"Ġp":266,"Ġc":267,"que":268,"Ã£":269,"Ã£o":270,"te":271,"Ġn":272,"Ġm":273,"do":274,"Ã©":275,"Ġs":276,"Ġv":277,"ar":278,"en":279,"..":280,"ss":281,"Ġque":282,"in":283,"Ã¡":284,"or":285,"er":286,"Ġf":287,"Ġde":288,"to":289,"Ġo":290,"an":291,"om":292,"um":293,"al":294,"Ãª":295,"Ġt":296,"oc":297,"ĠÃ©":298,"as":299,"is":300,"re":301,"da":302,"ro":303,"ĠnÃ£o":304,"ta":305,"de":306,"ho":307,"...":308,"ha":309,"Ġum":310,"ocÃª":311,"em":312,"on":313,"Ġte":314,"Ġb":315,"ei":316,"os":317,"Ġes":318,"ou":319,"Ġg":320,"ÃŃ":321,"ia":322,"Ġeu":323,"sso":324,"eu":325,"le":326,"ente":327,"qui":328,"ai":329,"im":330,"ara":331,"Ġcom":332,"ic":333,"Ã§":334,"la":335,"ĠvocÃª":336,"es":337,"Ã³":338,"am":339,"Ġi":340,"NÃ£o":341,"Ġaqui":342,"Ġl":343,"Eu":344,"ando":345,"Ãī":346,"ri":347,"Ġno":348,"Ġdo":349,"go":350,"el":351,"tÃ¡":352,"Ġgente":353,"gu":354,"Ġpra":355,"il":356,"Ġpor":357,"Ġisso":358,"Ġuma":359,"Ġtem":360,"ab":361,"ssa":362,"Qu":363,"inha":364,"ol":365,"Ġna":366,"Ġda":367,"Ġfa":368,"Ġfal":369,"Ġse":370,"un":371,"ĠaÃŃ":372,"Ġen":373,"Ġac":374,"Ġj":375,"sse":376,"ga":377,"Ġvai":378,"ul":379,"Ġcon":380,"Ġre":381,"Ġpe":382,"di":383,"Ġem":384,"ĠC":385,"ui":386,"Ġma":387,"ĠP":388,"tÃ£o":389,"ĠestÃ¡":390,"Ġqu":391,"he":392,"VocÃª":393,"ma":394,"va":395,"ĠA":396,"ĠM":397,"ĠtÃ¡":398,"inho":399,"ĠD":400,"ois":401,"Ġme":402,"tar":403,"Ġfo":404,"Ġfaz":405,"Ġto":406,"pa":407,"ti":408,"Ã´":409,"ĠS":410,"endo":411,"Ġele":412,"us":413,"Ġam":414,"tou":415,"tra":416,"io":417,"Ġdi":418,"Ġmeu":419,"Ġpo":420,"Ġcara":421,"hor":422,"ica":423,"Ġpa":424,"ĠnÃ©":425,"Ġtu":426,"Ġin":427,"Ã©m":428,"Es":429,"ĠT":430,"ca":431,"Ġsen":432,"Ġvi":433,"Ġvou":434,"Ã§Ã£o":435,"Ġmais":436,"Ã§a":437,"co":438,"gora":439,"Ġal":440,"ĠlÃ¡":441,"ĠB":442,"amos":443,"ran":444,"uito":445,"Que":446,"lha":447,"po":448,"Ġpre":449,"mo":450,"ve":451,"ĠsÃ³":452,"ce":453,"En":454,"pe":455,"Por":456,"com":457,"Ġass":458,"Ġpara":459,"Ġcois":460,"Ġpro":461,"ten":462,"Ġsab":463,"Ġsu":464,"tro":465,"Ġver":466,"Ġou":467,"ĠJ":468,"gar":469,"Mas":470,"Ġmes":471,"pra":472,"ĠjÃ¡":473,"ĠO":474,"ĠR":475,"ĠV":476,"dade":477,"ci":478,"eiro":479,"por":480,"Ġser":481,"Ãº":482,"ĠF":483,"Ġmuito":484,"Ġan":485,"Ġporra":486,"uma":487,"Ġessa":488,"Ġminha":489,"Ġcoisa":490,"xa":491,"Ġper":492,"ina":493,"eus":494,"Ġestou":495,"ir":496,"Ġquer":497,"Ġfazer":498,"Ġdes":499,"Ġ\"":500,"amb":501,"Ġbem":502,"vo":503,"Ġagora":504,"Ġne":505,"TÃ¡":506,"Isso":507,"Ġter":508,"Ġesse":509,"Ġca":510,"Ġfoi":511,"Ġho":512,"Ġassim":513,"na":514,"Ġsenhor":515,"pre":516,"ĠL":517,"Ġmesmo":518,"EntÃ£o":519,"Ġbo":520,"Ġbom":521,"Ġten":522,"se":523,"Ġtudo":524,"iz":525,"ira":526,"Ġcas":527,"rio":528,"Ġh":529,"ĠN":530,"tu":531,"ento":532,"ĠG":533,"ĠE":534,"indo":535,"Ġamor":536,"cia":537,"ver":538,"sa":539,"Ġfil":540,"Ã§o":541,"Ġir":542,"no":543,"ras":544,"ambÃ©m":545,"Com":546,"ĠDeus":547,"Ġela":548,"ru":549,"Ġfalar":550,"Ah":551,"der":552,"ĠquÃª":553,"lho":554,"Ġtra":555,"ĠNÃ£o":556,"tÃ©":557,"elo":558,"ora":559,"Ġpode":560,"Ġpr":561,"igo":562,"Ġpesso":563,"nÃ£o":564,"Ġsei":565,"Ġtodo":566,"ac":567,"undo":568,"Olha":569,"Ġmas":570,"ĠtambÃ©m":571,"Ġex":572,"ico":573,"ter":574,"Ġcar":575,"Ġpar":576,"vi":577,"Ġseu":578,"ĠvocÃªs":579,"cis":580,"ez":581,"Ġsou":582,"icar":583,"ĠÃī":584,"lo":585,"Ġsem":586,"ado":587,"Ġle":588,"cul":589,"Ġli":590,"mas":591,"ima":592,"ana":593,"ĠÃ³":594,"Vamos":595,"Tem":596,"ĠEu":597,"ala":598,"Se":599,"bri":600,"her":601,"Ġsabe":602,"je":603,"Ġmen":604,"ur":605,"con":606,"AÃŃ":607,"uta":608,"era":609,"EstÃ¡":610,"Ġmim":611,"Ġcomo":612,"Ġenten":613,"Ele":614,"Ġgos":615,"Ġesta":616,"Ġos":617,"Ġmundo":618,"guÃ©m":619,"gado":620,"mente":621,"so":622,"ria":623,"Ġcasa":624,"Ġsegu":625,"Ġche":626,"oca":627,"ba":628,"Ġnem":629,"Ġman":630,"Ġnada":631,"Ġar":632,"Ġsua":633,"Ġhe":634,"Ġporque":635,"eio":636,"ante":637,"Ġprecis":638,"mar":639,"ĠdÃ¡":640,"Ã£e":641,"Ġtenho":642,"Ġta":643,"para":644,"Ġas":645,"rou":646,"Ġch":647,"ome":648,"Ġdia":649,"Ġcha":650,"Ġres":651,"cio":652,"ber":653,"Ġdar":654,"Ġhein":655,"mÃ£o":656,"za":657,"Ġmer":658,"dar":659,"deu":660,"Ġacho":661,"me":662,"bal":663,"Ġdei":664,"Ġcor":665,"Ġap":666,"Ġesc":667,"ĠatÃ©":668,"Vai":669,"Ġ1":670,"inh":671,"eito":672,"tando":673,"Ġdele":674,"Ġcer":675,"tor":676,"ĠtÃ´":677,"ĠentÃ£o":678,"Ġti":679,"Tu":680,"onte":681,"Como":682,"Ġra":683,"zer":684,"Ġquero":685,"har":686,"ĠÃ":687,"imo":688,"eira":689,"culpa":690,"Ġficar":691,"Ġera":692,"ec":693,"Ġtr":694,"Ġsa":695,"Ġsai":696,"ens":697,"ĠirmÃ£o":698,"Ġali":699,"tos":700,"Ġfalando":701,"pera":702,"gem":703,"gra":704,"li":705,"oi":706,"Ġquem":707,"per":708,"Ãªn":709,"pi":710,"inda":711,"porque":712,"tei":713,"Ġ2":714,"tre":715,"ĠI":716,"ona":717,"Ġjo":718,"das":719,"Ġla":720,"Ġtempo":721,"Ġon":722,"Ġtrabal":723,"bra":724,"rasil":725,"Ġfala":726,"Porque":727,"ja":728,"Ġpou":729,"Ġcan":730,"Ġvol":731,"aro":732,"ĠMar":733,"vor":734,"Ãªs":735,"vocÃª":736,"ne":737,"Ġmo":738,"lia":739,"Ġfilho":740,"Ġso":741,"Oi":742,"idade":743,"Ġmor":744,"abe":745,"Ġcome":746,"dos":747,"Ai":748,"Meu":749,"Ġcaralho":750,"Ġaque":751,"Po":752,"Ġfavor":753,"De":754,"âĢ":755,"Ġhoje":756,"Ġmerda":757,"fer":758,"tem":759,"ĠmÃ£e":760,"ram":761,"tr":762,"bl":763,"ge":764,"Cara":765,"bo":766,"Ġnome":767,"SÃ³":768,"tas":769,"Ġolha":770,"Ġvida":771,"Ã¢":772,"Ã¡s":773,"dio":774,"pois":775,"ulher":776,"ĠU":777,"Ġvez":778,"Porra":779,"\".":780,"cer":781,"ris":782,"Ġvamos":783,"hora":784,"ito":785,"ju":786,"Ġco":787,"rando":788,"gal":789,"dor":790,"ista":791,"bre":792,"Agora":793,"ura":794,"Ac":795,"inguÃ©m":796,"Ġestava":797,"Ġpass":798,"tinho":799,"Quer":800,"Ġneg":801,"tÃ³":802,"vel":803,"No":804,"Ġfica":805,"Ġmal":806,"ite":807,"ĠH":808,"Ġcam":809,"segu":810,"Ġvem":811,"Ġtinha":812,"Ġaconte":813,"Quem":814,"anto":815,"Ġba":816,"ĠPor":817,"ele":818,"Ġro":819,"Ġalg":820,"jo":821,"Ġfor":822,"Ġverdade":823,"alma":824,"gou":825,"Ġim":826,"Ġoutro":827,"var":828,"gun":829,"xo":830,"Vou":831,"ig":832,"car":833,"tam":834,"Des":835,"trar":836,"âĢĶ":837,"Ġmulher":838,"Ġacab":839,"ema":840,"ela":841,"iu":842,"ita":843,"ĠĠ":844,"Ġfalou":845,"Ġus":846,"du":847,"Aqui":848,"elhor":849,"inu":850,"Ġban":851,"ÃĶ":852,"entro":853,"Ġai":854,"tal":855,"JÃ¡":856,"Ġeles":857,"Ġprecisa":858,"fa":859,"Ġlu":860,"quer":861,"Ġquando":862,"hei":863,"Ġsim":864,"Ġboa":865,"Ġaju":866,"fe":867,"ido":868,"Ġr":869,"brigado":870,"gando":871,"Ġposso":872,"ĠÃ¡":873,"res":874,"unca":875,"Esse":876,"Ã³s":877,"ĠVocÃª":878,"zinho":879,"tes":880,"Ġmar":881,"Ġconhe":882,"ĠÃł":883,"inheiro":884,"Ġacha":885,"pl":886,"Ġpens":887,"Ġpelo":888,"dinho":889,"ĠĊ":890,"Ġtran":891,"Estou":892,"Ġanos":893,"''":894,"Ã³cio":895,"Ġdos":896,"des":897,"Ġteu":898,"hando":899,"Al":900,"Ġcu":901,"Ġcol":902,"Ã¡rio":903,"ĠW":904,"enta":905,"ĠestÃ£o":906,"ino":907,"ĠQue":908,"ano":909,"ĠTÃ¡":910,"Me":911,"Ġdois":912,"ĠBrasil":913,"Ġpessoal":914,"cha":915,"Ãµ":916,"Ġconsegu":917,"Ġsenhora":918,"Ġru":919,"Ãªncia":920,"ais":921,"Ġsaber":922,"ece":923,"vil":924,"ĠnegÃ³cio":925,"dendo":926,"Ġvendo":927,"Ġgosto":928,"son":929,"Ġdinheiro":930,"Ġoutra":931,"ch":932,"Ġnovo":933,"Ġfazendo":934,"Um":935,"dia":936,"ÃŃcia":937,"Ġtua":938,"laro":939,"Ġgra":940,"Ġcomigo":941,"Ġdizer":942,"par":943,"Ġao":944,"Ġmelhor":945,"Ġqual":946,"Ġamigo":947,"enh":948,"Ġpouco":949,"Ġainda":950,"?!":951,"ĠcomeÃ§":952,"Ġqueria":953,"Ela":954,"dÃ£o":955,"ĠPa":956,"Ġlo":957,"Gente":958,"cil":959,"Ġhora":960,"Pode":961,"blema":962,"tir":963,"Ġcoisas":964,"Ġonde":965,"ĠsÃ£o":966,"eixa":967,"Am":968,"ada":969,"Ġpessoas":970,"aqui":971,"ula":972,"Ġmeio":973,"Qual":974,"Ã´n":975,"lÃ¡":976,"ĠcÃ¡":977,"ssas":978,"\",":979,"timo":980,"gua":981,"Ġfalei":982,"Ġcons":983,"pro":984,"Ġputa":985,"Ġdire":986,"Ġbe":987,"Ġviu":988,"iga":989,"ena":990,"Ġpedi":991,"Ã¢n":992,"Ġestar":993,".\"":994,"vai":995,"Ġmil":996,"inal":997,"Ġpessoa":998,"ing":999,"Ġdisso":1000,"Ġlegal":1001,"Pra":1002,"orm":1003,"gada":1004,"Ġacontec":1005,"Ãµes":1006,"ular":1007,"anÃ§a":1008,"Ġ-":1009,"Ġ3":1010,"Ġpai":1011,"Ġemb":1012,"Ġcri":1013,"and":1014,"Ġhom":1015,"Ġsair":1016,"00":1017,"mais":1018,"Foi":1019,"Ġconta":1020,"Pe":1021,"ÃŃlia":1022,"Ġvo":1023,"cion":1024,"Bom":1025,"ida":1026,"Ġdentro":1027,"ĠninguÃ©m":1028,"Ġresp":1029,"Pa":1030,"Ġia":1031,"Ġdela":1032,"aravil":1033,"Ġproblema":1034,"Ġdu":1035,"Ġnosso":1036,"Ġtoda":1037,"tura":1038,"Fala":1039,"Ġnenh":1040,"Ġfez":1041,"iste":1042,"Para":1043,"rin":1044,"inte":1045,"Ġempre":1046,"Ġdeix":1047,"Ġalguma":1048,"vers":1049,"ad":1050,"it":1051,"Tudo":1052,"Ġdepois":1053,"ici":1054,"Essa":1055,"Ġentendeu":1056,"Ġtrabalho":1057,"Ġun":1058,"Ġcai":1059,"quei":1060,"Ġcarro":1061,"Ġtava":1062,"isso":1063,"vis":1064,"Ġdaqui":1065,"Bo":1066,"Espera":1067,"Ġpassa":1068,"anta":1069,"ĠCar":1070,"quinho":1071,"Ġpergun":1072,"Ġnoite":1073,"!!":1074,"Deixa":1075,"Ġfi":1076,"Ġdeixa":1077,"To":1078,"Ġpu":1079,"Desculpa":1080,"Ġsempre":1081,"Ã©rio":1082,"Ġfiz":1083,"id":1084,"ĠmÃ£o":1085,"ĠPe":1086,"Ġpres":1087,"ĠRo":1088,"Ġ?":1089,"redi":1090,"ulo":1091,"AA":1092,"Ġnunca":1093,"ĠMa":1094,"Ġfam":1095,"Ġpela":1096,"Ġcerto":1097,"Ġtira":1098,"pos":1099,"ĠvÃŃ":1100,"esus":1101,"oo":1102,"Ġaquele":1103,"az":1104,"Ġven":1105,"Ġentre":1106,"Ġfoto":1107,"Ġnessa":1108,"esse":1109,"Ġbar":1110,"Ġgan":1111,"aram":1112,"Ġpegar":1113,"tante":1114,"Ġab":1115,"quele":1116,"como":1117,"estÃ¡":1118,"essa":1119,"mos":1120,"Ġquis":1121,"VocÃªs":1122,"tado":1123,"guei":1124,"Ġlugar":1125,"Ġrou":1126,"enhor":1127,"enÃ§a":1128,"Ġprim":1129,"val":1130,"tamente":1131,"Ġinter":1132,"Ġpol":1133,"Ġsal":1134,"ĠÃº":1135,"Ġdeu":1136,"elular":1137,"RA":1138,"be":1139,"aÃŃ":1140,"Ġminu":1141,"ÃŃvel":1142,"ĠvÃ£o":1143,"Ġesque":1144,"Ġnossa":1145,"UÃ©":1146,"Uma":1147,"hÃ£":1148,"udo":1149,"Ġfr":1150,"Ġano":1151,"Ġtodos":1152,"Na":1153,"Ġcabe":1154,"Ġgal":1155,"icou":1156,"ĠCom":1157,"Enten":1158,"Ãĥ":1159,"esta":1160,"ĠAl":1161,"Ġfilha":1162,"Vem":1163,"Ġdessa":1164,"eia":1165,"imento":1166,"Ġlem":1167,"Ġouv":1168,"las":1169,"ns":1170,"rar":1171,"Ãºs":1172,"fi":1173,"Ã©u":1174,"paz":1175,"Acho":1176,"Sim":1177,"Ġcal":1178,"Ġdesculpa":1179,"cl":1180,"ÃŃn":1181,"Ġsabia":1182,"Ġvolta":1183,"QU":1184,"for":1185,"dei":1186,"sses":1187,"orge":1188,"Ġacredi":1189,"ĠfamÃŃlia":1190,"Ġvac":1191,"rei":1192,"Quando":1193,"Ġhomem":1194,"Opa":1195,"Ġcomp":1196,"amento":1197,"Ġvia":1198,"Ġlado":1199,"fon":1200,"Ġpl":1201,"eliz":1202,"Ġembora":1203,"ĠalguÃ©m":1204,"Ġsegun":1205,"fo":1206,"sÃ³":1207,"Ġpos":1208,"Ã§as":1209,"Ġpau":1210,"Muito":1211,"PÃ´":1212,"ron":1213,"ÃŃs":1214,"unto":1215,"Ġdiz":1216,"Ġinte":1217,"gre":1218,"teza":1219,"ocar":1220,"ĠtrÃªs":1221,"ĠcabeÃ§a":1222,"fÃŃ":1223,"ĠVamos":1224,"almente":1225,"Ġseguinte":1226,"ven":1227,"Ġnas":1228,"Caralho":1229,"Ġpassar":1230,"uita":1231,"Ġvezes":1232,"Ġcelular":1233,"tido":1234,"Ġresol":1235,"cos":1236,"ĠK":1237,"Ġaquela":1238,"Ġer":1239,"inar":1240,"deira":1241,"Ġpega":1242,"ĠVai":1243,"ero":1244,"usa":1245,"ĠprÃ³":1246,"Ġfrente":1247,"Ġfu":1248,"anda":1249,"tivo":1250,"ĠÃ³timo":1251,"tica":1252,"Ġ5":1253,"Ġdesse":1254,"Ġbon":1255,"Ġrela":1256,"los":1257,"Ġsol":1258,"Ġfun":1259,"Ġbai":1260,"elho":1261,"berto":1262,"tinha":1263,"ase":1264,"Ġga":1265,"Ġsuper":1266,"Ġcerteza":1267,"jÃ¡":1268,"Ġmenos":1269,"Ġescol":1270,"Ġ20":1271,"Ġquiser":1272,"tÃ³ria":1273,"-[":1274,"rim":1275,"Ġcin":1276,"quela":1277,"Ġcomer":1278,"teiro":1279,"oso":1280,"dida":1281,"Ġhis":1282,"Ġsemana":1283,"Ġgosta":1284,"Calma":1285,"gio":1286,"ke":1287,"Ġcima":1288,"Ġval":1289,"Ġdem":1290,"Ġpap":1291,"inhas":1292,"Ãºsica":1293,"rer":1294,"Ġrep":1295,"fÃŃcil":1296,"vou":1297,"ĠEs":1298,"Ġdas":1299,"ques":1300,"anha":1301,"hh":1302,"Ġcur":1303,"Ġol":1304,"Ġbrin":1305,"Ġentrar":1306,"Ġlevar":1307,"deo":1308,"Ġrec":1309,"Ġfora":1310,"ĠNo":1311,"xe":1312,"rem":1313,"Ġmaravil":1314,"ÃĥO":1315,"In":1316,"ren":1317,"ane":1318,"Ġtipo":1319,"ĠtÃ£o":1320,"ĠIsso":1321,"Ã©r":1322,"Ġespe":1323,"Ġlou":1324,"gue":1325,"dido":1326,"gi":1327,"heiro":1328,"Ġquar":1329,"ĠMas":1330,"tran":1331,"Ġproc":1332,"Pelo":1333,"dando":1334,"Ãĵ":1335,"Ġespera":1336,"amo":1337,"ĠDE":1338,"ĠcomeÃ§ar":1339,"Ġaten":1340,"Ġcontra":1341,"Ġnesse":1342,"Ġmalu":1343,"Ġdeixar":1344,"Ġmu":1345,"Ġqueri":1346,"Ġpoder":1347,"Ġpreciso":1348,"mba":1349,"Ġmora":1350,"onta":1351,"Ġindo":1352,"Ġrapaz":1353,"clus":1354,"Sabe":1355,"bro":1356,"dinha":1357,"Ġpi":1358,"Ġbotar":1359,"ĠĠĠĠ":1360,"Ġrua":1361,"tima":1362,"Ã©ri":1363,"Ġcompra":1364,"Ġjeito":1365,"ĠOlha":1366,"Mar":1367,"ĠJorge":1368,"Ġajuda":1369,"ive":1370,"deia":1371,"Ġdifer":1372,"Ġapar":1373,"cando":1374,"Ġacontecendo":1375,"Ġnum":1376,"Ġmuita":1377,"Ġsobre":1378,"Ou":1379,"aa":1380,"Ġor":1381,"rado":1382,"erÃ¡":1383,"Ġbrasil":1384,"Ġins":1385,"gina":1386,"ssÃ£o":1387,"ssim":1388,"Ġchegar":1389,"Ġacabou":1390,"Ġuns":1391,"Boa":1392,"Ġgalera":1393,"TÃ´":1394,"atro":1395,"Ġ,":1396,"Ġcl":1397,"oco":1398,"ĠdifÃŃcil":1399,"ĠÃ¡gua":1400,"ĠX":1401,"Ġtar":1402,"Ġbol":1403,"Ġboca":1404,"acana":1405,"Ġtrans":1406,"bi":1407,"Ġdou":1408,"Ġcab":1409,"cado":1410,"Ġchama":1411,"grama":1412,"Nossa":1413,"ĠZ":1414,"Ġmos":1415,"meu":1416,"tindo":1417,"Ġado":1418,"ĠfaÃ§o":1419,"ĠCa":1420,"Ġtomar":1421,"Ġassis":1422,"Ġduas":1423,"gia":1424,"Ġpes":1425,"Ġconf":1426,"Ã´nio":1427,"cor":1428,"ĠvÃª":1429,"Ġfinal":1430,"ĠAh":1431,"Eles":1432,"Ġpouquinho":1433,"Car":1434,"Le":1435,"pp":1436,"zinha":1437,"Ġexpl":1438,"Puta":1439,"mando":1440,"uro":1441,"vol":1442,"Ġatra":1443,"ensa":1444,"dem":1445,"Ã©s":1446,"Ġobrigado":1447,"Ġtal":1448,"Ġqualquer":1449,"Ġlogo":1450,"adÃª":1451,"Ġva":1452,"Ġamiga":1453,"ĠcrianÃ§a":1454,"Ġtirar":1455,"DO":1456,"ceu":1457,"Ãģ":1458,"Ġdis":1459,"Ġmai":1460,"ine":1461,"isa":1462,"ĠJo":1463,"ĠRe":1464,"plo":1465,"til":1466,"Ġ'":1467,"Ġmom":1468,"Ġolho":1469,"ĠLu":1470,"Minha":1471,"Obrigado":1472,"sem":1473,"tia":1474,"Ġima":1475,"Ġveio":1476,"Ġbic":1477,"Ġgu":1478,"Ġjogo":1479,"Ġimpor":1480,"DÃ¡":1481,"Ġachei":1482,"ĠvÃŃdeo":1483,"Claro":1484,"Fal":1485,"bs":1486,"Ġhum":1487,"Ġpariu":1488,"Ġmandar":1489,"Ġmomento":1490,"Ih":1491,"fica":1492,"rada":1493,"ĠpÃ´":1494,"Ġliv":1495,"Ġajudar":1496,"Ġtranqui":1497,"\"?":1498,"Sai":1499,"Ġabri":1500,"ĠnÃ³s":1501,"hat":1502,"Ġgran":1503,"Ġencon":1504,"Ġvacina":1505,"Os":1506,"Par":1507,"tico":1508,"ĠEntÃ£o":1509,"Ġessas":1510,"ĠAn":1511,"ĠTem":1512,"Ġprograma":1513,"ĠÃºl":1514,"cho":1515,"ib":1516,"lio":1517,"via":1518,"Ġpas":1519,"Ġconvers":1520,"ĠBo":1521,"Ġhoras":1522,"Ġchamar":1523,"Ġalgum":1524,"QUE":1525,"Fica":1526,"ee":1527,"Ġesp":1528,"idente":1529,"ĠhistÃ³ria":1530,"clusive":1531,"Ġbran":1532,"ĠPo":1533,"ador":1534,"dro":1535,"run":1536,"Ġ4":1537,"Ġnos":1538,"les":1539,"Ġfoda":1540,"xatamente":1541,"Ġcorpo":1542,"tÃ³rio":1543,"feito":1544,"vem":1545,"ĠSu":1546,"ĠRio":1547,"Ġfilme":1548,"Ġmorre":1549,"Ġnenhuma":1550,"Pois":1551,"Seu":1552,"Ġideia":1553,"Ġlic":1554,"ĠLe":1555,"Todo":1556,"vos":1557,"Ġlim":1558,"Ġlembra":1559,"Ġreais":1560,"ĠhÃ¡":1561,"Ã¢m":1562,"Con":1563,"muito":1564,"QuÃª":1565,"TA":1566,"ni":1567,"tinu":1568,"Ġau":1569,"ĠmÃ©":1570,"Ġparece":1571,"AlÃ´":1572,"Ġpedir":1573,"?\"":1574,"Che":1575,"cara":1576,"Ġson":1577,"Ġfec":1578,"onde":1579,"Ġgru":1580,"Ã§Ãµes":1581,"Ġinf":1582,"ĠVal":1583,"iza":1584,"brigada":1585,"Ġusar":1586,"Ġnenhum":1587,"Ġmi":1588,"ern":1589,"Ġficou":1590,"Ġrece":1591,"Ġentendendo":1592,"Ġmaior":1593,"oje":1594,"erra":1595,"Ġfui":1596,"Ãªm":1597,"eita":1598,"cial":1599,"Ġtive":1600,"Ġvoltar":1601,"Per":1602,"SerÃ¡":1603,"dr":1604,"ral":1605,"enti":1606,"Ġdeve":1607,"Ġantes":1608,"ĠComo":1609,"Ġmaravilho":1610,"Ġtarde":1611,"Ġcalma":1612,"Ġmam":1613,"Ġumas":1614,"rios":1615,"ĠDes":1616,"net":1617,"Ġbanheiro":1618,"ER":1619,"oro":1620,"dado":1621,"ÃŃcio":1622,"Ġentendi":1623,"Ġchefe":1624,"trÃ¡s":1625,"risos":1626,"lar":1627,"teira":1628,"ĠmÃ¡":1629,"Ġvir":1630,"Faz":1631,"OR":1632,"fal":1633,"su":1634,"tic":1635,"xi":1636,"ton":1637,"alha":1638,"dir":1639,"ĠAm":1640,"ĠJesus":1641,"Ġbeb":1642,"Ġdiferente":1643,"cel":1644,"Ġdorm":1645,"entÃ£o":1646,"gual":1647,"Quero":1648,"ĠPaulo":1649,"Amor":1650,"Ġrepente":1651,"Pre":1652,"Ġclaro":1653,"enho":1654,"Ġtes":1655,"Ġdisse":1656,"rante":1657,"Ġcausa":1658,"ĠrÃ¡":1659,"ontade":1660,"ĠlicenÃ§a":1661,"CadÃª":1662,"bar":1663,"ves":1664,"Ġfeliz":1665,"taria":1666,"tan":1667,"âĻ":1668,"ham":1669,"Ġtele":1670,"ĠTudo":1671,"Ġsur":1672,"ĠNe":1673,"Ġexem":1674,"Ġchu":1675,"pidinho":1676,"Do":1677,"Sou":1678,"cas":1679,"fic":1680,"quando":1681,"Ġcora":1682,"Ġve":1683,"aran":1684,"Ġpagar":1685,"ĠNa":1686,"Ġparte":1687,"Ġligar":1688,"Ġouvindo":1689,"Ġdando":1690,"ani":1691,"amente":1692,"Ġfosse":1693,"ĠSe":1694,"Ġmeus":1695,"alav":1696,"Ġroupa":1697,"questra":1698,"Ġquerido":1699,"Jesus":1700,"ĠpÃ©":1701,"end":1702,"Ġgol":1703,"plica":1704,"Ġruim":1705,"AL":1706,"EN":1707,"iÃ£o":1708,"quina":1709,"Ġnuma":1710,"Ġteve":1711,"Ġgo":1712,"uiz":1713,"Ġamig":1714,"Ġcaramba":1715,"Ġquerendo":1716,"Ġ10":1717,"Ġexemplo":1718,"AtÃ©":1719,"ion":1720,"ximo":1721,"abou":1722,"inhos":1723,"Ġterm":1724,"Ġcaso":1725,"Ġprimeiro":1726,"Ġgrupo":1727,"Senhor":1728,"ĠatrÃ¡s":1729,"anho":1730,"Ġped":1731,"Ġmatar":1732,"ĠGu":1733,"Ġtrabalhar":1734,"Ġempresa":1735,"Entendi":1736,"Re":1737,"Val":1738,"Ġagu":1739,"Ġpir":1740,"ĠsÃ©ri":1741,"Ġvontade":1742,"enda":1743,"tava":1744,"ĠDe":1745,"tiva":1746,"pres":1747,"Ġmole":1748,"Ġaconteceu":1749,"Ġbrasileiro":1750,"Ro":1751,"Ta":1752,"rom":1753,"Ġsor":1754,"Ġamo":1755,"Ġcham":1756,"rendo":1757,"Ġhor":1758,"orn":1759,"Ã§ar":1760,"ĠOs":1761,"Ġquerer":1762,"vida":1763,"Ġmanda":1764,"AR":1765,"As":1766,"Hoje":1767,"dÃ¡":1768,"ii":1769,"vio":1770,"zo":1771,"Ġri":1772,"Ġad":1773,"Ġques":1774,"digo":1775,"ĠSa":1776,"Ġcanal":1777,"eleza":1778,"Ġdireito":1779,"fone":1780,"ronto":1781,"atÃ©":1782,"cre":1783,"gente":1784,"Ġpalav":1785,"anhÃ£":1786,"Ġdias":1787,"Ġbota":1788,"Ġmenina":1789,"Ġconsigo":1790,"Ġcomprar":1791,"cu":1792,"che":1793,"gÃ©rio":1794,"isto":1795,"aba":1796,"ĠpaÃŃs":1797,"Ãºm":1798,"Ġchegou":1799,"ĠMarc":1800,"tamos":1801,"Ġpergunta":1802,"eta":1803,"Ġw":1804,"ĠEstÃ¡":1805,"Ġontem":1806,"ĠconheÃ§o":1807,"Ġminutos":1808,"dico":1809,"puta":1810,"Ġpon":1811,"Ġacor":1812,"Ġrealmente":1813,"ĠMe":1814,"Ġgrande":1815,"HA":1816,"ap":1817,"gos":1818,"nde":1819,"Ġel":1820,"Ġmonte":1821,"Ġbei":1822,"Ġinteiro":1823,"Ãºde":1824,"Ġchega":1825,"Ġdeles":1826,"Depois":1827,"Ġpensando":1828,"forma":1829,"Ġmaluco":1830,"questrador":1831,"Em":1832,"SO":1833,"chor":1834,"foi":1835,"Ġsin":1836,"Ġvindo":1837,"rito":1838,"Ġporta":1839,"Ġprimeira":1840,"Fo":1841,"IA":1842,"Su":1843,"ĠQUE":1844,"Ġci":1845,"ĠcÃ©u":1846,"todo":1847,"Ġtam":1848,"Ġtrou":1849,"iada":1850,"Ġnova":1851,"olha":1852,"cido":1853,"Ġconsegue":1854,"Ġbicho":1855,"Era":1856,"IN":1857,"Pro":1858,"ze":1859,"Ġ7":1860,"Ġtanto":1861,"Ġseja":1862,"Ġentra":1863,"Ġcontinu":1864,"Ġpera":1865,"Ã§ado":1866,"ĠJu":1867,"Ġlev":1868,"Ġconhece":1869,"Ġinternet":1870,"Pera":1871,"Sem":1872,"ceiro":1873,"lu":1874,"tri":1875,"Ġesses":1876,"ĠdaÃŃ":1877,"Ġcachor":1878,"Ġjogar":1879,"Ġmorrer":1880,"Ġcolocar":1881,"ĠsÃ©rie":1882,"bÃ©":1883,"can":1884,"men":1885,"Ġtio":1886,"Ġmesma":1887,"ĠCarlos":1888,"Ġfiquei":1889,"tim":1890,"ĠsÃ©rio":1891,"Ġeng":1892,"Ġachando":1893,"Ġparar":1894,"Ġouvi":1895,"ĠJÃº":1896,"pido":1897,"ĠPorra":1898,"Ġpensar":1899,"ĠgraÃ§a":1900,"ormal":1901,"bado":1902,"ther":1903,"Ġcoc":1904,"ĠmÃºsica":1905,"ĠSenhor":1906,"pode":1907,"ĠEle":1908,"Ġconseguir":1909,"udio":1910,"Ġ(":1911,"Ġha":1912,"Ġ''":1913,"ismo":1914,"ros":1915,"hou":1916,"Ġjunto":1917,"Ġcontar":1918,"Ġtom":1919,"usta":1920,"Ġpron":1921,"ĠRa":1922,"Ġliga":1923,"ĠmanhÃ£":1924,"Ġimportante":1925,"âĻª":1926,"EM":1927,"Eita":1928,"fil":1929,"Ġnam":1930,"ons":1931,"Ġjun":1932,"Ġamar":1933,"Ġcada":1934,"Sequestrador":1935,"Ġmenino":1936,"ĠÃłs":1937,"ĠdemÃ´nio":1938,"Ġmorreu":1939,"SÃ£o":1940,"dre":1941,"jar":1942,"quanto":1943,"Ġop":1944,"rias":1945,"Ġreal":1946,"Ġquatro":1947,"Ġpodia":1948,"ciona":1949,"culo":1950,"andro":1951,"bÃ©ns":1952,"**":1953,"DA":1954,"Ġavis":1955,"ĠvÃ¡":1956,"Ġlinda":1957,"Ġtoma":1958,"Ġpovo":1959,"ĠquestÃ£o":1960,"NinguÃ©m":1961,"man":1962,"ok":1963,"vamos":1964,"Ġdona":1965,"tel":1966,"ĠnÃºm":1967,"Ġfico":1968,"unda":1969,"Ġjan":1970,"ĠSÃ£o":1971,"ĠSÃ³":1972,"Ġtrabalha":1973,"Ġoutros":1974,"ĠWhat":1975,"chau":1976,"AAAA":1977,"Ġexplicar":1978,"ĠcoraÃ§Ã£o":1979,"Ca":1980,"gon":1981,"vendo":1982,"Ġner":1983,"dou":1984,"entar":1985,"inta":1986,"ocu":1987,"Ġcomun":1988,"Ġlindo":1989,"Ġnot":1990,"ĠAÃŃ":1991,"ĠFoi":1992,"ĠLa":1993,"Ġexiste":1994,"Ġacabar":1995,"Entendeu":1996,"Ġtranquilo":1997,"Ġconversar":1998,"ornal":1999,"Ma":2000,"minha":2001,"Ġcul":2002,"ĠmÃªs":2003,"how":2004,"osta":2005,"ÃŃss":2006,"aixo":2007,"Ġperder":2008,"Ġbaixo":2009,"Ġcinco":2010,"Ġpapel":2011,"ĠDesculpa":2012,"An":2013,"pelo":2014,"sÃ£o":2015,"quis":2016,"quem":2017,"Ġmeia":2018,"Ġvim":2019,"Ġbra":2020,"eli":2021,"ĠAqui":2022,"tida":2023,"Ġmeses":2024,"Ġapro":2025,"faz":2026,"IS":2027,"bol":2028,"fim":2029,"sto":2030,"ÃĬ":2031,"Ġseus":2032,"ent":2033,"Ġtor":2034,"Ġbri":2035,"Ġfalo":2036,"tigo":2037,"cada":2038,"ranÃ§a":2039,"ĠVou":2040,"Ġbola":2041,"tua":2042,"Ġbate":2043,"ĠPedro":2044,"ĠRogÃ©rio":2045,"Ġganhar":2046,"Ġouvir":2047,"acanagem":2048,"ĠJoÃ£o":2049,"rum":2050,"Ġav":2051,"Ġaz":2052,"Ġcria":2053,"Ã©dio":2054,"Ġsom":2055,"inou":2056,"hado":2057,"Ġbro":2058,"Ġgor":2059,"ice":2060,"Ġlan":2061,"ĠCÃ©u":2062,"ĠTu":2063,"cola":2064,"Ġrapidinho":2065,"ĠPorta":2066,"Ġpensei":2067,"chat":2068,"Ġresolver":2069,"Ġabrir":2070,"ĠPode":2071,"Ġtrouxe":2072,"ĠcocÃ´":2073,"MA":2074,"Mais":2075,"gÃ£o":2076,"vei":2077,"vam":2078,"Ġigual":2079,"ulho":2080,"Ġquanto":2081,"ĠBrun":2082,"ĠJÃ¡":2083,"Ġtentar":2084,"Ġcandida":2085,"Ġbater":2086,"greja":2087,"Ġamigos":2088,"NÃ³s":2089,"Ġder":2090,"Ġcui":2091,"ssÃŃvel":2092,"Ã¡r":2093,"...?":2094,"Ġgar":2095,"Ġlon":2096,"ĠFern":2097,"Ġforma":2098,"fonso":2099,"ES":2100,"Tra":2101,"eca":2102,"lica":2103,"mi":2104,"tru":2105,"Ġmando":2106,"Ġfar":2107,"Ġof":2108,"Ġbal":2109,"ĠCo":2110,"Ġmendigo":2111,"ĠcomeÃ§ou":2112,"!!!":2113,"Ġpalavra":2114,"Ali":2115,"num":2116,"xar":2117,"Ġcho":2118,"ĠfÃ¡":2119,"Ġfic":2120,"trou":2121,"Ġentender":2122,"Ġ15":2123,"Ġsegundo":2124,"ĠprÃ³p":2125,"OC":2126,"agora":2127,"ger":2128,"rica":2129,"Ãį":2130,"Ġu":2131,"ĠÃ´":2132,"Ã³i":2133,"tÃ¡rio":2134,"ĠAi":2135,"ĠOi":2136,"Ġpresidente":2137,"Ġcachorro":2138,"Sei":2139,"at":2140,"fÃ©":2141,"nem":2142,"Ġnu":2143,"ende":2144,"orre":2145,"tora":2146,"ĠPra":2147,"Ġtraz":2148,"Ġestamos":2149,"Ġpediu":2150,"cional":2151,"Ġdizendo":2152,"Ġquarto":2153,"putado":2154,"ĠWhats":2155,"App":2156,"Col":2157,"Nem":2158,"Te":2159,"col":2160,"lÃ³":2161,"vas":2162,"ĠY":2163,"Ġadi":2164,"Ġcli":2165,"Ġnormal":2166,"Ġsan":2167,"ssor":2168,"Ġbas":2169,"Ġespa":2170,"enten":2171,"Ġlei":2172,"ĠamanhÃ£":2173,"ĠTa":2174,"pela":2175,"Ġtentando":2176,"eral":2177,"Ġarma":2178,"Ġcheio":2179,"Ġrola":2180,"Ġpior":2181,"ĠnÃºmero":2182,"OU":2183,"iar":2184,"ly":2185,"lor":2186,"zÃ£o":2187,"Ġnisso":2188,"Ġsus":2189,"Ġsacanagem":2190,"inas":2191,"Ġdez":2192,"ĠPara":2193,"lobo":2194,"Ã¢ncia":2195,"ĠatenÃ§Ã£o":2196,"Ġassistir":2197,"OS":2198,"Pronto":2199,"Ra":2200,"ah":2201,"rinho":2202,"Ġ6":2203,"Ġama":2204,"ene":2205,"inis":2206,"Ġfalta":2207,"ĠCara":2208,"ĠAgora":2209,"ĠJan":2210,"ĠJul":2211,"Ġpassando":2212,"Ġintere":2213,"Ã©rgio":2214,"Ġguar":2215,"ĠrÃ¡pido":2216,"Assim":2217,"et":2218,"mento":2219,"udade":2220,"ĠEn":2221,"Ġpei":2222,"Ġquerem":2223,"Ġeste":2224,"ame":2225,"ĠAr":2226,"Ġtocando":2227,"veja":2228,"Ġperce":2229,"tudo":2230,"Ġmenti":2231,"ĠchÃ£o":2232,"Ġsaco":2233,"Pega":2234,"Ġsegunda":2235,"ĠmamÃ£e":2236,"ĠMarcelo":2237,"Ġnamora":2238,"EU":2239,"HH":2240,"Onde":2241,"ck":2242,"Ġgaro":2243,"iado":2244,"naval":2245,"ruba":2246,"Ġescre":2247,"Ġescolher":2248,"ĠĠĠĠĠĠĠĠ":2249,"AN":2250,"OM":2251,"rea":2252,"onal":2253,"Ġbu":2254,"Ġigreja":2255,"Ġsabem":2256,"ĠIn":2257,"Ġsof":2258,"ĠÃºltima":2259,"ĠmÃ©dico":2260,"ĠfÃ¡cil":2261,"Gos":2262,"Jo":2263,"Tom":2264,"Ġdom":2265,"Ġpan":2266,"Ġdef":2267,"Ġespos":2268,"Ġgri":2269,"entes":2270,"Ã³r":2271,"Ġsex":2272,"Ġjornal":2273,"ĠCh":2274,"Ġmex":2275,"Ġsentido":2276,"ĠFa":2277,"vid":2278,"eram":2279,"Ġtiro":2280,"ĠÃĶ":2281,"ecer":2282,"Ġpassou":2283,"Ġerrado":2284,"Ġmostrar":2285,"Ġpiroca":2286,"ĠWhatsApp":2287,"-\"":2288,"Ar":2289,"Nada":2290,"gas":2291,"ial":2292,"nbs":2293,"Ġpul":2294,"Ġce":2295,"Ġdel":2296,"Ġdemais":2297,"antas":2298,"Ġtia":2299,"osa":2300,"elha":2301,"Ġquase":2302,"Ġtodas":2303,"ĠTV":2304,"ĠserÃ¡":2305,"ĠsaÃºde":2306,"ĠPorque":2307,"visÃ£o":2308,"ĠpolÃŃcia":2309,"Ġcabelo":2310,"Parece":2311,"Ã¢mera":2312,"Ġtamanho":2313,"nbsp":2314,"Da":2315,"Fil":2316,"if":2317,"lando":2318,"nÃ©":2319,"rÃ¡":2320,"Ġ!":2321,"Ġpis":2322,"Ġminhas":2323,"Ġsi":2324,"Ġves":2325,"oce":2326,"aso":2327,"Ġachar":2328,"oisa":2329,"vela":2330,"tendo":2331,"izar":2332,"ĠNÃĥO":2333,"Ġusa":2334,"ĠÃºn":2335,"Tenho":2336,"mÃºsica":2337,"rÃŃvel":2338,"ual":2339,"ĠQuem":2340,"Ġpin":2341,"ĠcÃ¢mera":2342,"antos":2343,"Ġestran":2344,"Ġlar":2345,"Ġleva":2346,"Ġcheiro":2347,"Ġsaiu":2348,"Ġjoga":2349,"Posso":2350,"Ġforte":2351,"Ġcontato":2352,"Ġacredito":2353,"Ġinteira":2354,"Ġdoutor":2355,"Ġbrother":2356,"Ei":2357,"Ok":2358,"Vi":2359,"cendo":2360,"pan":2361,"xima":2362,"Ġk":2363,"Ġqui":2364,"Ġpensa":2365,"Ġsendo":2366,"Ġtre":2367,"ĠtÃªm":2368,"one":2369,"lay":2370,"Ġmacon":2371,"Ġsub":2372,"vido":2373,"Ġligado":2374,"Ġtriste":2375,"Ġfilhos":2376,"ĠUber":2377,"Acabou":2378,"Ġrespon":2379,"Ġbranco":2380,"Ġtelefone":2381,"aniel":2382,"Deus":2383,"Fi":2384,"TE":2385,"ex":2386,"ila":2387,"ipo":2388,"pal":2389,"Ġfesta":2390,"anÃ§as":2391,"omo":2392,"Ġreun":2393,"Ã§ada":2394,"Ġassunto":2395,"Ġpare":2396,"Ġtrocar":2397,"Ġacontece":2398,"Ġmarido":2399,"Ġbonito":2400,"Ġfuncion":2401,"Ġmaravilhoso":2402,"ÃŃssimo":2403,"ĠJaneiro":2404,"20":2405,"MÃ£e":2406,"Maravil":2407,"TambÃ©m":2408,"bÃ©m":2409,"has":2410,"rus":2411,"tebol":2412,"Ġsoc":2413,"ssar":2414,"Ġfer":2415,"Ġfundo":2416,"eide":2417,"Ġgas":2418,"esa":2419,"Ġalmo":2420,"Ġpreso":2421,"Ġperto":2422,"Ġchegando":2423,"ĠÃģ":2424,"grade":2425,"Ġcamisa":2426,"tamento":2427,"Ġgostosa":2428,"chu":2429,"Ġolhar":2430,"fia":2431,"gl":2432,"pai":2433,"zar":2434,"Ġaf":2435,"Ġcos":2436,"Ġvelho":2437,"ssica":2438,"Ġfum":2439,"Ġtex":2440,"Ġesti":2441,"Ġescola":2442,"leta":2443,"imenta":2444,"Ġpegou":2445,"ĠcafÃ©":2446,"ĠGlobo":2447,"antes":2448,"Ġsaindo":2449,"graÃ§ado":2450,"tambÃ©m":2451,"Ġluz":2452,"ustavo":2453,"Ġesposa":2454,"ON":2455,"Oh":2456,"gan":2457,"pira":2458,"tina":2459,"Ãł":2460,"Ġ...":2461,"Ġcru":2462,"umento":2463,"Ã§anha":2464,"ĠMeu":2465,"ĠDu":2466,"ĠBar":2467,"vez":2468,"vogado":2469,"Ġtrazer":2470,"nsta":2471,"Ġpapai":2472,"Ġsonho":2473,"Ġgover":2474,"Aquele":2475,"Ex":2476,"Obrigada":2477,"cÃ£o":2478,"hÃ£o":2479,"hÃµes":2480,"nas":2481,"uri":2482,"Ġelas":2483,"Ġpena":2484,"Ġsum":2485,"ssos":2486,"Ġfe":2487,"ali":2488,"desse":2489,"emos":2490,"Ġcomplica":2491,"gura":2492,"Ġmata":2493,"Ġinclusive":2494,"Ġprodu":2495,"Ġdescon":2496,"Ġ19":2497,"ĠRoberto":2498,"oooo":2499,"Ġimag":2500,"OL":2501,"cura":2502,"dic":2503,"poca":2504,"th":2505,"Ġris":2506,"Ġexatamente":2507,"Ġcres":2508,"....":2509,"Ġbara":2510,"Ġestre":2511,"abri":2512,"ĠAfonso":2513,"Ġpaz":2514,"Ġinc":2515,"Ġmesa":2516,"Ġseria":2517,"Ġdireto":2518,"ĠpolÃŃ":2519,"Ġgay":2520,"ĠOsmar":2521,"Cha":2522,"bu":2523,"feira":2524,"ias":2525,"rÃ£o":2526,"veu":2527,"Ġabra":2528,"Ġdor":2529,"Ġpri":2530,"entra":2531,"Ġestu":2532,"Ġaquilo":2533,"olo":2534,"ĠCon":2535,"uir":2536,"Ġsuas":2537,"Ġcarre":2538,"Ġapren":2539,"ĠInsta":2540,"fazer":2541,"icial":2542,"Ġpassada":2543,"Ġabs":2544,"Ġminutinho":2545,"Ġfunciona":2546,"Ġpastor":2547,"Ġmandou":2548,"Ġcliente":2549,"ĠespaÃ§o":2550,"Co":2551,"Ima":2552,"cinha":2553,"seu":2554,"Ġy":2555,"Ġsala":2556,"tada":2557,"depois":2558,"Ġesquer":2559,"ssoal":2560,"aio":2561,"ĠPar":2562,"Estamos":2563,"Ġalto":2564,"Ġsob":2565,"ĠUm":2566,"ĠÃ¡rea":2567,"Ġesperando":2568,"Ġproce":2569,"Ġponto":2570,"Ġbastante":2571,"!\"":2572,"Ch":2573,"Exatamente":2574,"mÃ£":2575,"ub":2576,"ssion":2577,"Ġfin":2578,"Ġfim":2579,"Ġfran":2580,"Ġfeito":2581,"Ġtri":2582,"ĠTo":2583,"Ġvira":2584,"cela":2585,"ĠFala":2586,"Ġentende":2587,"Ġcorre":2588,"Ġsaudade":2589,"Ġbeber":2590,"Bota":2591,"Ġ201":2592,"Ġbrinca":2593,"demia":2594,"Ġdormir":2595,"Valeu":2596,"Ġmoleque":2597,"Ġpronto":2598,"'s":2599,"Sa":2600,"dÃª":2601,"dri":2602,"ivers":2603,"Ġag":2604,"Ġpalha":2605,"ono":2606,"Ġfogo":2607,"ĠSim":2608,"ĠpossÃŃvel":2609,"Ġsabendo":2610,"Ġcarne":2611,"cisa":2612,"Ġmercado":2613,"ĠcomeÃ§a":2614,"Ġconhecer":2615,"AlguÃ©m":2616,"Ġ30":2617,"Ġcaixa":2618,"oroquina":2619,"Ġvejo":2620,"US":2621,"aquele":2622,"fre":2623,"tin":2624,"Ġvis":2625,"ender":2626,"erson":2627,"Ġbl":2628,"ley":2629,"Ġcomida":2630,"Ġpraia":2631,"Ġvivo":2632,"Ġpreto":2633,"Ġdesco":2634,"ach":2635,"Ġarre":2636,"book":2637,"fessor":2638,"ĠcrianÃ§as":2639,"Ġcair":2640,"Ġviado":2641,"rime":2642,"Ġvalor":2643,"Ġolhando":2644,"Ġprocura":2645,"Ġmudar":2646,"Ġlivro":2647,"Ġsorte":2648,"Ġcontinuar":2649,"AliÃ¡s":2650,"ĠFace":2651,"ĠdelÃŃcia":2652,"Bem":2653,"ao":2654,"ein":2655,"gab":2656,"gico":2657,"iÃ§Ã£o":2658,"pel":2659,"ser":2660,"tis":2661,"uu":2662,"Ġ8":2663,"Ġale":2664,"Ġcris":2665,"Ã©ssica":2666,"Ġshow":2667,"Ġestra":2668,"ÃŃm":2669,"lau":2670,"Ġtemos":2671,"Ġcontigo":2672,"heta":2673,"pado":2674,"ĠSil":2675,"ĠSÃ©rgio":2676,"Ġcaras":2677,"ĠJai":2678,"ĠVem":2679,"ĠLÃŃ":2680,"vidade":2681,"Ġarrum":2682,"Ġachou":2683,"gram":2684,"vocÃªs":2685,"Deve":2686,"Ġbanco":2687,"icion":2688,"Ġcaiu":2689,"Ġminuto":2690,"ĠrelaÃ§Ã£o":2691,"Inclusive":2692,"trando":2693,"Ġlivre":2694,"Ġencontrar":2695,"ĠbebÃª":2696,"Foda":2697,"ĠperaÃŃ":2698,"ĠnotÃŃcia":2699,"AI":2700,"Fa":2701,"eto":2702,"iana":2703,"Ġpun":2704,"Ġsite":2705,"ĠMÃ¡r":2706,"Ġmedo":2707,"Ġpreocu":2708,"Ġparada":2709,"Ġprova":2710,"Ãºbl":2711,"Ġdesli":2712,"prei":2713,"ĠirmÃ£":2714,"acla":2715,"Ġparceiro":2716,"bate":2717,"Ġprecisando":2718,"ecendo":2719,"Ġnegoc":2720,"andra":2721,"Ġ50":2722,"PeraÃŃ":2723,"ĠbraÃ§o":2724,"entendeu":2725,"EL":2726,"ay":2727,"bio":2728,"nos":2729,"ninguÃ©m":2730,"rindo":2731,"Ġapres":2732,"Ġagrade":2733,"Ã©lio":2734,"ingo":2735,"inder":2736,"Ġtim":2737,"aixa":2738,"esmo":2739,"Ġidade":2740,"uso":2741,"Ġviol":2742,"Porchat":2743,"tros":2744,"Ġdesde":2745,"sado":2746,"Ġescri":2747,"brar":2748,"nessa":2749,"Ġsozinho":2750,"Ġcomple":2751,"Ġfutebol":2752,"Carlos":2753,"Ġauto":2754,"Ġmaconha":2755,"Di":2756,"Hum":2757,"pla":2758,"sona":2759,"ĠQuer":2760,"ĠcÃª":2761,"Ġmis":2762,"Ġvamo":2763,"Ġbacana":2764,"eitar":2765,"iam":2766,"Ġenc":2767,"Ġconc":2768,"Ġpegando":2769,"ĠAc":2770,"Ġsentindo":2771,"ĠEsse":2772,"Ġexper":2773,"Ġcarnaval":2774,"Ġparou":2775,"Ġtiver":2776,"trÃŃcia":2777,"Achei":2778,"Ġbanho":2779,"Ġgostoso":2780,"ĠmilhÃµes":2781,"Ġemprego":2782,"Ġperguntar":2783,"ĠÃºltimo":2784,"EI":2785,"Gra":2786,"NÃ©":2787,"dindo":2788,"ficar":2789,"ie":2790,"panha":2791,"qual":2792,"Ġpal":2793,"Ġcra":2794,"ĠmÃ¡s":2795,"Ġquen":2796,"Ġdeus":2797,"Ġok":2798,"taÃ§Ã£o":2799,"ÃŃna":2800,"Ġcomb":2801,"Ġprepara":2802,"cias":2803,"Ġanivers":2804,"ĠcadÃª":2805,"Ġcasamento":2806,"ĠEla":2807,"versa":2808,"Ġpromo":2809,"jeto":2810,"pital":2811,"ĠMarcos":2812,"Ġcaminho":2813,"ĠPeÃ§anha":2814,"ĠprÃ³xima":2815,"Ad":2816,"JÃº":2817,"Lem":2818,"Nunca":2819,"cimento":2820,"guma":2821,"ip":2822,"ndio":2823,"rinha":2824,"urante":2825,"ĠâĻª":2826,"ĠdÃº":2827,"eno":2828,"oniz":2829,"Ã§ando":2830,"estou":2831,"ilidade":2832,"ĠfaÃ§a":2833,"Ġref":2834,"Ġpeque":2835,"Ġfoder":2836,"ĠJos":2837,"Ġdesen":2838,"undos":2839,"Ġacontecer":2840,"Ã¢nia":2841,"Ġvoz":2842,"Ġrespeito":2843,"Ġviagem":2844,"Ġlouco":2845,"Ġpasta":2846,"Ġmaravilhosa":2847,"ĠJÃºlia":2848,"gonha":2849,"Ġcandidato":2850,"Imagina":2851,"CÃª":2852,"IC":2853,"Vol":2854,"aquela":2855,"assim":2856,"bora":2857,"cou":2858,"gn":2859,"gum":2860,"ivo":2861,"pis":2862,"Ġ9":2863,"Ġequi":2864,"ĠpÃ¡":2865,"ares":2866,"entre":2867,"ini":2868,"anas":2869,"antar":2870,"ÃŃculo":2871,"lado":2872,"Quanto":2873,"Ġsete":2874,"Ġseis":2875,"ĠCalma":2876,"ĠMan":2877,"tiu":2878,"ĠTerra":2879,"ĠBol":2880,"Ġverde":2881,"Ġhou":2882,"turo":2883,"Ġgostei":2884,"Ġseguir":2885,"Ġaplica":2886,"Ġvoltou":2887,"Ġacabei":2888,"Amigo":2889,"Amiga":2890,"Ġpresente":2891,"Ġrecla":2892,"Ġloucura":2893,"Ġreceber":2894,"Ġterminar":2895,"tuaÃ§Ã£o":2896,"Ġazul":2897,"onaldo":2898,"ĠreuniÃ£o":2899,"Cer":2900,"Lu":2901,"Vamo":2902,"hÃ¡":2903,"itar":2904,"numa":2905,"roc":2906,"Ġz":2907,"ĠQual":2908,"Ġdro":2909,"Ġchora":2910,"Ġvaz":2911,"Ã¡ria":2912,"Ã¡tia":2913,"ord":2914,"Ġdemo":2915,"Ġoh":2916,"omem":2917,"deos":2918,"Ġbala":2919,"Ġbeleza":2920,"Ġbunda":2921,"estÃ£o":2922,"Ġlin":2923,"riga":2924,"diÃ§Ã£o":2925,"Ġpapo":2926,"Ġinforma":2927,"Ġvirar":2928,"Ġpersona":2929,"ambora":2930,"ĠGente":2931,"ĠES":2932,"Ġcarteira":2933,"urÃŃcio":2934,"conhe":2935,"gador":2936,"Ġprecisar":2937,"Ġchato":2938,"eceu":2939,"ĠsaÃŃ":2940,"eles":2941,"Ġcoloca":2942,"Ġplane":2943,"Ġespecial":2944,"izaÃ§Ã£o":2945,"Ġbeijo":2946,"Ġhouve":2947,"??":2948,"Bora":2949,"Dona":2950,"Men":2951,"RO":2952,"TO":2953,"cn":2954,"dica":2955,"garam":2956,"Ãĩ":2957,"Ġ.":2958,"Ġabre":2959,"Ġpiada":2960,"Ġcidade":2961,"dessa":2962,"ich":2963,"ĠlÃŃ":2964,"Ġtema":2965,"Ġsepara":2966,"Ġacaso":2967,"Ġja":2968,"ĠMen":2969,"Ġpago":2970,"Ġinven":2971,"ĠTÃ´":2972,"Ġvirou":2973,"ĠBom":2974,"ĠObrigado":2975,"ĠVi":2976,"sobre":2977,"Ġaper":2978,"Ġempres":2979,"Ġacredita":2980,"elipe":2981,"ĠFernando":2982,"Coloniz":2983,"Ġadianta":2984,"Ġestranho":2985,"Colonizador":2986,"!?":2987,"Ainda":2988,"Aquela":2989,"Pres":2990,"ainda":2991,"rÃªs":2992,"sabe":2993,"ting":2994,"tici":2995,"vÃ£o":2996,"vista":2997,"voso":2998,"ÃĢ":2999,"Ġx":3000,"Ġis":3001,"Ġator":3002,"Ġcena":3003,"Ġfre":3004,"ĠÃ©poca":3005,"ash":3006,"taurante":3007,"...\"":3008,"Ġgela":3009,"ail":3010,"Ġnovela":3011,"Ġprato":3012,"porra":3013,"Ġnele":3014,"tual":3015,"icardo":3016,"loque":3017,"Ġlive":3018,"ĠseguranÃ§a":3019,"nesse":3020,"Ġcoloc":3021,"sonaro":3022,"Ġganha":3023,"Ġvale":3024,"Ġdemi":3025,"Ġmaravilha":3026,"giÃ£o":3027,"Legal":3028,"Ġtivesse":3029,"drÃ£o":3030,"OCÃĬ":3031,"Maravilha":3032,"Ġgoverno":3033,"abriel":3034,"Ġyou":3035,"Ġbrincadeira":3036,"ĠmÃ¡scara":3037,"ĠaniversÃ¡rio":3038,"AS":3039,"LÃ¡":3040,"bera":3041,"rÃ³":3042,"vando":3043,"quinha":3044,"Ġaula":3045,"Ġdoc":3046,"inando":3047,"Ġfra":3048,"eijo":3049,"aix":3050,"Ġido":3051,"ilha":3052,"ĠCl":3053,"ĠDaniel":3054,"Ġmeta":3055,"pada":3056,"Ġprefer":3057,"Ġassal":3058,"Ġverm":3059,"presa":3060,"Ġtenha":3061,"Ġescrito":3062,"Ġtroca":3063,"Caramba":3064,"Ġembaixo":3065,"ĠprÃ³ximo":3066,"Ġescolh":3067,"Ġvagab":3068,"ĠprÃ³prio":3069,"Ãįndio":3070,"Ġesquerda":3071,"Abre":3072,"Can":3073,"RE":3074,"lei":3075,"mÃ¡":3076,"pon":3077,"van":3078,"Ġur":3079,"Ġdente":3080,"ĠpÃ£o":3081,"Ġpel":3082,"Ġcre":3083,"entando":3084,"Ġdesses":3085,"ance":3086,"onas":3087,"Ġbus":3088,"Ġbur":3089,"lex":3090,"quita":3091,"ilher":3092,"ilson":3093,"ĠCor":3094,"ĠSo":3095,"ĠTi":3096,"ĠJe":3097,"ĠFÃ¡":3098,"Ġperna":3099,"ĠperdÃ£o":3100,"ĠEx":3101,"Ġpartici":3102,"urÃ©lio":3103,"ĠÃĵ":3104,"Pessoal":3105,"Passa":3106,"Ġesquema":3107,"Ġlouca":3108,"Ġbolsa":3109,"ĠBoa":3110,"abaca":3111,"Ġculpa":3112,"Ġlonge":3113,"Ġsangue":3114,"Ġgaroto":3115,"Ġcomplicado":3116,"JÃºlia":3117,"Brun":3118,"DE":3119,"Fui":3120,"Prim":3121,"Tipo":3122,"cal":3123,"hum":3124,"ide":3125,"sei":3126,"ugu":3127,"Ġza":3128,"Ġecon":3129,"ĠpÃºbl":3130,"ergia":3131,"Ġgen":3132,"Ġcomendo":3133,"late":3134,"ell":3135,"guinho":3136,"Ġjus":3137,"ĠCas":3138,"ĠCam":3139,"Ġmete":3140,"ĠSai":3141,"Ġdiver":3142,"Ġinves":3143,"ĠFundos":3144,"Ġanda":3145,"Ġperdo":3146,"irma":3147,"Ġmensa":3148,"Ġentendo":3149,"Ġsegura":3150,"Ġcopo":3151,"Ġoutras":3152,"lÃ¡vio":3153,"Ġpuder":3154,"Ġvender":3155,"Ġbarulho":3156,"Ġesquece":3157,"ÃŃnio":3158,"Ġgato":3159,"Ġmaluca":3160,"Ġmostra":3161,"Ã©sar":3162,"Ġnervos":3163,"Ġnervoso":3164,"Ġmentira":3165,"ĠsituaÃ§Ã£o":3166,"glÃªs":3167,"Ġtime":3168,"ilherme":3169,"ARA":3170,"Ficou":3171,"Res":3172,"dentro":3173,"pas":3174,"rÃ©":3175,"uda":3176,"Ġaber":3177,"Ġvinho":3178,"erm":3179,"Ġobrigada":3180,"icos":3181,"Ġdoido":3182,"Ġrem":3183,"ĠClÃ¡":3184,"ĠPer":3185,"ĠtÃ¡xi":3186,"ĠDeixa":3187,"ĠSem":3188,"ĠSol":3189,"cete":3190,"Ġvergonha":3191,"ĠJÃ©ssica":3192,"cida":3193,"ĠFo":3194,"Ġandar":3195,"Ġperdi":3196,"nada":3197,"ĠGustavo":3198,"Ġprimo":3199,"Ġrestaurante":3200,"Ġcerveja":3201,"Ġtirou":3202,"ĠtrÃ¡s":3203,"Ġmarca":3204,"Ġlembro":3205,"Ġsexta":3206,"urilo":3207,"ĠInstagram":3208,"ubens":3209,"drigo":3210,"Ġdescobri":3211,"ĠdÃºvida":3212,"FF":3213,"HO":3214,"Man":3215,"NÃĥO":3216,"OlÃ¡":3217,"Pai":3218,"Sen":3219,"bem":3220,"gens":3221,"linhos":3222,"pÃŃ":3223,"pol":3224,"sai":3225,"ĠEstou":3226,"ĠÃ´n":3227,"ĠEspera":3228,"Ġcrime":3229,"tero":3230,"Ġmon":3231,"Ġsinal":3232,"ssou":3233,"iniÃ£o":3234,"Ġfrio":3235,"Ġgro":3236,"Ġnota":3237,"ĠRonaldo":3238,"Ġhos":3239,"ĠEssa":3240,"Ġ100":3241,"Ġtrabalhando":3242,"Ġsimp":3243,"tural":3244,"Ġbarriga":3245,"firo":3246,"Ġfuturo":3247,"ĠrelatÃ³rio":3248,"Ġprocu":3249,"ibus":3250,"ĠBruna":3251,"inistro":3252,"ĠFacebook":3253,"Ġmensagem":3254,"Tira":3255,"ceira":3256,"far":3257,"hinho":3258,"ric":3259,"ws":3260,"ĠQu":3261,"ĠÃŃn":3262,"Ġcoca":3263,"enas":3264,"Ġdeputado":3265,"anos":3266,"istas":3267,"entena":3268,"Ã§om":3269,"Ġluta":3270,"rilha":3271,"ilton":3272,"Ġconcor":3273,"Ġconversa":3274,"Ġpeguei":3275,"ĠChe":3276,"ĠPre":3277,"Ġforam":3278,"Ã´m":3279,"Ġpop":3280,"ĠinglÃªs":3281,"cool":3282,"Ġprofi":3283,"Ġdesa":3284,"Ġtendo":3285,"Ġher":3286,"Ġpodem":3287,"ĠmoÃ§o":3288,"Ġrosto":3289,"Ġmulheres":3290,"Ġconsegui":3291,"Ġdireita":3292,"Ġcinema":3293,"Ġmorar":3294,"Ã©rias":3295,"Ġgolpe":3296,"Ġpedindo":3297,"ĠopiniÃ£o":3298,"fazendo":3299,"Ġestiver":3300,"Ġabsur":3301,"Ġexperi":3302,"Ġaplicativo":3303,"ĠÃ´nibus":3304,"Cor":3305,"ET":3306,"IL":3307,"Melhor":3308,"gam":3309,"itinho":3310,"jÃ£o":3311,"jando":3312,"Ġapa":3313,"Ġfase":3314,"Ġdep":3315,"Ġdedo":3316,"Ġesquis":3317,"Ġid":3318,"ilo":3319,"ĠrelÃ³":3320,"Ġpego":3321,"ĠCris":3322,"Ġquad":3323,"Ġtur":3324,"Ġinv":3325,"Ġinfer":3326,"ĠBat":3327,"ĠpreÃ§o":3328,"come":3329,"Ġprojeto":3330,"ĠOFF":3331,"inado":3332,"pressÃ£o":3333,"Ġprin":3334,"ados":3335,"Ġligando":3336,"Ġlibera":3337,"Ġresto":3338,"Ġcorona":3339,"Ġjogando":3340,"Caraca":3341,"Ġcole":3342,"Ġrolando":3343,"ĠforÃ§a":3344,"valo":3345,"deixa":3346,"elizmente":3347,"Ġbonita":3348,"Ġpoderia":3349,"Ġcloroquina":3350,"Ġimagem":3351,"Ġimagina":3352,"Chegou":3353,"falando":3354,"Ġtexto":3355,"GraÃ§as":3356,"AM":3357,"Dou":3358,"GO":3359,"Mulher":3360,"fei":3361,"fico":3362,"mer":3363,"Ġvar":3364,"Ã¡gua":3365,"Ã¡rios":3366,"Ġfri":3367,"Ġfamos":3368,"Ġdeci":3369,"anessa":3370,"ost":3371,"Ġgenti":3372,"leza":3373,"arada":3374,"Ã§ou":3375,"Ġnossos":3376,"Ġsexo":3377,"Ġentrou":3378,"ĠPro":3379,"vado":3380,"vada":3381,"Ġpais":3382,"Ġsenha":3383,"Ġanti":3384,"ĠLuiz":3385,"Ġbotou":3386,"Ġtenta":3387,"ĠNeide":3388,"tugu":3389,"Ġliber":3390,"Ġescro":3391,"Ġ200":3392,"Ġtemporada":3393,"Ġonda":3394,"Ġuso":3395,"Ġconseguiu":3396,"ĠgraÃ§as":3397,"cionamento":3398,"Ġpassado":3399,"Ġcalor":3400,"reiro":3401,"Ġbrincar":3402,"Ġesperar":3403,"Ġmuda":3404,"Ġmoral":3405,"Ġbrasileira":3406,"ĠZÃ©":3407,"Ġadora":3408,"Ġolhos":3409,"ĠSuz":3410,"Ġlembrar":3411,"Ġfecha":3412,"Tava":3413,"Ġjuntos":3414,"ĠBruno":3415,"Ġcedo":3416,"Filho":3417,"Ġaleg":3418,"ĠMÃ¡rcia":3419,"ĠBolsonaro":3420,"ĠrelÃ³gio":3421,"Ġgentileza":3422,"Beleza":3423,"cina":3424,"dicion":3425,"nunca":3426,"pando":3427,"ror":3428,"tun":3429,"tino":3430,"vÃ³":3431,"vindo":3432,"quÃª":3433,"Ġaberto":3434,"Ġps":3435,"Ġcura":3436,"Ġmin":3437,"endendo":3438,"Ġfome":3439,"Ġdebate":3440,"Ġobra":3441,"Ġtro":3442,"Ġbi":3443,"Ġbes":3444,"Ġbabaca":3445,"Ġescon":3446,"ĠgÃªn":3447,"imar":3448,"rior":3449,"ĠdoenÃ§a":3450,"Ġace":3451,"Ġconvi":3452,"Ġreg":3453,"Ġpede":3454,"diu":3455,"ĠMer":3456,"ĠDis":3457,"Ġfazia":3458,"ĠSou":3459,"ĠalÃŃ":3460,"tenÃ§Ã£o":3461,"ĠFab":3462,"ĠNor":3463,"ĠEm":3464,"Ġgostar":3465,"Ġgostou":3466,"Ġarran":3467,"trei":3468,"Ġmorte":3469,"Ġmorrendo":3470,"Poxa":3471,"diota":3472,"ĠUma":3473,"Ġusando":3474,"fael":3475,"Ãµe":3476,"parece":3477,"partil":3478,"Ã´nia":3479,"QUI":3480,"Ġresolve":3481,"Ġbrincando":3482,"eeee":3483,"Ġfechar":3484,"Ġdormindo":3485,"ĠJÃºlio":3486,"Ġcomunidade":3487,"ĠavÃ´":3488,"Ġficando":3489,"ĠÃºnica":3490,"Advogado":3491,"ÃĢs":3492,"\"!":3493,"BB":3494,"Cai":3495,"EE":3496,"GU":3497,"Hein":3498,"Ne":3499,"TrÃªs":3500,"brando":3501,"gir":3502,"iano":3503,"ki":3504,"line":3505,"lcool":3506,"pes":3507,"pul":3508,"tÃ´":3509,"Ġatri":3510,"Ġdan":3511,"Ġcou":3512,"teu":3513,"Ġsil":3514,"Ġvelha":3515,"ssante":3516,"inei":3517,"Ã¡tica":3518,"ĠfÃ£":3519,"oma":3520,"reg":3521,"Ġcomeu":3522,"icas":3523,"Ã§os":3524,"laus":3525,"Ġprazer":3526,"Ġencos":3527,"Ġconfi":3528,"ĠAma":3529,"ĠMi":3530,"Ġtocar":3531,"ĠTinder":3532,"rande":3533,"Ġservi":3534,"ĠFran":3535,"ĠFelipe":3536,"Ġanjo":3537,"Ġperdeu":3538,"Ġteria":3539,"ĠGabriel":3540,"ĠprÃ©dio":3541,"Ġcheguei":3542,"Ġ12":3543,"pero":3544,"Acab":3545,"Ġcamis":3546,"duz":3547,"Ġloja":3548,"Ġfila":3549,"ĠvÃŃrus":3550,"Ġsalvar":3551,"estava":3552,"Ġvaleu":3553,"hhh":3554,"ĠNoÃ©":3555,"Ġquarentena":3556,"Ġconfun":3557,"Ġatrapal":3558,"Falando":3559,"izade":3560,"tantinho":3561,"onstro":3562,"ĠYou":3563,"ĠpolÃŃtica":3564,"pisÃ³":3565,"Ġplaneta":3566,"30":3567,"90":3568,"bom":3569,"bando":3570,"sou":3571,"tch":3572,"vir":3573,"ymar":3574,"Ġare":3575,"Ġexa":3576,"Ġedu":3577,"ĠepisÃ³":3578,"Ġdono":3579,"ĠcÃ¢n":3580,"Ġquei":3581,"Ġode":3582,"ocal":3583,"demar":3584,"emas":3585,"Ġbab":3586,"ĠgrÃ¡":3587,"iago":3588,"amp":3589,"Ġler":3590,"Ġacom":3591,"ĠPera":3592,"vador":3593,"ĠDi":3594,"Ġfofo":3595,"Ġfodido":3596,"Ġfazem":3597,"ĠSeu":3598,"Estava":3599,"ĠTh":3600,"cess":3601,"Ġpros":3602,"ĠJonas":3603,"Ġanim":3604,"Ġanima":3605,"Ġdesem":3606,"Ġmandando":3607,"Ġcorrer":3608,"Ġracis":3609,"Ġmov":3610,"âĢĵ":3611,"Queria":3612,"Papai":3613,"ParabÃ©ns":3614,"Ġfizeram":3615,"ĠsalÃ¡rio":3616,"udou":3617,"Ġcomputa":3618,"Ġhumano":3619,"Ġencontra":3620,"Ġbranca":3621,"Ġpedra":3622,"Ġaguento":3623,"Ġjantar":3624,"Ġaprovei":3625,"Ġleite":3626,"Ġresponder":3627,"ĠabraÃ§o":3628,"ĠescritÃ³rio":3629,"Ġsimples":3630,"50":3631,"Aham":3632,"VÃª":3633,"mm":3634,"ola":3635,"Ġata":3636,"Ġdra":3637,"Ġcus":3638,"Ġmem":3639,"Ġmel":3640,"don":3641,"Ġflor":3642,"ant":3643,"alo":3644,"emin":3645,"este":3646,"espera":3647,"ĠCha":3648,"Ġmaca":3649,"ĠSer":3650,"ĠSandra":3651,"ĠBan":3652,"Ġprefeito":3653,"Enfim":3654,"ĠRena":3655,"ĠFica":3656,"Ġandando":3657,"izza":3658,"ĠGo":3659,"ĠGil":3660,"ĠÃ³tima":3661,"Ġarte":3662,"Ġcorrendo":3663,"Ġtroc":3664,"Ãªnis":3665,"ney":3666,"Ġcama":3667,"Ġmarcar":3668,"ulaÃ§Ã£o":3669,"Qualquer":3670,"Paulo":3671,"Ġdeixou":3672,"Ġputo":3673,"ĠMauro":3674,"Ġentregar":3675,"Ġplano":3676,"Ġsegundos":3677,"Ġquerida":3678,"Ġaparece":3679,"aaaa":3680,"Ġinstantinho":3681,"Ġpeso":3682,"Ġtranquila":3683,"ĠmÃ¡ximo":3684,"ĠtelevisÃ£o":3685,"Ġnamorada":3686,"Ġpunheta":3687,"Ġpersonagem":3688,"ĠcocaÃŃna":3689,"ĠexperiÃªncia":3690,"lausos":3691,"Ado":3692,"Deu":3693,"Daqui":3694,"Gu":3695,"HÃ£":3696,"IO":3697,"OO":3698,"So":3699,"SÃ©rio":3700,"Tchau":3701,"dura":3702,"fado":3703,"mesmo":3704,"Ġati":3705,"Ġaonde":3706,"Ġmul":3707,"Ã¡vel":3708,"Ġfura":3709,"Ġob":3710,"Ġofer":3711,"ĠtÃ©":3712,"Ġbor":3713,"ĠgÃ¡s":3714,"icro":3715,"icia":3716,"Ġidiota":3717,"tÃ¡lia":3718,"gulho":3719,"illia":3720,"Ġaca":3721,"Ġcontro":3722,"Ġcontas":3723,"ĠCel":3724,"ĠPuta":3725,"ĠMais":3726,"ĠDia":3727,"Ġpobre":3728,"Ġpaga":3729,"Ġviver":3730,"Ġalgo":3731,"veis":3732,"cesso":3733,"ĠparabÃ©ns":3734,"Ãºn":3735,"Ġdescer":3736,"Ġterra":3737,"Ġhon":3738,"ĠEU":3739,"Ġprome":3740,"Ġexame":3741,"conte":3742,"contra":3743,"Ġcortar":3744,"Ġescuta":3745,"eiton":3746,"ĠrazÃ£o":3747,"Ġvolto":3748,"Ġcamar":3749,"Ġacaba":3750,"Ġcolo":3751,"ĠPatrÃŃcia":3752,"posto":3753,"Ġvende":3754,"Ġbarra":3755,"ĠAlberto":3756,"Ġcall":3757,"foda":3758,"Ġaparecer":3759,"Ġassistindo":3760,"Ġguerra":3761,"Ġlimite":3762,"Chega":3763,"Ġsurpresa":3764,"Roberto":3765,"Ġsinto":3766,"Professor":3767,"ĠCaralho":3768,"Toma":3769,"Ġmexer":3770,"Ġcruz":3771,"Ġquente":3772,"Ġperdoa":3773,"Ġnervosa":3774,"Ġaberta":3775,"ĠClÃ¡udio":3776,"Ġatriz":3777,"ĠcÃ¢ncer":3778,"Ġcomputador":3779,"illiam":3780,"Cala":3781,"Du":3782,"Juiz":3783,"La":3784,"Tinha":3785,"beu":3786,"cei":3787,"cÃŃ":3788,"dim":3789,"ior":3790,"iro":3791,"pia":3792,"sab":3793,"Ġzer":3794,"quece":3795,"inos":3796,"inco":3797,"ĠfÃ©rias":3798,"Ġtrem":3799,"Ġtchau":3800,"reira":3801,"tata":3802,"Ġteatro":3803,"Ġbase":3804,"oura":3805,"Ġgaran":3806,"Ġcomi":3807,"Ġcomprei":3808,"icamente":3809,"esquita":3810,"Ġlinha":3811,"Ġenfim":3812,"Ġenergia":3813,"Ġjuro":3814,"Ġrecom":3815,"Ġpele":3816,"diz":3817,"ĠCan":3818,"ĠDo":3819,"ĠDan":3820,"Ġdific":3821,"Ġsenador":3822,"ĠRicardo":3823,"Ġdescul":3824,"Ġcapa":3825,"ĠLÃº":3826,"Ġcasal":3827,"tur":3828,"viÃ£o":3829,"Ġchin":3830,"Ġcerta":3831,"Ġcertinho":3832,"Ġcanto":3833,"ĠVocÃªs":3834,"venida":3835,"Ġescolhe":3836,"Ġadoro":3837,"entira":3838,"Ġchamou":3839,"iiii":3840,"Ġjanela":3841,"Ġsomos":3842,"ĠCopa":3843,"ĠpromoÃ§Ã£o":3844,"Ġeconom":3845,"Ġhospital":3846,"Ġprocurando":3847,"Ġabsurdo":3848,"Ġbesteira":3849,"Ġodeio":3850,"AB":3851,"Jorge":3852,"dy":3853,"dis":3854,"fun":3855,"ks":3856,"lon":3857,"mei":3858,"pÃ£o":3859,"ut":3860,"Ġras":3861,"Ġchor":3862,"dora":3863,"Ã©dia":3864,"ĠsÃ©":3865,"Ġvista":3866,"ssi":3867,"orro":3868,"toda":3869,"Ġovo":3870,"ock":3871,"asco":3872,"taram":3873,"ÃŃdo":3874,"Ġju":3875,"ĠregiÃ£o":3876,"dire":3877,"Ġmach":3878,"Ġmachu":3879,"ĠAcho":3880,"Ġtotal":3881,"Ġambi":3882,"Ġamizade":3883,"Ġsentar":3884,"ranha":3885,"ceta":3886,"Ġassina":3887,"Ġsuruba":3888,"ĠJane":3889,"ĠVOCÃĬ":3890,"porte":3891,"ĠFlÃ¡vio":3892,"Ġperig":3893,"irinha":3894,"ĠLi":3895,"izado":3896,"rup":3897,"ĠcartÃ£o":3898,"Temos":3899,"Ġmenor":3900,"Ġchamando":3901,"Ãªncio":3902,"ĠMaria":3903,"Ġmoto":3904,"ĠUÃ©":3905,"Ġcaminh":3906,"Ġgravar":3907,"ĠcomeÃ§ando":3908,"ĠPaula":3909,"ity":3910,"PerdÃ£o":3911,"ĠGuilherme":3912,"rombado":3913,"aplausos":3914,"Ġelei":3915,"Ġtomou":3916,"Ġlance":3917,"Ġsusto":3918,"Fiquei":3919,"Ġparede":3920,"ĠalmoÃ§o":3921,"ĠpalhaÃ§ada":3922,"ĠJair":3923,"Ġarrumar":3924,"Lembra":3925,"Ġzap":3926,"dicionado":3927,"ĠtÃ©cn":3928,"Cada":3929,"SA":3930,"TI":3931,"au":3932,"dra":3933,"dÃŃ":3934,"essas":3935,"fora":3936,"gica":3937,"lim":3938,"lhe":3939,"ny":3940,"ple":3941,"vÃ¡":3942,"Ġpeito":3943,"quen":3944,"Ġmicro":3945,"Ġsac":3946,"Ġsig":3947,"Ġvisto":3948,"ardo":3949,"ense":3950,"ssara":3951,"Ġquebra":3952,"Ġdevol":3953,"ans":3954,"ange":3955,"alguma":3956,"hoje":3957,"ÃŃb":3958,"ssora":3959,"Ã³rio":3960,"iliar":3961,"Ġfato":3962,"Ġsele":3963,"ĠengraÃ§ado":3964,"Ġacost":3965,"ĠCoca":3966,"ĠCOM":3967,"hein":3968,"Ġmexe":3969,"Ġfotos":3970,"ĠSandro":3971,"usÃ£o":3972,"Ġdigo":3973,"Ġdiria":3974,"Ġpatr":3975,"ĠTEM":3976,"caÃ§Ã£o":3977,"Ġsensa":3978,"Ġprop":3979,"Ġprote":3980,"ĠJun":3981,"ĠOpa":3982,"ĠFaz":3983,"Ġcagar":3984,"ĠhÃ©":3985,"ĠNA":3986,"acho":3987,"Ġpartir":3988,"Ġescra":3989,"Ġsapa":3990,"Ġaquelas":3991,"Ġcampe":3992,"Ġbatendo":3993,"Ġentrei":3994,"Ġroubar":3995,"Ġacreditando":3996,"Ġrelaxa":3997,"ĠDEUS":3998,"Ġcontrato":3999,"Ġclima":4000,"Ġexplica":4001,"Ġvaga":4002,"Falou":4003,"Parou":4004,"ĠValeu":4005,"ĠValdemar":4006,"falar":4007,"Precisa":4008,"Ġacordo":4009,"Ġavisar":4010,"Ġcuidado":4011,"ĠCovid":4012,"Ġnude":4013,"Ġvestido":4014,"ĠÃºnico":4015,"Ġbarato":4016,"Ġcrise":4017,"Ġequipe":4018,"Ġchorar":4019,"ichel":4020,"ĠFÃ¡bio":4021,"ĠremÃ©dio":4022,"Ġidenti":4023,"tuguÃªs":4024,"Ġalegria":4025,"ĠDisney":4026,"Ġacademia":4027,"-...":4028,"Ass":4029,"Aconte":4030,"Coisa":4031,"UL":4032,"Vambora":4033,"bas":4034,"brou":4035,"cÃª":4036,"dÃªncia":4037,"mir":4038,"mail":4039,"timento":4040,"vÃŃ":4041,"ĠaviÃ£o":4042,"ĠdÃ³":4043,"Ġdura":4044,"Ġcen":4045,"Ġcir":4046,"quelas":4047,"Ġvoce":4048,"ins":4049,"Ġfemin":4050,"ume":4051,"Ġtanta":4052,"Ġtela":4053,"Ġbloque":4054,"Ġgeral":4055,"Ġcompartil":4056,"estar":4057,"tÃ¡vel":4058,"uns":4059,"Ġenquanto":4060,"Ġjul":4061,"Ġcontr":4062,"Ġemo":4063,"ĠPelo":4064,"ĠMuito":4065,"ĠMacla":4066,"ĠDA":4067,"ĠDÃ¡":4068,"tipo":4069,"ĠRec":4070,"Ġporrada":4071,"Ġperde":4072,"amba":4073,"ĠLula":4074,"Ġbora":4075,"Ġboba":4076,"ĠNO":4077,"entos":4078,"ezinho":4079,"Ġmandei":4080,"Ġarro":4081,"Ġcantar":4082,"ĠMarta":4083,"ĠmoÃ§a":4084,"ĠcomeÃ§o":4085,"Ġrolar":4086,"Ġrom":4087,"'',":4088,"Ġcueca":4089,"chÃª":4090,"ĠvovÃ³":4091,"Ġrespira":4092,"Ġputaria":4093,"ĠvÃŃdeos":4094,"Ġganhou":4095,"Ġerro":4096,"ĠZo":4097,"Saiu":4098,"Ġabriu":4099,"ĠNatal":4100,"endente":4101,"INHA":4102,"Ġtomei":4103,"Ġamarelo":4104,"Ġdomingo":4105,"Ġfumar":4106,"Ġfinan":4107,"Ġdocumento":4108,"Ġvermelho":4109,"ĠSoares":4110,"Bruna":4111,"Primeiro":4112,"ĠserviÃ§o":4113,"ĠepisÃ³dio":4114,"Ba":4115,"DaÃŃ":4116,"Ir":4117,"Manda":4118,"Mentira":4119,"RSO":4120,"SE":4121,"Sab":4122,"Ver":4123,"cri":4124,"coisa":4125,"ff":4126,"ndo":4127,"pou":4128,"pinho":4129,"ruma":4130,"uÃ§Ã£o":4131,"raÃ§Ã£o":4132,"Ġpizza":4133,"ĠcÃº":4134,"Ġmol":4135,"Ġdessas":4136,"umas":4137,"Ġthe":4138,"och":4139,"lamen":4140,"Ã³gico":4141,"amÃ£e":4142,"amÃŃlia":4143,"ĠlÃŃn":4144,"Ġdoente":4145,"elma":4146,"Ġnaquela":4147,"una":4148,"Ġens":4149,"ssex":4150,"Ġemoc":4151,"ĠCab":4152,"ĠClaro":4153,"ĠCadÃª":4154,"ĠCÃ©sar":4155,"uidado":4156,"Ġmad":4157,"ĠAna":4158,"ĠDou":4159,"tit":4160,"ĠSul":4161,"usar":4162,"Este":4163,"Ġsentir":4164,"Ġprobl":4165,"ciar":4166,"Ġnela":4167,"izada":4168,"tÃ©rio":4169,"Ġgostaria":4170,"Ġseguro":4171,"Ġmaneira":4172,"Ġsaci":4173,"âĢ¦":4174,"boa":4175,"ĠUM":4176,"Ġcampo":4177,"Ġcampanha":4178,"Ġcamarada":4179,"duÃ§Ã£o":4180,"Ġpensou":4181,"Ġdupla":4182,"ĠRodrigo":4183,"Ġvendendo":4184,"Ġcurso":4185,"Ġtalvez":4186,"Osmar":4187,"Ġouviu":4188,"ĠvÃ¡rios":4189,"ĠincrÃŃvel":4190,"Ġprocurar":4191,"Fazer":4192,"iedade":4193,"ĠinformaÃ§Ã£o":4194,"Ġesquisito":4195,"ĠCristo":4196,"Ġinferno":4197,"ĠYouTu":4198,"Ġareia":4199,"Ġzero":4200,"Ale":4201,"Dois":4202,"Fora":4203,"Homem":4204,"by":4205,"bei":4206,"cab":4207,"dimento":4208,"fiz":4209,"ique":4210,"idos":4211,"jado":4212,"lis":4213,"ner":4214,"ote":4215,"pren":4216,"vandro":4217,"Ġ0":4218,"ĠQuero":4219,"Ġapo":4220,"ĠpÃ³":4221,"Ġmala":4222,"Ġmudou":4223,"dois":4224,"ĠvÃ´":4225,"aria":4226,"entou":4227,"enquanto":4228,"orme":4229,"erda":4230,"Ġfl":4231,"tados":4232,"haha":4233,"Ġgel":4234,"ÃŃria":4235,"Ġlocal":4236,"elena":4237,"Ġrepe":4238,"Ġreconhe":4239,"Ġpecado":4240,"dito":4241,"dios":4242,"Ġmau":4243,"Ġmaqu":4244,"Ġmassa":4245,"ĠPronto":4246,"Ġquin":4247,"vaÃ§Ã£o":4248,"Ġmeter":4249,"Ġfode":4250,"pag":4251,"Ġpasso":4252,"Ġviram":4253,"Ġvizinho":4254,"cote":4255,"iroca":4256,"Ġcadeira":4257,"Ġsenhores":4258,"ciamento":4259,"Come":4260,"Ġcarta":4261,"Ġcarinho":4262,"Segun":4263,"Ġcheia":4264,"Ġchance":4265,"Ġ11":4266,"ecei":4267,"grafia":4268,"Ġcaneta":4269,"Ġmotivo":4270,"ĠURSO":4271,"Ġcozinha":4272,"Ġimpre":4273,"ĠÃ¡udio":4274,"ĠÃ¡lcool":4275,"desde":4276,"provis":4277,"ington":4278,"Ġduro":4279,"Ġdeixei":4280,"ĠCarla":4281,"ĠCarlinhos":4282,"Toda":4283,"Ġesquecer":4284,"gresso":4285,"Ġapartamento":4286,"Ġorgan":4287,"Ġdoutora":4288,"Falei":4289,"Ġhuman":4290,"Ġautor":4291,"ĠmÃ¡quina":4292,"Ġrir":4293,"Ġcontinua":4294,"ĠvÃ¡rias":4295,"Ġbateu":4296,"ĠavÃ³":4297,"ĠgarÃ§om":4298,"Ġinteressa":4299,"Ġguarda":4300,"ĠĠĠĠĠĠĠĠĠĠĠĠĠĠĠĠ":4301,"Ġfrango":4302,"Ġdesligar":4303,"Ġpequeno":4304,"Liga":4305,"ass":4306,"mou":4307,"nÃ³s":4308,"pr":4309,"ts":4310,"uxa":4311,"Ġat":4312,"Ġagente":4313,"Ġden":4314,"Ġpia":4315,"Ġpla":4316,"Ġpois":4317,"Ġplay":4318,"Ġmus":4319,"Ã©Ã©":4320,"ssando":4321,"Ġfantas":4322,"Ãªme":4323,"hoso":4324,"osana":4325,"aice":4326,"Ã§Ãº":4327,"Ġlen":4328,"rioso":4329,"Ġdaquele":4330,"Ġfake":4331,"ĠpeÃ§a":4332,"uiana":4333,"Ġmatou":4334,"ĠPOR":4335,"ĠAQUI":4336,"ĠDa":4337,"Ġtoca":4338,"pava":4339,"ĠSanto":4340,"ĠTÃģ":4341,"ĠpressÃ£o":4342,"ĠprevisÃ£o":4343,"Ġprefiro":4344,"pec":4345,"Ġassinar":4346,"Ġsucesso":4347,"ĠOk":4348,"eiros":4349,"ĠFal":4350,"Ġperdido":4351,"Ġcasar":4352,"sada":4353,"Ġexis":4354,"Ġcaro":4355,"Ġcarinha":4356,"Ġsemanas":4357,"Ġlevo":4358,"Ġmanter":4359,"Ġchip":4360,"Ġ18":4361,"Ġjovem":4362,"Ġlam":4363,"Ġfalava":4364,"Ġcancel":4365,"ĠMariana":4366,"truir":4367,"blon":4368,"Ġbagun":4369,"Ġbatata":4370,"guns":4371,"Ġvoto":4372,"istema":4373,"ĠMaurÃŃcio":4374,"Ġentrevista":4375,"Ġposte":4376,"Ġcurtir":4377,"Ġbolso":4378,"Ġvaca":4379,"Ġmandarim":4380,"ĠLeblon":4381,"super":4382,"ĠNeymar":4383,"ENTE":4384,"Ġterminou":4385,"Ġchamei":4386,"Ġhorror":4387,"Ġelim":4388,"Sua":4389,"ĠopÃ§Ã£o":4390,"ĠFernanda":4391,"Ġchorando":4392,"lÃ³ria":4393,"ĠEnzo":4394,"JoÃ£o":4395,"Ġpiscina":4396,"Ġlarga":4397,"Ġcostas":4398,"Ãłs":4399,"Ġsumiu":4400,"ologia":4401,"ĠJosÃ©":4402,"Ġcamisinha":4403,"ĠlÃŃngua":4404,"Ã§Ãºcar":4405,"Beijo":4406,"Cl":4407,"Isto":4408,"Mo":4409,"Pensa":4410,"bil":4411,"baixo":4412,"den":4413,"gro":4414,"hn":4415,"ian":4416,"jos":4417,"Ġ*":4418,"Ġisto":4419,"Ġpen":4420,"Ġfing":4421,"Ġdevia":4422,"Ġopera":4423,"Ġobs":4424,"anan":4425,"Ãªbado":4426,"astor":4427,"eire":4428,"Ġcompro":4429,"Ġcomecei":4430,"icidade":4431,"rido":4432,"Ġnossas":4433,"Ġnovidade":4434,"Ġfalaram":4435,"Ġseques":4436,"Ġsecre":4437,"Ġentrando":4438,"Ġjuiz":4439,"uiÃ§Ã£o":4440,"uitas":4441,"tion":4442,"ĠSen":4443,"ĠSan":4444,"ĠBe":4445,"ĠBel":4446,"Porta":4447,"Ġsuf":4448,"cie":4449,"Ġperf":4450,"Ġnecess":4451,"Ġcacha":4452,"ĠGa":4453,"ĠGerson":4454,"ĠEd":4455,"Ġfilma":4456,"terra":4457,"log":4458,"logo":4459,"Ġarrombado":4460,"Ġapel":4461,"Ġescu":4462,"ĠMarquinho":4463,"ferson":4464,"Ġolhada":4465,"Ġficava":4466,"ĠHum":4467,"ĠPorchat":4468,"Ġimprovis":4469,"Ġprecisava":4470,"deste":4471,"Ã¢ns":4472,"Ġpelada":4473,"posta":4474,"Ġaqueles":4475,"Ġentrega":4476,"Ġcomprou":4477,"Ġviajar":4478,"Ġposto":4479,"Ġ202":4480,"ĠDES":4481,"ĠdiferenÃ§a":4482,"Ġordem":4483,"ocolate":4484,"Ġpesado":4485,"Ġconfuso":4486,"Ġatrasado":4487,"sempre":4488,"ficante":4489,"Ġadvogado":4490,"Ġlevando":4491,"Ġengan":4492,"AAAAAAAA":4493,"ĠprÃ³pria":4494,"Ġinteressante":4495,"Ġprocesso":4496,"ssional":4497,"Ġbloco":4498,"ĠviolÃªncia":4499,"Certo":4500,"Ġdroga":4501,"ĠlÃŃder":4502,"Ġvagabundo":4503,"Ġpelos":4504,"ĠpÃºblico":4505,"ĠpopulaÃ§Ã£o":4506,"Ġregis":4507,"ĠAmaz":4508,"ĠeducaÃ§Ã£o":4509,"Ġanimal":4510,"Ġmovimento":4511,"ĠcamarÃ£o":4512,"ĠRecord":4513,"ssexual":4514,"Ġhumanidade":4515,"Im":4516,"Ju":4517,"Macla":4518,"ban":4519,"eÃ§o":4520,"ejo":4521,"ficou":4522,"frica":4523,"linha":4524,"mal":4525,"ps":4526,"tanto":4527,"vÃª":4528,"Ġzo":4529,"Ġaos":4530,"Ġpica":4531,"Ġcentro":4532,"quete":4533,"Ġnar":4534,"Ġministro":4535,"Ã©ia":4536,"Ġsistema":4537,"arg":4538,"encia":4539,"ssem":4540,"Ġdever":4541,"Ġoito":4542,"dez":4543,"Ġbac":4544,"Ġesgo":4545,"Ġgre":4546,"leo":4547,"Ã³is":4548,"rida":4549,"tÃ¡ria":4550,"Ġenro":4551,"ĠpeÃ§o":4552,"ĠCaio":4553,"ĠPois":4554,"ĠAurÃ©lio":4555,"ĠMÃ©":4556,"ĠMurilo":4557,"ĠMesquita":4558,"ĠDO":4559,"ĠDona":4560,"passa":4561,"Ġindi":4562,"EstÃ£o":4563,"ĠTe":4564,"Ġvive":4565,"Ġvirilha":4566,"ĠBra":4567,"Ġouro":4568,"ĠJa":4569,"Ġserve":4570,"ĠanÃ£o":4571,"Ġterceira":4572,"Ġboas":4573,"Ġbotei":4574,"iram":4575,"ĠNÃ©":4576,"ĠGra":4577,"rugada":4578,"tern":4579,"teria":4580,"ciso":4581,"Ġleve":4582,"Ġlevou":4583,"condes":4584,"Ġestado":4585,"ĠtrÃ¢ns":4586,"Ġjogou":4587,"Ġjogador":4588,"Ġmotor":4589,"Ġcoxa":4590,"Ġcoach":4591,"gunta":4592,"duas":4593,"Ġbandido":4594,"ĠWash":4595,"entaÃ§Ã£o":4596,"Ã¢nico":4597,"Ġcriar":4598,"Ġabor":4599,"Ġesqueci":4600,"ĠcalÃ§a":4601,"Ġacreditar":4602,"Ġplan":4603,"ĠKÃ¡tia":4604,"Ġerrei":4605,"didato":4606,"ĠNossa":4607,"Ġsobrevi":4608,"ĠconfusÃ£o":4609,"Leva":4610,"ĠLucas":4611,"ĠJussara":4612,"Ġrealidade":4613,"eraldo":4614,"Gosto":4615,"Ġpulinho":4616,"Ġminutinhos":4617,"Ġarrep":4618,"ĠSilva":4619,"ĠLÃŃgia":4620,"Ġmetade":4621,"Ġprofissional":4622,"feitura":4623,"Acabei":4624,"Ġmacaco":4625,"ĠfuracÃ£o":4626,"Ġmicrofone":4627,"Jos":4628,"Mora":4629,"Pol":4630,"Pela":4631,"Sus":4632,"TV":4633,"Tran":4634,"UN":4635,"cem":4636,"fu":4637,"iter":4638,"kk":4639,"lh":4640,"tÃª":4641,"tria":4642,"xico":4643,"ĠQuÃª":4644,"Ġevi":4645,"ĠdÃŃ":4646,"Ġdica":4647,"Ã£es":4648,"teus":4649,"Ġmente":4650,"Ġsel":4651,"Ġsido":4652,"Ġvoc":4653,"Ġvinte":4654,"Ġdetal":4655,"todos":4656,"Ġoi":4657,"anti":4658,"ale":4659,"aser":4660,"emÃ´nio":4661,"ÃŃcias":4662,"ries":4663,"Ġnojo":4664,"iler":4665,"ĠportuguÃªs":4666,"Ġdava":4667,"Ġfalam":4668,"Ġenvol":4669,"Ġenorme":4670,"Ġacer":4671,"Ġacidente":4672,"Ġjura":4673,"Ġcontei":4674,"Ġpeda":4675,"ĠPol":4676,"ĠPris":4677,"Ġquinta":4678,"ĠMo":4679,"Ġmedi":4680,"Ġtomando":4681,"titu":4682,"ĠSei":4683,"use":4684,"Ġposs":4685,"Ġpossa":4686,"Ġpadre":4687,"Ġinva":4688,"Ġsubs":4689,"ĠOu":4690,"ĠRes":4691,"ĠVI":4692,"ĠVer":4693,"ĠVasco":4694,"ĠFrei":4695,"Ġmuitos":4696,"Ġperfeito":4697,"Ġnews":4698,"Ġcavalo":4699,"Ġbomba":4700,"izou":4701,"Ġcasado":4702,"ĠNem":4703,"ĠEra":4704,"Ġpartida":4705,"Segu":4706,"Segura":4707,"condicionado":4708,"Ġestavam":4709,"Ġsegurar":4710,"Ġchave":4711,"Ġ13":4712,"Ġsatis":4713,"Ġsaio":4714,"pitÃ£o":4715,"ĠIS":4716,"boy":4717,"ĠUni":4718,"Ġpassei":4719,"tÃ³rias":4720,"Ġbafo":4721,"Ġusou":4722,"Aquilo":4723,"heila":4724,"fessora":4725,"Ġrindo":4726,"Ġconseguindo":4727,"Ġconser":4728,"Ġconsul":4729,"Ġbebe":4730,"Ġpedido":4731,"Pedro":4732,"idadÃ£o":4733,"Ġresposta":4734,"queiro":4735,"Ġperguntando":4736,"Ġfigura":4737,"ĠmÃ£os":4738,"Ġsalva":4739,"Ġplanta":4740,"Ġpostar":4741,"Ġnasce":4742,"Ġnascer":4743,"Ġpegadinha":4744,"Inter":4745,"Ġquarta":4746,"Outro":4747,"Ġbolo":4748,"Ġtransar":4749,"Ġconversando":4750,"ĠBob":4751,"Ġalgumas":4752,"celente":4753,"Ġteste":4754,"ĠrÃ¡dio":4755,"aranja":4756,"Sempre":4757,"Ġreality":4758,"Ġgarra":4759,"Ġpandemia":4760,"Ã³rter":4761,"Ġcarreira":4762,"Ġcompletamente":4763,"Ġconceito":4764,"rÃ³ximo":4765,"Ġidoso":4766,"ĠSolange":4767,"Ġambiente":4768,"Ġperigoso":4769,"ĠcaminhÃ£o":4770,"ĠdÃ³lar":4771,"ĠcontrÃ¡rio":4772,"Ġproblemas":4773,"paganda":4774,"ĠcachaÃ§a":4775,"ĠtrÃ¢nsito":4776,"ĠWashington":4777,"10":4778,";&":4779,"Brasil":4780,"Cas":4781,"Fec":4782,"Mal":4783,"POR":4784,"Rubens":4785,"TR":4786,"TÃģ":4787,"adas":4788,"cra":4789,"cro":4790,"cla":4791,"cam":4792,"felizmente":4793,"gle":4794,"gamos":4795,"gido":4796,"his":4797,"heira":4798,"idÃ£o":4799,"junto":4800,"lou":4801,"mon":4802,"meio":4803,"peu":4804,"prim":4805,"ry":4806,"rro":4807,"sar":4808,"sen":4809,"sinho":4810,"tista":4811,"tÃ¢ncia":4812,"uca":4813,"Ġei":4814,"Ġcum":4815,"Ã©o":4816,"Ã©gio":4817,"Ġvel":4818,"Ġvanta":4819,"orte":4820,"Ġtac":4821,"daqui":4822,"deve":4823,"Ġbando":4824,"Ġesfre":4825,"lete":4826,"guel":4827,"guinha":4828,"Ġnaquele":4829,"Ġnacional":4830,"Ġnatural":4831,"ulinho":4832,"uldade":4833,"Ġconte":4834,"ĠPal":4835,"ĠPRA":4836,"vagar":4837,"ĠAs":4838,"ĠSabe":4839,"ĠSantos":4840,"Ġelevador":4841,"trabal":4842,"Ġdiv":4843,"Ġdivi":4844,"Ġsenti":4845,"ĠBon":4846,"ĠBeto":4847,"Ġparado":4848,"Ġprovar":4849,"ĠVa":4850,"ĠVend":4851,"cios":4852,"ĠFi":4853,"Ġperson":4854,"Ġnega":4855,"Ġcacete":4856,"ĠLin":4857,"ĠNada":4858,"ĠNET":4859,"Ġparecendo":4860,"Ġarruma":4861,"pida":4862,"Ġmoda":4863,"idades":4864,"Ġmorto":4865,"ramini":4866,"Desde":4867,"elaxa":4868,"itado":4869,"cheio":4870,"Ã´nico":4871,"Ġhomens":4872,"iciente":4873,"Ġinterrom":4874,"Ġvacinar":4875,"Ġnasceu":4876,"Ġ500":4877,"ĠfunÃ§Ã£o":4878,"Marc":4879,"ĠAndre":4880,"sua":4881,"Ġdiferentes":4882,"âĻ«":4883,"Ġaguenta":4884,"ĠhorÃ¡rio":4885,"ĠhorrÃŃvel":4886,"Ġpontos":4887,"timos":4888,"ĠRafael":4889,"Ġtomada":4890,"Ġficam":4891,"HHHH":4892,"Ġkit":4893,"ĠÃģfrica":4894,"Ġrisco":4895,"Ġprivada":4896,"entral":4897,"ĠLÃŃvia":4898,"Ġnegocio":4899,"ĠAcabou":4900,"Ġseparar":4901,"Ġfrase":4902,"ĠCleiton":4903,"ĠBatista":4904,"Doutor":4905,"Ġacesso":4906,"Ġaproveitar":4907,"ĠRenata":4908,"ĠDanni":4909,"ĠtÃ©cnico":4910,"ÃŃblia":4911,"lamengo":4912,"Ġemocion":4913,"Ġmadrugada":4914,"ĠYouTube":4915,"ĠVendramini":4916,"\"...":4917,"AC":4918,"Daniel":4919,"Hm":4920,"II":4921,"LE":4922,"Lar":4923,"Pastor":4924,"Sol":4925,"bon":4926,"cula":4927,"fala":4928,"ginal":4929,"iva":4930,"jeito":4931,"ky":4932,"pur":4933,"pens":4934,"pper":4935,"sim":4936,"tter":4937,"tulo":4938,"tanha":4939,"uki":4940,"ya":4941,"Â°":4942,"Âº":4943,"ĠEntendeu":4944,"rapia":4945,"Ġpic":4946,"Ġcla":4947,"Ġcun":4948,"quero":4949,"dores":4950,"are":4951,"encial":4952,"ssia":4953,"ers":4954,"Ġfis":4955,"Ġfir":4956,"Ġfeio":4957,"anal":4958,"dada":4959,"deral":4960,"hone":4961,"ĠbÃªbado":4962,"Ġgram":4963,"ÃŃda":4964,"imos":4965,"esar":4966,"ama":4967,"Ġligo":4968,"Ġlista":4969,"ĠnoÃ§Ã£o":4970,"ĠpraÃ§a":4971,"ilho":4972,"Ġnao":4973,"Ġdaquela":4974,"Ġfalado":4975,"ĠcondiÃ§Ã£o":4976,"dial":4977,"ĠClau":4978,"Ġmadeira":4979,"ĠAle":4980,"ĠMor":4981,"tio":4982,"ĠSon":4983,"Ġpagando":4984,"Ġtuas":4985,"Ġinde":4986,"Ġincomo":4987,"ĠinÃŃcio":4988,"ĠBa":4989,"Ġpreta":4990,"Ġcoisinha":4991,"tende":4992,"ĠRu":4993,"ĠVic":4994,"porto":4995,"Ġdescar":4996,"ĠLÃ¡":4997,"izando":4998,"ĠNaice":4999,"tude":5000,"ĠGon":5001,"ĠEM":5002,"Ġletra":5003,"Ġmeninos":5004,"Ġmaneiro":5005,"Ġarca":5006,"Ġchei":5007,"Ġcheira":5008,"Ġchocolate":5009,"Ġchata":5010,"Ġtirando":5011,"Ġtroco":5012,"onato":5013,"Ġonline":5014,"jada":5015,"Ġvoltando":5016,"Ġvoltei":5017,"Deputado":5018,"trica":5019,"ĠHm":5020,"ĠHelena":5021,"Ġacabando":5022,"Alun":5023,"andante":5024,"000":5025,"Peguei":5026,"Ġvoo":5027,"Ġresponde":5028,"Ġpolicial":5029,"Ġcompan":5030,"ĠposiÃ§Ã£o":5031,"Ġsolta":5032,"keting":5033,"Ġreceita":5034,"reno":5035,"Marcos":5036,"Ġcabo":5037,"ĠRede":5038,"ibilidade":5039,"Ġrecebi":5040,"ticas":5041,"ĠtesÃ£o":5042,"ĠpÃ©ss":5043,"dÃ¡vel":5044,"Ġadm":5045,"Ġsincer":5046,"Ġcigar":5047,"Ġlevanta":5048,"ĠnotÃŃcias":5049,"Ġcriado":5050,"Ġbateria":5051,"Traz":5052,"Trabal":5053,"Ġfaria":5054,"orreu":5055,"Teve":5056,"Ġsusten":5057,"etano":5058,"Ġpeido":5059,"Gostei":5060,"onete":5061,"Ġfuncionando":5062,"ĠBarra":5063,"Chama":5064,"Ġapresentar":5065,"ĠagradeÃ§o":5066,"Ġbuscar":5067,"Ġescroto":5068,"ĠgÃªnero":5069,"Ġeconomia":5070,"ĠseleÃ§Ã£o":5071,"ĠhÃ©tero":5072,"ĠISSO":5073,"15":5074,"Cinco":5075,"Fab":5076,"Fiz":5077,"Gustavo":5078,"On":5079,"Sal":5080,"Ter":5081,"Uhum":5082,"Vac":5083,"bou":5084,"cy":5085,"fferson":5086,"ios":5087,"itivo":5088,"king":5089,"nar":5090,"rÃŃ":5091,"rÃŃculo":5092,"vin":5093,"veita":5094,"Ġ[":5095,"Ġxi":5096,"Ġah":5097,"Ġefeito":5098,"ĠcÃ³":5099,"ĠclÃ¡":5100,"ĠcidadÃ£o":5101,"Ġnom":5102,"ĠmÃŃn":5103,"Ġmolha":5104,"Ġmonstro":5105,"Ġmoch":5106,"Ġmuitas":5107,"dom":5108,"dona":5109,"Ġsente":5110,"enÃ§o":5111,"endeu":5112,"entrar":5113,"eros":5114,"Ġfru":5115,"ĠfÃŃs":5116,"todas":5117,"umb":5118,"ĠtchÃª":5119,"remos":5120,"hada":5121,"eman":5122,"emora":5123,"Ġteus":5124,"Ġest":5125,"outro":5126,"Ġger":5127,"Ġgelo":5128,"Ġgig":5129,"ÃŃsa":5130,"iaÃ§Ã£o":5131,"imentar":5132,"Ġporteiro":5133,"ĠporquÃª":5134,"Ġseca":5135,"Ġengra":5136,"Ġrea":5137,"ĠCer":5138,"ĠPl":5139,"ĠPres":5140,"ĠPiroca":5141,"ĠAM":5142,"ĠAgu":5143,"ĠAli":5144,"ĠMichel":5145,"tira":5146,"ĠSÃŃria":5147,"usto":5148,"ĠBen":5149,"cera":5150,"EngraÃ§ado":5151,"Ġprofessor":5152,"ĠOr":5153,"ĠObrigada":5154,"ĠOnde":5155,"ĠRom":5156,"ciÃªncia":5157,"ĠFor":5158,"Ġante":5159,"Ġperfil":5160,"iriam":5161,"ĠLor":5162,"Ġboto":5163,"ĠEvandro":5164,"derson":5165,"dereÃ§o":5166,"Ġcard":5167,"Ġlixo":5168,"Ġliguei":5169,"Ġmeninas":5170,"consegu":5171,"Ġdeixo":5172,"Ġapos":5173,"liga":5174,"Ġmoro":5175,"igi":5176,"itaÃ§Ã£o":5177,"ĠWal":5178,"parou":5179,"Ã´nica":5180,"Ġrespons":5181,"Ġunha":5182,"Ġcaix":5183,"Ġfigu":5184,"Ġpuxa":5185,"Ġfizer":5186,"Ġinteli":5187,"Ġerrada":5188,"eroporto":5189,"Ġrelacionamento":5190,"Ġatende":5191,"ĠZona":5192,"Ġpesco":5193,"ĠJohn":5194,"Ġimporta":5195,"Ġhumor":5196,"lesc":5197,"nifica":5198,"ĠmissÃ£o":5199,"drinho":5200,"ĠAmor":5201,"ĠAmanda":5202,"Ġbebendo":5203,"gosto":5204,"Ġcivil":5205,"Ġlevantar":5206,"Ġouvido":5207,"MaurÃŃcio":5208,"Ġgordo":5209,"Rapaz":5210,"Ġnamorado":5211,"oooooooo":5212,"ĠTodo":5213,"uuuu":5214,"Ġmistura":5215,"Volta":5216,"gner":5217,"Ġlink":5218,"Ġescolheu":5219,"Ġjusti":5220,"pÃŃrito":5221,"ĠsilÃªncio":5222,"Ġatrapalhar":5223,"Ġcontrole":5224,"Ġhonra":5225,"Duas":5226,"Ġdificuldade":5227,"Sabia":5228,"ianca":5229,"Ġobser":5230,"Ġapelido":5231,"Ġvantagem":5232,"pperw":5233,"'t":5234,"Ab":5235,"Apro":5236,"Afonso":5237,"AurÃ©lio":5238,"Cam":5239,"Corre":5240,"Dei":5241,"GA":5242,"HÃ¡":5243,"IM":5244,"SÃ©rgio":5245,"UM":5246,"VÃ£o":5247,"eda":5248,"gh":5249,"gÃªncia":5250,"hia":5251,"jei":5252,"oga":5253,"rome":5254,"senhor":5255,"zz":5256,"Âª":5257,"Ġ..":5258,"Ġul":5259,"Ġae":5260,"Ġape":5261,"Ġaba":5262,"Ġatual":5263,"ĠnÃŃvel":5264,"ĠsÃŃ":5265,"ĠvÃ³":5266,"Ġquebrar":5267,"eric":5268,"Ġfol":5269,"Ġfuma":5270,"Ġobri":5271,"umo":5272,"umir":5273,"Ġboc":5274,"Ġesquina":5275,"leber":5276,"Ġcomum":5277,"estre":5278,"Ġlaranja":5279,"elly":5280,"abre":5281,"Quantos":5282,"undial":5283,"ĠendereÃ§o":5284,"gaÃ§Ã£o":5285,"ultado":5286,"Ġconven":5287,"ĠPM":5288,"ĠPÃ´":5289,"ĠPimenta":5290,"ĠAL":5291,"ĠAssim":5292,"ĠMal":5293,"tarina":5294,"Ġfodeu":5295,"tif":5296,"tivos":5297,"ĠTra":5298,"ĠThe":5299,"Ġsenta":5300,"ĠBBB":5301,"possÃŃvel":5302,"pete":5303,"Ġproib":5304,"tente":5305,"tenho":5306,"Ġsabor":5307,"Ġsuco":5308,"Ġmestre":5309,"ĠRubens":5310,"ĠVol":5311,"Ãºdo":5312,"ĠFu":5313,"ĠLui":5314,"Ġtentou":5315,"ĠNas":5316,"ĠGeraldo":5317,"ĠEdu":5318,"derno":5319,"Ġmascul":5320,"Ġgostos":5321,"Ġcasada":5322,"ocada":5323,"Ġchur":5324,"daria":5325,"Ġapaix":5326,"Ġapenas":5327,"Ġ14":5328,"Ġ16":5329,"Ġsaia":5330,"Ãªncias":5331,"Ġlavar":5332,"trÃªs":5333,"ĠHa":5334,"ĠÃ¡r":5335,"Ġmarketing":5336,"Ġlobo":5337,"Ġconstran":5338,"Ġhomo":5339,"cionar":5340,"Ġuni":5341,"Ġpassagem":5342,"posiÃ§Ã£o":5343,"Ġinterna":5344,"formar":5345,"deiro":5346,"Ġresolveu":5347,"Ġbonitinho":5348,"Ġsolto":5349,"Ġbaixar":5350,"Ġbairro":5351,"Ġadorar":5352,"Ġadorei":5353,"Ġdiscu":5354,"Ġmila":5355,"Ġmijar":5356,"Ġbebida":5357,"ĠNatÃ¡lia":5358,"Ġgols":5359,"Ġpedreiro":5360,"Ġacorda":5361,"Ġengano":5362,"Ġcomunista":5363,"entista":5364,"Coloca":5365,"ĠJulia":5366,"Ġperceber":5367,"Ġmentiro":5368,"Ġsubir":5369,"Ġcrescer":5370,"qualquer":5371,"Ġdemora":5372,"Ġdemitir":5373,"Ġassalto":5374,"Ġinvesti":5375,"Ġquadro":5376,"Ġliberado":5377,"Ġfamoso":5378,"ĠSuzuki":5379,"ĠgrÃ¡vida":5380,"Ġracismo":5381,"ksha":5382,"Ġsapato":5383,"prensa":5384,"Ġpersonal":5385,"ĠmÃŃnimo":5386,"500":5387,"Be":5388,"Cuidado":5389,"Dom":5390,"Essas":5391,"Fern":5392,"FamÃŃlia":5393,"HE":5394,"Jura":5395,"MamÃ£e":5396,"PF":5397,"PM":5398,"Tio":5399,"Viu":5400,"bendo":5401,"cur":5402,"dÃŃssimo":5403,"eja":5404,"gen":5405,"gor":5406,"ies":5407,"itos":5408,"op":5409,"oto":5410,"pÃ¡":5411,"pio":5412,"rr":5413,"âĶ":5414,"Ġ#":5415,"ĠâĶ":5416,"Ġala":5417,"Ġpente":5418,"ĠpÃµe":5419,"Ġcro":5420,"Ġmy":5421,"Ġsho":5422,"Ġvinha":5423,"ssei":5424,"into":5425,"Ã¡bado":5426,"Ġdevagar":5427,"tomar":5428,"Ġom":5429,"Ġoque":5430,"omos":5431,"our":5432,"Ġgera":5433,"ÃŃlio":5434,"icio":5435,"amais":5436,"ĠlÃª":5437,"rique":5438,"olina":5439,"Ġentro":5440,"Ġaceitar":5441,"Ġconto":5442,"Ġcontando":5443,"Ġrede":5444,"Ġrecado":5445,"ĠCla":5446,"ĠCelular":5447,"ĠPan":5448,"ĠAd":5449,"patia":5450,"usado":5451,"Ġdiri":5452,"Ġpodendo":5453,"Ġpasse":5454,"Esta":5455,"coin":5456,"Ġalugu":5457,"ĠBeleza":5458,"vete":5459,"cep":5460,"Ġpropaganda":5461,"ĠJar":5462,"ĠRH":5463,"ĠRosana":5464,"ĠVerm":5465,"portun":5466,"Ãºdio":5467,"ĠFlamengo":5468,"Ġanel":5469,"Ġperdendo":5470,"Ġdesta":5471,"Ġdesce":5472,"ĠLon":5473,"Ġtentei":5474,"Ġhid":5475,"tugal":5476,"ĠGreg":5477,"ĠGrande":5478,"Ġpodemos":5479,"cisco":5480,"lobal":5481,"culos":5482,"Ġligou":5483,"Ġlike":5484,"ĠÃ³dio":5485,"Tempo":5486,"jeÃ§Ã£o":5487,"Ġestab":5488,"Ġsegurando":5489,"Ġarm":5490,"Ġarqui":5491,"Ġchamo":5492,"zada":5493,"toria":5494,"liv":5495,"ĠIh":5496,"ĠIs":5497,"ĠMarina":5498,"ĠMarcela":5499,"Ġmorta":5500,"ferÃªncia":5501,"Ġcola":5502,"ĠHoje":5503,"Ġtinham":5504,"Ġimprensa":5505,"desculpa":5506,"Ġgracinha":5507,"pare":5508,"Ġmelhores":5509,"Ġloira":5510,"PatrÃŃcia":5511,"itcoin":5512,"Ġpergunto":5513,"Ġfique":5514,"Tok":5515,"Todos":5516,"Ġpubl":5517,"ĠMagal":5518,"Ġbarba":5519,"Ġabando":5520,"Ġlugares":5521,"Ġgalinha":5522,"deias":5523,"Ġfug":5524,"hhhh":5525,"ĠcurrÃŃculo":5526,"Infelizmente":5527,"Outra":5528,"Ġori":5529,"volta":5530,"ĠRegina":5531,"tilha":5532,"ĠespÃ©":5533,"Ġ40":5534,"ĠLegal":5535,"Ġlimpa":5536,"ĠinfÃ¢ncia":5537,"Perfeito":5538,"ticamente":5539,"Realmente":5540,"RogÃ©rio":5541,"Ġchamam":5542,"crever":5543,"Super":5544,"ĠJudas":5545,"luia":5546,"ÃŃssima":5547,"Antes":5548,"Ġbriga":5549,"Ġderruba":5550,"ĠTati":5551,"ĠParabÃ©ns":5552,"cker":5553,"ANDO":5554,"Armando":5555,"Ġsocial":5556,"dical":5557,"Ġfranc":5558,"ĠpalhaÃ§o":5559,"ÃŃmica":5560,"Ġagradecer":5561,"ICA":5562,"Ġdemorar":5563,"ĠMendes":5564,"Presta":5565,"Ġgeladeira":5566,"ĠÃŃndio":5567,"Ġdecidir":5568,"Ġcouro":5569,"Ġdesempre":5570,"ĠBangu":5571,"ĠGilmar":5572,"IrmÃ£o":5573,"Ġcancelar":5574,"ĠSenhora":5575,"Marcelo":5576,"Ġxixi":5577,"ĠâĶĢ":5578,"Ġaluguel":5579,"19":5580,"Cu":5581,"Conta":5582,"Diz":5583,"Dez":5584,"Fun":5585,"Li":5586,"Mesmo":5587,"Murilo":5588,"NT":5589,"Num":5590,"PE":5591,"Pl":5592,"UC":5593,"VA":5594,"VI":5595,"agner":5596,"bec":5597,"ces":5598,"claro":5599,"cendente":5600,"din":5601,"finha":5602,"fli":5603,"gamento":5604,"gent":5605,"hes":5606,"ibe":5607,"igual":5608,"kTok":5609,"lene":5610,"pu":5611,"pÃ©":5612,"rente":5613,"sos":5614,"tÃªncia":5615,"ud":5616,"uh":5617,"udia":5618,"quÃªncia":5619,"Ġavenida":5620,"Ġcoco":5621,"tela":5622,"Ġmara":5623,"Ã©ria":5624,"Ġvin":5625,"enha":5626,"Ġqueimar":5627,"Ġfel":5628,"Ġfeia":5629,"Ġfirma":5630,"tom":5631,"ĠotÃ¡rio":5632,"ĠtÃªnis":5633,"Ġesco":5634,"quito":5635,"aior":5636,"Ġcomen":5637,"Ġcompe":5638,"Ġidos":5639,"Ġideias":5640,"Ġlendo":5641,"Ġnoj":5642,"gueira":5643,"Ġrepres":5644,"ĠCÃ¡tia":5645,"Ġmato":5646,"ĠPu":5647,"ĠPARA":5648,"mado":5649,"ĠMA":5650,"ĠME":5651,"ĠMeire":5652,"Ġfazenda":5653,"paga":5654,"paÃ§Ã£o":5655,"tive":5656,"ĠSU":5657,"ĠSelma":5658,"Ġamante":5659,"Ġpacote":5660,"Ġintim":5661,"ĠTU":5662,"ĠTit":5663,"ĠTenho":5664,"ĠTchau":5665,"ĠTiago":5666,"Ã§apava":5667,"ĠBro":5668,"ĠBras":5669,"ranca":5670,"Ġpressa":5671,"pedir":5672,"Ġsuger":5673,"ĠJac":5674,"ĠFec":5675,"inada":5676,"nador":5677,"ĠLem":5678,"ĠLac":5679,"ĠLima":5680,"ĠLÃ©o":5681,"ĠbotÃ£o":5682,"Ġhigi":5683,"turas":5684,"ĠGoi":5685,"ĠGuiana":5686,"ĠEi":5687,"ruz":5688,"Ġtrave":5689,"ĠprÃ©":5690,"term":5691,"Ġcargo":5692,"Ġcarona":5693,"cons":5694,"bater":5695,"Ġcorta":5696,"tories":5697,"Ġlava":5698,"Ġcancela":5699,"ĠMarlene":5700,"Ġsozinha":5701,"ĠUMA":5702,"horar":5703,"velmente":5704,"Ġrob":5705,"Ġroteiro":5706,"Ã³sito":5707,"Ġachava":5708,"''.":5709,"enhum":5710,"Ġmilksha":5711,"Ġrespeitar":5712,"itÃŃssimo":5713,"Ġperguntou":5714,"Ġabrindo":5715,"Ġbaixa":5716,"Ġ2020":5717,"Ġcurti":5718,"Ãĵtimo":5719,"Ġapareceu":5720,"Ġadolesc":5721,"pping":5722,"Ġtalento":5723,"Ãģgua":5724,"Ġespal":5725,"ĠespÃŃ":5726,"Ġespelho":5727,"Ġlimpar":5728,"Conhe":5729,"Ġfechado":5730,"Ġrecebeu":5731,"ticos":5732,"Ġtesoura":5733,"barulho":5734,"Ġchuva":5735,"ĠSaÃºde":5736,"Ġacordar":5737,"ĠfarmÃ¡":5738,"Ġbalde":5739,"Rapidinho":5740,"Ġguardar":5741,"Ġgarota":5742,"Ġescrever":5743,"Ġbuceta":5744,"Ġquieto":5745,"Maravilhoso":5746,"ĠÃģries":5747,"Ġafas":5748,"Ġcost":5749,"Ġestrela":5750,"Cola":5751,"Chu":5752,"Ġdesenvol":5753,"Ġreclamar":5754,"Ġcolocou":5755,"Ġconfiar":5756,"Ġqueijo":5757,"Ġacompan":5758,"rupÃ§Ã£o":5759,"ĠemoÃ§Ã£o":5760,"Ġbobagem":5761,"ĠbagunÃ§a":5762,"ĠMarquinhos":5763,"argento":5764,"JosÃ©":5765,"iterÃ³i":5766,"ĠdÃŃvida":5767,"Ġpossibilidade":5768,"Ġmochila":5769,"ĠespÃ©cie":5770,"ĠfarmÃ¡cia":5771,".''":5772,"Ao":5773,"DI":5774,"Ham":5775,"Mi":5776,"Pimenta":5777,"Ru":5778,"Relaxa":5779,"Ser":5780,"UTA":5781,"VD":5782,"bul":5783,"bus":5784,"cley":5785,"gri":5786,"gÃ³cio":5787,"genda":5788,"ioca":5789,"lum":5790,"lÃ¢n":5791,"min":5792,"nÃ´":5793,"oh":5794,"udÃ¡vel":5795,"vante":5796,"vanta":5797,"vamo":5798,"xando":5799,"ĠEntendi":5800,"Ġaum":5801,"Ġaeroporto":5802,"Ġev":5803,"Ġelo":5804,"Ġpur":5805,"ĠcrÃ©":5806,"Ã£Ã£":5807,"Ã©is":5808,"Ã©re":5809,"Ġsamba":5810,"ininha":5811,"erta":5812,"Ġfei":5813,"Ġfes":5814,"Ġfio":5815,"Ġfres":5816,"Ġdepos":5817,"Ġdevendo":5818,"antil":5819,"ombo":5820,"reto":5821,"onel":5822,"Ġben":5823,"Ġber":5824,"Ġbura":5825,"Ġbosta":5826,"Ġbitcoin":5827,"eite":5828,"ĠgÃªme":5829,"ÃŃÃ§a":5830,"Ġcoma":5831,"ick":5832,"Ã§u":5833,"Ġlhe":5834,"Ġdoi":5835,"gui":5836,"guar":5837,"guer":5838,"gueiro":5839,"ĠtempÃ£o":5840,"Ġdado":5841,"Ġenter":5842,"Ġencer":5843,"Ġench":5844,"dite":5845,"ĠCol":5846,"uiu":5847,"ĠPA":5848,"ĠPai":5849,"Ġquantos":5850,"ĠDom":5851,"ĠDeu":5852,"ĠDemÃ´nio":5853,"ĠDVD":5854,"tividade":5855,"ĠSUS":5856,"ĠTO":5857,"Ġsens":5858,"ĠvitÃ³ria":5859,"Ġalma":5860,"ĠBÃŃblia":5861,"Ġpremi":5862,"veta":5863,"Entre":5864,"Enquanto":5865,"perando":5866,"Ġassiste":5867,"Ġprofessora":5868,"ĠOh":5869,"ĠOde":5870,"ĠVen":5871,"ĠVan":5872,"ĠVAI":5873,"ĠFe":5874,"Ġdescan":5875,"precis":5876,"ĠNiterÃ³i":5877,"ĠGoo":5878,"ĠEli":5879,"nosso":5880,"Ahh":5881,"Ġpris":5882,"Ġexplo":5883,"Ġchego":5884,"Ġresultado":5885,"Tua":5886,"Ġradical":5887,"Ġeram":5888,"Ġ25":5889,"ĠladrÃ£o":5890,"ĠMarcondes":5891,"Ġmorando":5892,"Ã¡stico":5893,"Querido":5894,"ĠHein":5895,"ĠHomem":5896,"Ġrotina":5897,"fada":5898,"Ġrim":5899,"Ġdose":5900,"Amanda":5901,"AmanhÃ£":5902,"Ġdiretor":5903,"enagem":5904,"ormalmente":5905,"andando":5906,"Ġdurante":5907,"Ġpudesse":5908,"idcley":5909,"Ġfamiliar":5910,"Ġesqueceu":5911,"Naquele":5912,"ĠAlÃ´":5913,"Ġlembrando":5914,"Ġposta":5915,"ÃŃstica":5916,"Ġinterior":5917,"Ġsoltar":5918,"Ġescolha":5919,"Ġcurto":5920,"Ã©rica":5921,"Ã©rcio":5922,"ĠespecÃŃ":5923,"gitÃ¡rio":5924,"Ġrapaziada":5925,"Maria":5926,"Ġorgulho":5927,"Ġhumil":5928,"Ġencontrei":5929,"Ġinfelizmente":5930,"ĠNet":5931,"ĠpirÃ¢m":5932,"Ġbeija":5933,"filho":5934,"Ġcultura":5935,"Ġcuida":5936,"Ġlongo":5937,"ĠuÃ©":5938,"Ġ60":5939,"Ġpeixe":5940,"Joga":5941,"ĠChina":5942,"vidson":5943,"Ġkara":5944,"Ġtristeza":5945,"ĠalmoÃ§ar":5946,"ĠDudu":5947,"Ġproduto":5948,"Ġcresceu":5949,"Ġbarata":5950,"Ġaprender":5951,"Ġsobrinho":5952,"Ġblusa":5953,"Ġcrack":5954,"Lucas":5955,"ÃĩÃĥO":5956,"Ġapertar":5957,"Presidente":5958,"Candidato":5959,"Ġmontanha":5960,"Ġprinci":5961,"Ġliberdade":5962,"ĠSuzana":5963,"Ġpsic":5964,"ĠdanÃ§ar":5965,"ĠFrancisco":5966,"Ġconfundindo":5967,"Ġexag":5968,"Ġacompanha":5969,"Ġcruzeiro":5970,"Ġchoro":5971,"ĠeleiÃ§Ã£o":5972,"Ġsignifica":5973,"Ġacostum":5974,"Ġpatroc":5975,"ĠZoio":5976,"Ġfantasia":5977,"ananÃ£":5978,"Ġnariz":5979,"Ġesgoto":5980,"antidade":5981,"ĠpedaÃ§o":5982,"Ġdividir":5983,"emanjÃ¡":5984,"ĠpescoÃ§o":5985,"Ġchurras":5986,"Ġmilagre":5987,"Ġombro":5988,"ĠarmÃ¡rio":5989,"Ġidosos":5990,"Ban":5991,"COM":5992,"DB":5993,"Fico":5994,"Ga":5995,"Gal":5996,"He":5997,"IF":5998,"Jul":5999,"Mor":6000,"Meio":6001,"Merda":6002,"ORA":6003,"PA":6004,"Pi":6005,"Pens":6006,"RI":6007,"Ris":6008,"Senta":6009,"Tal":6010,"Tenta":6011,"UU":6012,"VO":6013,"VÃ¡":6014,"ak":6015,"cinho":6016,"cante":6017,"dal":6018,"gÃ©":6019,"gÃªn":6020,"glas":6021,"hi":6022,"jac":6023,"lÃ£o":6024,"lÃ©":6025,"len":6026,"muita":6027,"palha":6028,"sur":6029,"tinhas":6030,"tÃ´nio":6031,"wit":6032,"zando":6033,"Ġassa":6034,"ĠdÃ£o":6035,"Ġdim":6036,"ĠdÃ³i":6037,"Ġcis":6038,"queira":6039,"teve":6040,"Ã©plica":6041,"Ġspo":6042,"Ġske":6043,"Ġvice":6044,"engo":6045,"enrique":6046,"ere":6047,"Ġocu":6048,"Ġoportun":6049,"antÃ¡":6050,"Ġtamb":6051,"ocidade":6052,"reza":6053,"dap":6054,"tador":6055,"onha":6056,"Ġtec":6057,"Ġbru":6058,"ostra":6059,"Ġesper":6060,"Ġescada":6061,"Ġestru":6062,"Ġgame":6063,"Ġglobal":6064,"ÃŃdia":6065,"Ġcompor":6066,"Ã§am":6067,"lada":6068,"esto":6069,"amora":6070,"rie":6071,"rianÃ§a":6072,"Ġdoida":6073,"elas":6074,"guem":6075,"Ġprazo":6076,"Ġfale":6077,"Ġengo":6078,"Ġacima":6079,"ĠCin":6080,"ĠCON":6081,"ĠCentral":6082,"Ġmacho":6083,"Ġquantidade":6084,"ĠAb":6085,"ĠMel":6086,"ĠMinha":6087,"ĠMinas":6088,"ĠMiriam":6089,"oisÃ©s":6090,"tifica":6091,"tivas":6092,"Ġdig":6093,"Ġdiga":6094,"Ġpodre":6095,"Ġinver":6096,"Esquece":6097,"Ġalguns":6098,"ĠBu":6099,"Ġprefeitura":6100,"Entra":6101,"pegar":6102,"Ġprotes":6103,"Ġsujeito":6104,"Ġouve":6105,"prar":6106,"ĠRI":6107,"ĠVia":6108,"cife":6109,"Ãºssia":6110,"Ġans":6111,"Ġanal":6112,"ambu":6113,"ĠterÃ§a":6114,"Ġcaga":6115,"ĠLei":6116,"Ġhil":6117,"ĠNunca":6118,"tureza":6119,"ĠGENTE":6120,"Ġfilmar":6121,"rupo":6122,"Ġtravou":6123,"Ġprender":6124,"aconte":6125,"Ġexer":6126,"Ġextra":6127,"Ġparei":6128,"vidÃ£o":6129,"ĠÃīrica":6130,"cular":6131,"ĠÃ³r":6132,"Ġgostam":6133,"bada":6134,"Ġmano":6135,"Ġarras":6136,"Ġtapa":6137,"Ġchate":6138,"Ġescor":6139,"Ġ17":6140,"lidade":6141,"Ġ24":6142,"Ġjoelho":6143,"Ġmodo":6144,"Ġsobe":6145,"Ġmorri":6146,"riso":6147,"ĠHol":6148,"Ġbati":6149,"Ġbatal":6150,"Ġimun":6151,"tamina":6152,"itada":6153,"durante":6154,"Algum":6155,"Ġcurioso":6156,"parei":6157,"guaÃ§u":6158,"Ġconstru":6159,"pros":6160,"ĠmilÃŃcia":6161,"rinta":6162,"visa":6163,"ĠPega":6164,"Ġpresta":6165,"ĠMaur":6166,"Ġpelado":6167,"ood":6168,"tantes":6169,"Ġquisesse":6170,"Ġpolicia":6171,"hÃ£es":6172,"ĠAlice":6173,"Ġcalcinha":6174,"forme":6175,"Ġvacinou":6176,"rones":6177,"Ġresolvido":6178,"Ġgata":6179,"ĠEspÃŃrito":6180,"Ġolhei":6181,"Ġbolinha":6182,"Ġtransforma":6183,"Ġpesquis":6184,"Ġconfir":6185,"Ġfinalmente":6186,"Ġatrave":6187,"DOS":6188,"ĠRecife":6189,"ĠLuci":6190,"Falo":6191,"Ġmomentos":6192,"ĠBota":6193,"Ġespir":6194,"Ġbrancos":6195,"ĠPosso":6196,"Continu":6197,"Chefe":6198,"caralho":6199,"Ġinfec":6200,"Ãªmica":6201,"Ġsurf":6202,"ĠNegÃ£o":6203,"Ġchupar":6204,"Ġcoragem":6205,"anhou":6206,"romo":6207,"Ġpalavras":6208,"apon":6209,"Ġ70":6210,"Ġentrada":6211,"Ġpronun":6212,"***":6213,"Ġcandidatos":6214,"Ġcuidar":6215,"Ġchopp":6216,"ĠArmando":6217,"Ġescrevi":6218,"ĠsofÃ¡":6219,"Ġgrita":6220,"Filha":6221,"Ġpensado":6222,"Ġfumo":6223,"Ġestive":6224,"ĠParou":6225,"Ġcristal":6226,"Ġpreocupado":6227,"Ġreclama":6228,"Ġdrogas":6229,"Ġburro":6230,"ĠJefferson":6231,"Ġgenial":6232,"ellen":6233,"ĠCasa":6234,"Ġgrosso":6235,"Ġgrossa":6236,"ĠBatman":6237,"Ġantiga":6238,"Caius":6239,"Ġencosta":6240,"Ġracista":6241,"ĠLÃºcio":6242,"Ġmachista":6243,"Ġassinatura":6244,"Ġsensacional":6245,"Aconteceu":6246,"ĠcenÃ¡rio":6247,"ĠDouglas":6248,"cabana":6249,"Ġ2021":6250,"ĠconteÃºdo":6251,"Ġcunhado":6252,"Ġfirme":6253,"ĠGonÃ§":6254,"ĠclÃ¡ss":6255,"Ġgigante":6256,"pperware":6257,"ĠMagalhÃ£es":6258,"ĠrobÃ´":6259,"ĠGoogle":6260,"Ġspoiler":6261,"Ġsketch":6262,"antÃ¡s":6263,"?...":6264,"AH":6265,"Bar":6266,"Bal":6267,"ClÃ¡":6268,"CÃ©sar":6269,"Elas":6270,"Elei":6271,"FÃ¡":6272,"Mil":6273,"MÃ¡r":6274,"Or":6275,"Sur":6276,"Ti":6277,"TRA":6278,"Vo":6279,"VOCÃĬ":6280,"What":6281,"br":6282,"binho":6283,"beira":6284,"chei":6285,"dente":6286,"dinhas":6287,"eo":6288,"fas":6289,"final":6290,"jou":6291,"jam":6292,"lock":6293,"mil":6294,"mulher":6295,"manda":6296,"neu":6297,"pÃ´":6298,"tÃŃ":6299,"uga":6300,"xer":6301,"xou":6302,"zil":6303,"zio":6304,"quisa":6305,"Ġaqu":6306,"Ġaval":6307,"ĠaÃ§Ãºcar":6308,"Ġadap":6309,"Ġess":6310,"Ġedi":6311,"ĠdÃª":6312,"Ġdoce":6313,"Ġpano":6314,"Ġpular":6315,"Ġcoi":6316,"Ã©bora":6317,"Ġvento":6318,"Ġvaso":6319,"inci":6320,"inclusive":6321,"Ã¡lia":6322,"orou":6323,"Ġfral":6324,"Ġdevo":6325,"Ġderam":6326,"top":6327,"toma":6328,"algum":6329,"alengo":6330,"Ġts":6331,"Ġtum":6332,"Ġtab":6333,"Ġtorn":6334,"Ġtinta":6335,"ropa":6336,"tag":6337,"ĠbÃ¡s":6338,"Ġesf":6339,"Ġgira":6340,"entei":6341,"quilo":6342,"ĠcomÃ©dia":6343,"icleta":6344,"Ã³vel":6345,"amar":6346,"Ġnov":6347,"Ġnovos":6348,"Ġpras":6349,"Ġtempera":6350,"Quase":6351,"Ġnatureza":6352,"unha":6353,"Ġacum":6354,"Ġje":6355,"Ġjapon":6356,"gacia":6357,"Ġcontou":6358,"Ġredes":6359,"Ġreforma":6360,"diante":6361,"ĠCal":6362,"ĠCome":6363,"ĠCPF":6364,"ĠPE":6365,"Ġquantas":6366,"ĠAtÃ©":6367,"ĠMu":6368,"ĠMelhor":6369,"ĠMEU":6370,"ĠDel":6371,"passou":6372,"ĠSus":6373,"ĠSur":6374,"usando":6375,"Ġpagou":6376,"Ġind":6377,"Ġinim":6378,"ĠTE":6379,"ĠTom":6380,"ĠsenÃ£o":6381,"Ġvidas":6382,"Ġvivendo":6383,"ĠBem":6384,"Ġpreju":6385,"cedo":6386,"peta":6387,"pecial":6388,"Ġsabonete":6389,"ĠRui":6390,"ĠRÃºssia":6391,"ĠVÃ¢nia":6392,"cila":6393,"Ãºlio":6394,"Ġantigo":6395,"Ġpernas":6396,"Ġterceiro":6397,"Ġcadeia":6398,"nado":6399,"naquele":6400,"ĠLOL":6401,"ize":6402,"tup":6403,"Ġfiltro":6404,"Comandante":6405,"acabou":6406,"terna":6407,"eza":6408,"ĠÃ³culos":6409,"Ġmens":6410,"Ġmentindo":6411,"conde":6412,"gados":6413,"Ġseguido":6414,"Ġchegaram":6415,"Ġmanif":6416,"Ġmerdas":6417,"Ġescula":6418,"Ġrapel":6419,"Ġtrinta":6420,"Ġsauna":6421,"pidÃ£o":6422,"Ġlados":6423,"Ġcansado":6424,"ferir":6425,"Acha":6426,"ĠPortugal":6427,"Ġrosa":6428,"ĠimpossÃŃvel":6429,"Ġusei":6430,"Ġlutar":6431,"querendo":6432,"Ġsimpatia":6433,"Ġrico":6434,"Ġconhecem":6435,"AlÃ©m":6436,"Ġcolar":6437,"ĠWi":6438,"entado":6439,"ĠdireÃ§Ã£o":6440,"Ġhomenagem":6441,"Ġperguntei":6442,"Ġpresid":6443,"ĠpresenÃ§a":6444,"Ġganhando":6445,"ĠabenÃ§o":6446,"Ġroubou":6447,"valdo":6448,"Ġsalvou":6449,"Ġcomprando":6450,"elize":6451,"Ġnasci":6452,"Ġgaveta":6453,"Ġcomercial":6454,"ĠhistÃ³rias":6455,"Ġatender":6456,"Ġpiranha":6457,"Ġclara":6458,"ĠclÃŃn":6459,"Ġchamada":6460,"ĠCaetano":6461,"ĠCaÃ§apava":6462,"Ġpesquisa":6463,"Ġatraso":6464,"ĠLuÃŃsa":6465,"Ġencontro":6466,"vembro":6467,"Consegu":6468,"Cheguei":6469,"Ġinfantil":6470,"Ġmaioria":6471,"ĠrÃ¡pida":6472,"tanÃ¡s":6473,"ENDO":6474,"Ġamigas":6475,"Ġadul":6476,"Ġwhat":6477,"Ġbeijar":6478,"Ġsincera":6479,"ĠciÃªncia":6480,"Semana":6481,"trib":6482,"ĠligaÃ§Ã£o":6483,"ĠLaura":6484,"entÃŃ":6485,"rump":6486,"ĠfarÃ¡":6487,"Ġoficial":6488,"Rafael":6489,"ahia":6490,"Ġinteresse":6491,"Ġgritando":6492,"Ġsexual":6493,"Ġmexic":6494,"Ġparecia":6495,"Ġsociedade":6496,"Ġgastar":6497,"ĠproduÃ§Ã£o":6498,"Ġ199":6499,"dicos":6500,"ĠpolÃŃtico":6501,"ssionante":6502,"Ġagenda":6503,"ĠJaime":6504,"ĠMÃ¡rcio":6505,"ĠJosias":6506,"Ġinventando":6507,"Ġisqueiro":6508,"mÃ¡tico":6509,"ĠTiju":6510,"ĠTikTok":6511,"Ġparticipar":6512,"Ġmeteoro":6513,"Ġdivertido":6514,"Ã´mico":6515,"ĠherÃ³i":6516,"Ġmelhorar":6517,"ĠSergio":6518,"Adorei":6519,"Ġgarantir":6520,"ĠCopacabana":6521,"Ġarroz":6522,"Ġfinanceiro":6523,"fizer":6524,"Segunda":6525,"Ġlentilha":6526,"Ġsequestro":6527,"Ġsuficiente":6528,"Ġnecessidade":6529,"ĠDESC":6530,"ĠAmazon":6531,"Ġdeveria":6532,"Ġmotorista":6533,"Ġvoces":6534,"Ġdetalhes":6535,"Ġinterromper":6536,"ĠpÃ©ssimo":6537,"Ġsincero":6538,"Ġcigarro":6539,"Ġboceta":6540,"Ġhomossexual":6541,"Ġmentiroso":6542,"Ġshopping":6543,"Ġestabele":6544,"flix":6545,"Ġintimidade":6546,"Ġmilkshake":6547,"ĠcrÃ©dito":6548,"Ġburaco":6549,"Ġpremium":6550,"Talvez":6551,"witter":6552,"antÃ¡stico":6553,"ĠSusana":6554,"BT":6555,"Cal":6556,"Feliz":6557,"Greg":6558,"Ins":6559,"Muita":6560,"MÃºsica":6561,"Nos":6562,"OI":6563,"OK":6564,"Pu":6565,"PÃ©":6566,"PrÃ³ximo":6567,"Ricardo":6568,"Uns":6569,"Veio":6570,"Vanessa":6571,"atra":6572,"beiro":6573,"calma":6574,"dcas":6575,"dÃŃculo":6576,"eb":6577,"esses":6578,"fio":6579,"fez":6580,"ginho":6581,"gno":6582,"gante":6583,"gli":6584,"ka":6585,"ker":6586,"kes":6587,"ld":6588,"lem":6589,"lico":6590,"llon":6591,"mes":6592,"meus":6593,"mito":6594,"odo":6595,"pÃ©u":6596,"rÃªncia":6597,"sando":6598,"serÃ¡":6599,"vira":6600,"veio":6601,"Ãļ":6602,"Ġran":6603,"ĠQuando":6604,"ĠpÃ³s":6605,"ĠcrÃŃ":6606,"Ã£s":6607,"Ġmina":6608,"Ã©vei":6609,"ĠsÃ¡bado":6610,"Ġvas":6611,"Ġvic":6612,"arde":6613,"encon":6614,"entinho":6615,"inga":6616,"Ã¡cio":6617,"Ã¡tico":6618,"orra":6619,"erÃª":6620,"ĠfÃ©":6621,"Ġfria":6622,"Ġflu":6623,"Ġocor":6624,"ang":6625,"aldo":6626,"alti":6627,"ocando":6628,"istir":6629,"redo":6630,"deus":6631,"hos":6632,"Ġbeira":6633,"outra":6634,"Ġgl":6635,"Ġgrin":6636,"iador":6637,"entemente":6638,"aixar":6639,"est":6640,"Ã³ria":6641,"Ġioga":6642,"Ġleu":6643,"Ġnovas":6644,"ĠporÃ©m":6645,"Ġporno":6646,"oluta":6647,"Ġdados":6648,"Ġface":6649,"Ġfacul":6650,"unciar":6651,"Ġjamais":6652,"Ġconex":6653,"Ġrei":6654,"Ġreli":6655,"Ġrezar":6656,"Ġemail":6657,"ĠCi":6658,"ĠCÃª":6659,"ĠPT":6660,"ĠPab":6661,"ĠPfizer":6662,"ĠAra":6663,"ĠAlex":6664,"ĠMon":6665,"ĠMil":6666,"ĠMÃ¡rio":6667,"ĠMilton":6668,"inhoso":6669,"Ġtop":6670,"Ġtou":6671,"Ġtosse":6672,"ĠSE":6673,"ĠSal":6674,"ĠSam":6675,"ĠSÃ´nia":6676,"Ġami":6677,"Ġamei":6678,"Ġcaraca":6679,"Ġinten":6680,"Esque":6681,"cau":6682,"Ġviral":6683,"Ã§aÃŃ":6684,"Ġalho":6685,"ĠalÃ©m":6686,"Ġalimenta":6687,"ĠBi":6688,"ĠBal":6689,"ĠBora":6690,"ĠBeijo":6691,"ĠBahia":6692,"poder":6693,"Ġprecon":6694,"vea":6695,"Ġassumir":6696,"Ġsujo":6697,"ĠJor":6698,"ĠVanessa":6699,"Ãºl":6700,"Ãºr":6701,"ĠFer":6702,"Ġperdida":6703,"irul":6704,"Ġdesespera":6705,"ambi":6706,"Ġcaindo":6707,"Ġcagando":6708,"Ġcagada":6709,"precisa":6710,"ĠLo":6711,"ĠLis":6712,"Ġbole":6713,"Ġhi":6714,"ĠGos":6715,"Ġfilmando":6716,"Comprei":6717,"Ġparto":6718,"Ġestacionamento":6719,"Ġsegue":6720,"Ġraio":6721,"Ġsafado":6722,"ĠsaudÃ¡vel":6723,"lito":6724,"ĠIemanjÃ¡":6725,"onada":6726,"Ġlata":6727,"Ġcanta":6728,"Ġcantando":6729,"Ġsobra":6730,"Ġsoja":6731,"Podia":6732,"fere":6733,"trÃ³":6734,"gela":6735,"bola":6736,"ĠUr":6737,"ĠHu":6738,"ĠHenrique":6739,"Ġform":6740,"Ġbanda":6741,"Ġbandeira":6742,"talmente":6743,"ĠÃ¡gu":6744,"Ġconheci":6745,"Ġtransa":6746,"ĠcolÃ©gio":6747,"Ġpessoalmente":6748,"chan":6749,"Ġgrave":6750,"ĠPaulinho":6751,"Ġconside":6752,"problema":6753,"Ġmilitar":6754,"Ġ300":6755,"cionou":6756,"Ġrespeita":6757,"Ġempregada":6758,"itinha":6759,"ĠPedrinho":6760,"Ġvenda":6761,"Ġvenho":6762,"Ġesquen":6763,"Ġcalmo":6764,"ĠplÃ¡stico":6765,"fogo":6766,"Ġpostando":6767,"Ġerrou":6768,"Ġgostava":6769,"ked":6770,"ĠNova":6771,"Ġcabel":6772,"Ġchamado":6773,"volu":6774,"Ġdisfar":6775,"ĠLuÃŃs":6776,"Ġbicicleta":6777,"Ġgrandes":6778,"ĠTemer":6779,"ĠSua":6780,"ĠSuÃŃÃ§a":6781,"ĠLeo":6782,"TAR":6783,"Ġsono":6784,"Ġmijo":6785,"Pergunta":6786,"xias":6787,"Preciso":6788,"vesti":6789,"ĠamigÃ£o":6790,"Rodrigo":6791,"ĠOscar":6792,"ĠridÃŃculo":6793,"HAHA":6794,"Ġtampa":6795,"cantando":6796,"Ġamarela":6797,"****":6798,"tella":6799,"ĠLaÃ©rcio":6800,"Ġgorda":6801,"Ġgordura":6802,"ĠlanÃ§ar":6803,"Ġderre":6804,"Ġsusp":6805,"Ġamada":6806,"inistra":6807,"ĠJulio":6808,"Ġescreve":6809,"Ġferro":6810,"piraÃ§Ã£o":6811,"Ġgays":6812,"Ġfinge":6813,"Ġpreocupa":6814,"Ġapresenta":6815,"DifÃŃcil":6816,"ĠAchei":6817,"Ġcombinou":6818,"Ġpersonagens":6819,"ĠsaÃŃda":6820,"ĠlÃŃqui":6821,"Ġbusca":6822,"ugusto":6823,"ĠpÃºblica":6824,"ĠCamila":6825,"ĠFoda":6826,"Senador":6827,"ĠChega":6828,"Ã´mulo":6829,"ĠNorte":6830,"ĠMiguel":6831,"duzir":6832,"ĠdragÃ£o":6833,"Ġtrocou":6834,"Ġobje":6835,"Ġprometo":6836,"Ġcoloquei":6837,"ĠLÃºcia":6838,"Ġmachuca":6839,"ĠVOCÃĬS":6840,"pletamente":6841,"ĠsensaÃ§Ã£o":6842,"Ġidentidade":6843,"Acontece":6844,"ĠCabral":6845,"ĠPORRA":6846,"ĠMÃ©xico":6847,"Morador":6848,"Ġsubstit":6849,"ĠUnidos":6850,"senÃ£o":6851,"Ġclasse":6852,"ĠVicente":6853,"Ġcheirar":6854,"ĠestÃºdio":6855,"ĠLorena":6856,"Ġproibido":6857,"ĠLuiza":6858,"liveira":6859,"Ġfelicidade":6860,"Ġnojento":6861,"ĠMAIS":6862,"ĠGoiÃ¡s":6863,"Ġevento":6864,"Ġdoideira":6865,"ĠOdete":6866,"ĠprisÃ£o":6867,"Ġprincipal":6868,"Ġchurrasco":6869,"Ġoportunidade":6870,"ĠhilÃ¡rio":6871,"ĠÃ³rgÃ£o":6872,"Eleitor":6873,"ĠTijuca":6874,"Ã©veillon":6875,"Bon":6876,"Bei":6877,"Dan":6878,"Dia":6879,"Diga":6880,"Esses":6881,"Fu":6882,"GlÃ³ria":6883,"Ha":6884,"Jun":6885,"Juro":6886,"JÃ©ssica":6887,"Lo":6888,"Lou":6889,"MOR":6890,"PR":6891,"PÃ¡":6892,"Pos":6893,"Rena":6894,"Sr":6895,"Sandra":6896,"Teu":6897,"Tamo":6898,"Tive":6899,"Vim":6900,"bia":6901,"bito":6902,"bilidade":6903,"ceito":6904,"cesa":6905,"dante":6906,"dinheiro":6907,"ft":6908,"gin":6909,"gamente":6910,"iv":6911,"ler":6912,"lhar":6913,"mÃ´nio":6914,"ovÃ¡":6915,"pico":6916,"pli":6917,"rico":6918,"ty":6919,"veiro":6920,"vÃ©s":6921,"zes":6922,"Ġrio":6923,"Ġapre":6924,"Ġafe":6925,"Ġaze":6926,"Ġdai":6927,"ĠpÃªn":6928,"Ġcem":6929,"Ġcusta":6930,"teri":6931,"teral":6932,"Ġmir":6933,"Ġmundial":6934,"Ã©trica":6935,"Ġsargento":6936,"enco":6937,"ssur":6938,"Ġqueim":6939,"inÃ¡ria":6940,"orda":6941,"oria":6942,"Ġfita":6943,"Ġfeita":6944,"Ġdeco":6945,"Ġdecis":6946,"Ġdelas":6947,"omi":6948,"umbi":6949,"alÃ©m":6950,"Ġth":6951,"ocorro":6952,"rela":6953,"...)":6954,"emo":6955,"Ġtecn":6956,"Ġterapia":6957,"Ġbre":6958,"Ġbroc":6959,"eiras":6960,"ÃŃa":6961,"ÃŃgado":6962,"iais":6963,"ssoa":6964,"icenÃ§a":6965,"lagem":6966,"Ã³gica":6967,"Ġlis":6968,"Ġnove":6969,"Ġnotas":6970,"ill":6971,"abor":6972,"abilidade":6973,"olho":6974,"Ġfaca":6975,"Ġencar":6976,"Ġenfi":6977,"Ġacusa":6978,"Ġconfe":6979,"Ġreino":6980,"digos":6981,"ĠCA":6982,"ĠCO":6983,"ĠCre":6984,"ĠClar":6985,"ĠCAL":6986,"Ġmag":6987,"ĠPi":6988,"ĠPei":6989,"ĠPRE":6990,"herada":6991,"ĠAbra":6992,"ĠMul":6993,"ĠMaravil":6994,"Ġtoalha":6995,"pac":6996,"passando":6997,"ĠSom":6998,"ĠSerÃ¡":6999,"ĠSEM":7000,"ĠSheila":7001,"trada":7002,"Ġpote":7003,"Ġpapa":7004,"ĠpadrÃ£o":7005,"Ġino":7006,"Ġindica":7007,"Ġingresso":7008,"ĠTÃ¢nia":7009,"Ġvirei":7010,"Ġalta":7011,"vej":7012,"Enzo":7013,"pedindo":7014,"comendo":7015,"Ġparadas":7016,"tentando":7017,"Ġsuja":7018,"tron":7019,"ĠOK":7020,"ĠRE":7021,"ĠVo":7022,"ĠVar":7023,"cipe":7024,"cidade":7025,"Ġperigo":7026,"Ġdesper":7027,"Ġcap":7028,"Ġcaguei":7029,"Ġhotel":7030,"ĠLou":7031,"ĠLiga":7032,"Ġhino":7033,"ĠEles":7034,"Ġtrata":7035,"Ġtrava":7036,"Ġtratar":7037,"Ġtrair":7038,"acha":7039,"achando":7040,"Ġexpul":7041,"terno":7042,"viver":7043,"low":7044,"Ġseman":7045,"adora":7046,"Ġligada":7047,"Temer":7048,"ĠEuropa":7049,"herÃ³i":7050,"convers":7051,"erais":7052,"Ġgostando":7053,"riado":7054,"Ġtaxa":7055,"parado":7056,"Ġmerece":7057,"Ġcorri":7058,"Ġescuro":7059,"Ġdelegacia":7060,"ĠaliÃ¡s":7061,"perar":7062,"piro":7063,"Ġ21":7064,"Ġ27":7065,"ĠIR":7066,"ĠIta":7067,"ĠIvan":7068,"Ġjoguinho":7069,"ĠMarisa":7070,"Ġmoeda":7071,"Ã¢me":7072,"itoco":7073,"juda":7074,"Ġcobra":7075,"Ġpassinho":7076,"NoÃ©":7077,"ĠHe":7078,"Ġimpe":7079,"igos":7080,"Ġlua":7081,"resp":7082,"Ġacham":7083,"Alguma":7084,"ĠWh":7085,"Ġgrava":7086,"Ġgravando":7087,"parecer":7088,"Ġqualidade":7089,"Ġlook":7090,"cilla":7091,"Ġdireitinho":7092,"Ġmilho":7093,"Ġcriou":7094,"andy":7095,"Pegou":7096,"icional":7097,"Ġpassag":7098,"Ġpuxar":7099,"ĠMacedo":7100,"Ġganhei":7101,"valu":7102,"Ġinterpre":7103,"RAN":7104,"ÃĥÃĥ":7105,"venÃ§Ã£o":7106,"ĠsoluÃ§Ã£o":7107,"Ġvalendo":7108,"Ġpapinho":7109,"ĠEstados":7110,"Ġbrinco":7111,"Ġquartinho":7112,"Ġmalucos":7113,"Ġmud":7114,"Ġinsta":7115,"ĠCatarina":7116,"ĠCaxias":7117,"ĠvÃªm":7118,"Carne":7119,"Levanta":7120,"ensacional":7121,"inete":7122,"ĠRealengo":7123,"ĠAnderson":7124,"ĠAntÃ´nio":7125,"Ġconversou":7126,"ĠLeandro":7127,"ĠlimÃ£o":7128,"ĠmÃ©dio":7129,"ĠmÃ©dia":7130,"Ġmaiores":7131,"Ġvirgem":7132,"ĠNeto":7133,"Ġchupa":7134,"aranÃ¡":7135,"Ġtermina":7136,"Rola":7137,"ĠSaci":7138,"Ġpronta":7139,"filha":7140,"Ġnamoro":7141,"DAS":7142,"ĠLapa":7143,"ISA":7144,"Ġbrigar":7145,"Ġgordinho":7146,"Ġcandidata":7147,"Ġsandu":7148,"Ġpeidar":7149,"Ġpercebe":7150,"Ġpercebi":7151,"Ġescreveu":7152,"Ġpanela":7153,"Ġgritar":7154,"ĠpulmÃ£o":7155,"Ġpinto":7156,"Ġlargar":7157,"Ġsocorro":7158,"Ġferiado":7159,"Ġfundos":7160,"Ġdesconto":7161,"Chato":7162,"Ġsobren":7163,"Cheio":7164,"tins":7165,"Ġcompleto":7166,"Ġencher":7167,"Ġpreparar":7168,"gnidade":7169,"rocura":7170,"ĠinformaÃ§Ãµes":7171,"Menos":7172,"Ġinventou":7173,"Ġempresta":7174,"Ġcolocando":7175,"Ġvagabunda":7176,"ĠCorona":7177,"ĠJeovÃ¡":7178,"ĠExcel":7179,"Bruno":7180,"Primeira":7181,"Ġinvestimento":7182,"Corta":7183,"Ġdeprim":7184,"Ġfrita":7185,"vindos":7186,"Ġesconder":7187,"Ġatrapalhando":7188,"ĠbabÃ¡":7189,"ĠThrones":7190,"Ġanimada":7191,"Ġfloresta":7192,"Sobre":7193,"ceiÃ§Ã£o":7194,"Ġtremendo":7195,"Ġrecomendo":7196,"ĠchinÃªs":7197,"meida":7198,"Ġtotalmente":7199,"Ġdevolver":7200,"Ġacostuma":7201,"ĠZoom":7202,"Verdade":7203,"lise":7204,"Segundo":7205,"ĠPriscila":7206,"Ġgrampe":7207,"Alunos":7208,"Fabio":7209,"Ġnomes":7210,"Ġgerente":7211,"ĠsÃŃtio":7212,"Ġapaixon":7213,"ĠÃ¡rvor":7214,"ĠClaudio":7215,"ĠAdilson":7216,"becil":7217,"ĠTUDO":7218,"Ġcancelamento":7219,"Galera":7220,"Ġdimin":7221,"Ġestivesse":7222,"ĠGonÃ§alo":7223,"ĠclÃ¡ssico":7224,"incidÃªncia":7225,"Ġseguidores":7226,"Ġesculacho":7227,"dcast":7228,"ĠglÃº":7229,"',":7230,"--":7231,"12":7232,"200":7233,"Ano":7234,"AtenÃ§Ã£o":7235,"Aranha":7236,"Avisa":7237,"BA":7238,"BL":7239,"Bas":7240,"CIA":7241,"Dar":7242,"For":7243,"FlÃ¡vio":7244,"HOR":7245,"IK":7246,"IU":7247,"Igual":7248,"LA":7249,"Mostra":7250,"Nessa":7251,"Oba":7252,"PG":7253,"PO":7254,"Rec":7255,"TF":7256,"TÃ£o":7257,"Toca":7258,"Trinta":7259,"aÃ§Ã£o":7260,"cen":7261,"cuta":7262,"ds":7263,"equi":7264,"eador":7265,"finho":7266,"fit":7267,"glia":7268,"ih":7269,"lv":7270,"maravil":7271,"pensa":7272,"pirinha":7273,"pÃ³rter":7274,"rima":7275,"roca":7276,"rimento":7277,"tand":7278,"uto":7279,"vens":7280,"xinha":7281,"Ġ&":7282,"ĠQU":7283,"Ġham":7284,"Ġasse":7285,"Ġetern":7286,"ĠdÃ©":7287,"Ġcic":7288,"Ġcana":7289,"Ġcrim":7290,"ĠcÃ©re":7291,"tein":7292,"Ġnor":7293,"ĠmÃ£es":7294,"Ġstar":7295,"Ġsome":7296,"Ġvan":7297,"enni":7298,"ssus":7299,"ssÃµes":7300,"Ã¡gico":7301,"Ã¡lise":7302,"ork":7303,"erva":7304,"Ġfiador":7305,"ĠfÃŃgado":7306,"Ġdedos":7307,"Ġdedinho":7308,"Ġdevem":7309,"Ġdebaixo":7310,"tono":7311,"Ġovos":7312,"ĠtÃŃ":7313,"isma":7314,"isco":7315,"roz":7316,"deal":7317,"delo":7318,"eim":7319,"eitinho":7320,"Ġesporte":7321,"ÃŃvia":7322,"Ġcombo":7323,"Ġcomemora":7324,"ical":7325,"laÃ§Ã£o":7326,"eses":7327,"amigo":7328,"tÃ¡rios":7329,"ilÃ£o":7330,"ilmar":7331,"abote":7332,"ssada":7333,"QuÃ©":7334,"Quar":7335,"Quatro":7336,"Ġnave":7337,"Ġnadar":7338,"Ġseco":7339,"ĠsessÃ£o":7340,"und":7341,"Ġenf":7342,"Ġencara":7343,"Ġaceita":7344,"ulando":7345,"Ġcondom":7346,"Ġretor":7347,"Ġpet":7348,"dias":7349,"ĠCaram":7350,"ĠPR":7351,"ĠPrime":7352,"ĠPRO":7353,"hey":7354,"mago":7355,"ĠMia":7356,"ĠMara":7357,"ĠMol":7358,"ĠMac":7359,"ĠMundo":7360,"ĠMÃ¡gico":7361,"ĠDra":7362,"Ġtoa":7363,"Ġtomo":7364,"tiÃ§Ã£o":7365,"ĠShow":7366,"Ġeletr":7367,"Ġame":7368,"Ġameric":7369,"tral":7370,"trans":7371,"Ġdivers":7372,"Ġdignidade":7373,"Ġintes":7374,"ĠTrump":7375,"ĠTwitter":7376,"Ġvier":7377,"Ġvideo":7378,"Ġvidro":7379,"cobri":7380,"Ġalu":7381,"ĠBic":7382,"ranco":7383,"Ġpresa":7384,"comigo":7385,"Ġassus":7386,"Ġprovas":7387,"ĠverÃ£o":7388,"ĠJam":7389,"ĠJus":7390,"ĠOL":7391,"ĠOl":7392,"ĠOn":7393,"ĠOx":7394,"cip":7395,"ĠFre":7396,"ĠFui":7397,"Ġando":7398,"Ġperu":7399,"inador":7400,"irÃ£o":7401,"Ġdeste":7402,"Ġnessas":7403,"Ġcav":7404,"naquela":7405,"ĠGerais":7406,"vereiro":7407,"now":7408,"Ġtraficante":7409,"achor":7410,"achei":7411,"ĠexpressÃ£o":7412,"Ġexcelente":7413,"ters":7414,"Ġcarb":7415,"videz":7416,"ezar":7417,"Ġsoube":7418,"anada":7419,"Seja":7420,"bridade":7421,"Ġentendido":7422,"Ġestagi":7423,"gadores":7424,"Ġartes":7425,"Ġprecisam":7426,"Ġtatu":7427,"Ġtatua":7428,"Ġascendente":7429,"Ġcorda":7430,"Ġcorrida":7431,"Ġsaiba":7432,"ĠirmÃ£os":7433,"grafo":7434,"Ġ22":7435,"Ġondas":7436,"ness":7437,"Povo":7438,"Ã¡stica":7439,"ceria":7440,"rismo":7441,"risadas":7442,"Ġcoz":7443,"Ġcobrar":7444,"Ġbagulho":7445,"Ġroxo":7446,"Ġverdadeira":7447,"Ġverdadeiro":7448,"Ġimbecil":7449,"dureira":7450,"Ġbanana":7451,"Ġconheceu":7452,"ĠWell":7453,"ĠWagner":7454,"ĠPapai":7455,"Ã¢nica":7456,"Ġ--":7457,"Ġ35":7458,"Ġvoar":7459,"Ġvoando":7460,"Ġvotar":7461,"!!!!":7462,"Ġprestar":7463,"ĠRober":7464,"ĠMaca":7465,"Ġvenha":7466,"Ġbarul":7467,"Ġroubando":7468,"Ġanotar":7469,"ĠAlem":7470,"ĠAlmeida":7471,"ÃŃncipe":7472,"forÃ§o":7473,"Ġacreditam":7474,"Ġpostou":7475,"fÃŃcio":7476,"ĠpassarÃ£o":7477,"Ġresolvi":7478,"ĠKibe":7479,"Ġbaix":7480,"ĠrepÃ³rter":7481,"ĠEstava":7482,"Ġbrinde":7483,"giar":7484,"amorando":7485,"aaa":7486,"Ġmosquito":7487,"Ġconfio":7488,"Ġconfirma":7489,"Carlinhos":7490,"Ã©sia":7491,"ĠLua":7492,"Ġbichinho":7493,"ĠÃºltimos":7494,"Ġlimpo":7495,"Ġlimpe":7496,"Ġaux":7497,"Ġfechou":7498,"Ġgrupos":7499,"Perdeu":7500,"drÃ©":7501,"ĠAmÃ©rica":7502,"Ġtestem":7503,"tanal":7504,"Ġpiroc":7505,"Ġsorriso":7506,"ĠhormÃ´nio":7507,"ĠSaulo":7508,"creto":7509,"ĠMarcÃ£o":7510,"Ġacordou":7511,"Ġelenco":7512,"menos":7513,"Ġengas":7514,"Ġengana":7515,"Ġavisou":7516,"ĠnÃºmeros":7517,"ocurando":7518,"Mauro":7519,"Ġbrilh":7520,"Ġderru":7521,"Ġup":7522,"Ġnudes":7523,"ĠTava":7524,"pelada":7525,"inistÃ©rio":7526,"ĠJuliano":7527,"Ġpercebeu":7528,"Gostou":7529,"Gostaria":7530,"Ġdefin":7531,"Ġdefender":7532,"Ġdefendendo":7533,"Ã³rn":7534,"Ġfuncionar":7535,"ĠfuncionÃ¡rio":7536,"Ġgasolina":7537,"Explica":7538,"Ġimaginar":7539,"Ġaprendeu":7540,"Ġestragar":7541,"Ġnegocinho":7542,"Ġconcentra":7543,"Ġcombinado":7544,"Ġvazio":7545,"ĠESSA":7546,"Ġinventar":7547,"ĠdemissÃ£o":7548,"Ġdocum":7549,"Ġdescobrir":7550,"Ġdescobriu":7551,"SenÃ£o":7552,"Senhora":7553,"ĠinvÃ©s":7554,"Ġliberar":7555,"ĠcoronavÃŃ":7556,"Ġanimais":7557,"Ġmeme":7558,"dizendo":7559,"Ġdesculpas":7560,"ĠsÃ©culo":7561,"Ġproteger":7562,"Ġcampeonato":7563,"INHAS":7564,"Ġmolho":7565,"Alexa":7566,"Foram":7567,"Ġapoio":7568,"Ġrepetir":7569,"Ġquinze":7570,"Ġimpressionante":7571,"pecta":7572,"Ġfingir":7573,"ĠoperaÃ§Ã£o":7574,"Ġevitar":7575,"ĠPolÃŃcia":7576,"Seguinte":7577,"Ġdivul":7578,"Ġcheirinho":7579,"Ontem":7580,"ĠJohnson":7581,"ĠJardim":7582,"Ġhidro":7583,"gentina":7584,"ĠTitÃ£s":7585,"ĠespÃŃrito":7586,"ĠfeijÃ£o":7587,"ĠMauricio":7588,"Ġpronunciamento":7589,"Ġtemperatura":7590,"Ġfaculdade":7591,"ĠconexÃ£o":7592,"kedIn":7593,"ĠpÃªnalti":7594,"Ġsemaninha":7595,"Ġsobrenome":7596,"IKE":7597,"gliasso":7598,"ĠcÃ©rebro":7599,"ennifer":7600,"ĠcoronavÃŃrus":7601,"#$":7602,"%.":7603,"'...":7604,"Abri":7605,"Abra":7606,"Bol":7607,"Bianca":7608,"CE":7609,"Cel":7610,"Cur":7611,"Cham":7612,"DES":7613,"Ficar":7614,"Final":7615,"Felipe":7616,"Gar":7617,"Gosta":7618,"Grande":7619,"Ia":7620,"It":7621,"IGO":7622,"Junto":7623,"Jane":7624,"Luiz":7625,"LIA":7626,"NA":7627,"NO":7628,"Pei":7629,"Phone":7630,"Show":7631,"TU":7632,"Tia":7633,"TIA":7634,"Usa":7635,"UQU":7636,"Uilliam":7637,"Va":7638,"VOR":7639,"bara":7640,"bjeÃ§Ã£o":7641,"bÃºr":7642,"cum":7643,"cter":7644,"cÃŃcio":7645,"dala":7646,"ding":7647,"dicional":7648,"form":7649,"funda":7650,"gil":7651,"ganta":7652,"hal":7653,"jun":7654,"jinho":7655,"jus":7656,"mam":7657,"mÃ£e":7658,"mesa":7659,"maior":7660,"nto":7661,"ow":7662,"pinha":7663,"play":7664,"som":7665,"seus":7666,"tta":7667,"yer":7668,"zel":7669,"zado":7670,"ĠâĻ«":7671,"quia":7672,"quase":7673,"Ġagre":7674,"Ġaves":7675,"Ġeta":7676,"Ġponta":7677,"Ġpinta":7678,"ĠpÃªnis":7679,"Ġpneu":7680,"Ġcenta":7681,"Ġcrer":7682,"tera":7683,"telo":7684,"terior":7685,"Ġneste":7686,"Ġnamorando":7687,"Ġmito":7688,"ĠmÃºs":7689,"Ġsun":7690,"Ġstre":7691,"ĠsÃŃn":7692,"Ġvei":7693,"arina":7694,"enso":7695,"entÃ¡rio":7696,"Ġquebrou":7697,"ind":7698,"inante":7699,"inge":7700,"Ã¡vea":7701,"Ġfaro":7702,"Ġfolha":7703,"ĠdepressÃ£o":7704,"Ġover":7705,"ande":7706,"realmente":7707,"taque":7708,"eme":7709,"Ġbul":7710,"eitor":7711,"Ġesca":7712,"Ġespero":7713,"Ġgara":7714,"Ġgam":7715,"ÃŃche":7716,"ssoas":7717,"imi":7718,"Ġcomando":7719,"Ġcompre":7720,"Ġcomentar":7721,"iclete":7722,"lace":7723,"ese":7724,"estamos":7725,"Ã³veis":7726,"aman":7727,"amon":7728,"Ġigu":7729,"Ġilim":7730,"ĠiPhone":7731,"ĠlÃº":7732,"Ġlaser":7733,"rivel":7734,"elos":7735,"elva":7736,"tÃ¡culo":7737,"gula":7738,"ilma":7739,"ĠpornÃ´":7740,"Quantas":7741,"olhando":7742,"olÃ³gico":7743,"Ġfacil":7744,"Ġsetor":7745,"Ġsequestra":7746,"Ġenfer":7747,"Ġenfia":7748,"Ġensai":7749,"Ġenlou":7750,"Ġjur":7751,"Ġjeitinho":7752,"gate":7753,"ulista":7754,"Ġconv":7755,"Ġrevel":7756,"Ġrevista":7757,"Ġempa":7758,"Ġempol":7759,"ĠCU":7760,"ĠCe":7761,"ĠCala":7762,"ĠCur":7763,"ĠCAN":7764,"ĠCoisa":7765,"uiÃº":7766,"Ġmada":7767,"ĠPO":7768,"ĠPÃ©":7769,"ĠPAR":7770,"ĠPlay":7771,"ĠPitoco":7772,"vaco":7773,"ĠAS":7774,"ĠAham":7775,"ĠAvenida":7776,"ĠAÃ§Ãºcar":7777,"ĠMora":7778,"ĠMÃ£e":7779,"ĠMoisÃ©s":7780,"Ġmec":7781,"taruga":7782,"Ġfodendo":7783,"tiba":7784,"ĠSab":7785,"ĠSAI":7786,"traz":7787,"Ġdita":7788,"Ġdieta":7789,"Ġcaralha":7790,"Ġtupperware":7791,"Ġing":7792,"ĠTA":7793,"ĠTipo":7794,"Ġvibra":7795,"ĠlÃ¡g":7796,"ĠBru":7797,"ĠBet":7798,"podia":7799,"cedor":7800,"pessoal":7801,"Ġprov":7802,"Ġproposta":7803,"tenta":7804,"tencial":7805,"Ġvereador":7806,"ĠJornal":7807,"ĠRis":7808,"ĠRib":7809,"ĠVira":7810,"ĠVOU":7811,"cito":7812,"porta":7813,"ĠFilho":7814,"Ġand":7815,"ĠanÃºn":7816,"ĠperÃŃ":7817,"Ġperten":7818,"Ġpermi":7819,"inaÃ§Ã£o":7820,"irmÃ£o":7821,"Ġdespe":7822,"Ġdesenho":7823,"Ġneto":7824,"Ġterno":7825,"Ġterreno":7826,"ĠcaÃŃ":7827,"Ġcadas":7828,"ĠcatÃ³":7829,"Ġcagou":7830,"Ġcapaz":7831,"Ġcapital":7832,"ĠLÃģ":7833,"Ġbobeira":7834,"Ġhash":7835,"ĠNinguÃ©m":7836,"ĠNÃ³s":7837,"ĠGal":7838,"ĠGame":7839,"ĠGÃ¡vea":7840,"ĠEita":7841,"verso":7842,"sapp":7843,"ĠfilÃ©":7844,"nossa":7845,"Ġtrago":7846,"tÃ©gia":7847,"tÃ©tico":7848,"Ġexclus":7849,"Ġexpecta":7850,"Ġexterior":7851,"Ġcarioca":7852,"Ġpartido":7853,"Ġparceria":7854,"Ġlegenda":7855,"urso":7856,"batendo":7857,"antei":7858,"Ġtaca":7859,"Ġastral":7860,"berg":7861,"bert":7862,"Ġmermo":7863,"Ġcorrente":7864,"Ġcoronel":7865,"inhar":7866,"Ġrainha":7867,"Ġraiz":7868,"Ġrabo":7869,"ĠtrÃ©plica":7870,"Ġsafada":7871,"graÃ§a":7872,"piÃ£o":7873,"Ġ23":7874,"ĠIguaÃ§u":7875,"Ġcantor":7876,"Ġcantinho":7877,"Ġmoderno":7878,"ferno":7879,"tembro":7880,"gerando":7881,"Ġolhadinha":7882,"rise":7883,"Ġcopi":7884,"ĠcoincidÃªncia":7885,"tÃ³rios":7886,"Nosso":7887,"ĠHil":7888,"varisto":7889,"igh":7890,"Desliga":7891,"Ġusado":7892,"talar":7893,"Ġajudando":7894,"Ġrenda":7895,"Ġconhecia":7896,"Ġconhecido":7897,"Ġpensamento":7898,"''?":7899,"Ġcolher":7900,"Ġcoloco":7901,"Ġconseguia":7902,"Ġgrama":7903,"Ġbege":7904,"Ġbeterra":7905,"Ġvotei":7906,"Passou":7907,"Passei":7908,"versal":7909,"ĠCarlinha":7910,"ĠMadureira":7911,"ooo":7912,"Ġganho":7913,"Ġabaixo":7914,"vale":7915,"Ġsalvo":7916,"Ġesquemas":7917,"ĠAlz":7918,"Ġcaldo":7919,"ĠKelly":7920,"Ġfugir":7921,"Ġbons":7922,"Ġsolteiro":7923,"Ġquiserem":7924,"ĠpapÃ©is":7925,"Ġrepolho":7926,"ĠEstamos":7927,"Ġcurta":7928,"guete":7929,"Ġcontratei":7930,"ĠqueridÃ£o":7931,"Ġaparelho":7932,"Ġorg":7933,"Ġinscrever":7934,"ĠXuxa":7935,"Ġtransferir":7936,"Ġatrapalha":7937,"Ġvagina":7938,"Ġmaio":7939,"Ġguer":7940,"Ġhumilha":7941,"Ġgrana":7942,"TAN":7943,"ĠautÃ³":7944,"ĠmÃ©dicos":7945,"Ġinflu":7946,"ĠValmir":7947,"Ġrecebe":7948,"ĠmÃ¡gico":7949,"falei":7950,"ticia":7951,"alhaÃ§Ã£o":7952,"Ġbebeu":7953,"Precis":7954,"casa":7955,"ĠSegura":7956,"Vale":7957,"Ġaguentando":7958,"ĠDeputado":7959,"Ġsorrindo":7960,"Ġsorvete":7961,"dÃ¡pio":7962,"ĠSagitÃ¡rio":7963,"chegou":7964,"ĠelÃ©trica":7965,"SOS":7966,"Ġbichos":7967,"ĠJuca":7968,"ĠRafa":7969,"Ġjunta":7970,"Ġjuntar":7971,"Ġjuntinho":7972,"Ġaviso":7973,"Ġavisei":7974,"Ġavisando":7975,"Ġjaneiro":7976,"gono":7977,"ĠLava":7978,"ISSO":7979,"Ġgarganta":7980,"Travou":7981,"truz":7982,"Ġtrazendo":7983,"ĠTadeu":7984,"ĠCaraca":7985,"ĠInter":7986,"Ġsofrendo":7987,"Ã³rcio":7988,"Ġmexendo":7989,"Ġusava":7990,"Ġmaconheiro":7991,"Ġrespondeu":7992,"Ġparecido":7993,"Ġsociais":7994,"ssaria":7995,"ĠBarbi":7996,"Ġgovernador":7997,"Ġfedendo":7998,"Ġprodutos":7999,"Ġdorme":8000,"Ġpriva":8001,"Ġaprende":8002,"Ġesquerdo":8003,"Ġprocedimento":8004,"Saudade":8005,"Ġvisita":8006,"Ġvisual":8007,"pelos":8008,"Ġdesliga":8009,"ELE":8010,"Ġautoes":8011,"ĠautomÃ¡tico":8012,"Ġpalmito":8013,"Ġpreparado":8014,"ĠManu":8015,"Ġvazar":8016,"ÃĩA":8017,"Ġaperta":8018,"Ġfrete":8019,"Ġvermelha":8020,"Ġescolhi":8021,"Ġcreme":8022,"ĠFÃ¡tima":8023,"ĠCaseiro":8024,"comeÃ§ou":8025,"Ġfriend":8026,"Ġconvite":8027,"Caiu":8028,"ĠconfianÃ§a":8029,"Ġqueixo":8030,"ĠPeraÃŃ":8031,"Ġdrama":8032,"Guilherme":8033,"Ġmulherada":8034,"ĠCelso":8035,"Ġlimites":8036,"Ġrecomenda":8037,"ĠsÃ©ria":8038,"Ġmachismo":8039,"quenta":8040,"ĠJunior":8041,"Ġrespirar":8042,"tituiÃ§Ã£o":8043,"Ġmaquininha":8044,"Ġatleta":8045,"Ġpiadas":8046,"Ġeliminar":8047,"Ġsecreto":8048,"Ġimproviso":8049,"Ġenganar":8050,"Ġgreve":8051,"ĠJato":8052,"Ġsobreviv":8053,"PolÃŃcia":8054,"Ġsatisfeito":8055,"Ġgarrafa":8056,"yagi":8057,"ersby":8058,"Ġfiscal":8059,"ĠClaudinho":8060,"Ġcompanhia":8061,"ĠRedeTV":8062,"Ġinteligente":8063,"ĠVolta":8064,"ĠVermelho":8065,"ĠfrancÃªs":8066,"ĠBrasÃŃlia":8067,"Ġtravess":8068,"Ġfestinha":8069,"ĠFederal":8070,"ĠNetflix":8071,"ĠpirÃ¢mide":8072,"Ġassass":8073,"Ġchateado":8074,"ĠBotafogo":8075,"Ġtsc":8076,"ĠabenÃ§oe":8077,"GregÃ³rio":8078,"Ġviciado":8079,"Ġgringo":8080,"Ġpreconceito":8081,"ĠlÃŃquido":8082,"MORPG":8083,"ĠdecisÃ£o":8084,"Ġenfiar":8085,"ĠglÃºten":8086,"ssusci":8087,"ĠcondomÃŃnio":8088,"ĠMiami":8089,"achorro":8090,"Ġartesanal":8091,"Ġlimpeza":8092,"Ġpirocudo":8093,"UQUINHAS":8094,"Ġavestruz":8095,"Ġgaragem":8096,"Ġhashtag":8097,"Ġbeterraba":8098,"40":8099,"AÃª":8100,"AÃ§Ã£o":8101,"Bri":8102,"Doc":8103,"Er":8104,"Gilmar":8105,"HEI":8106,"Is":8107,"Je":8108,"Lim":8109,"Mu":8110,"Meus":8111,"Morreu":8112,"Nas":8113,"Nesse":8114,"PS":8115,"RJ":8116,"Rou":8117,"Rio":8118,"Son":8119,"Trou":8120,"TOU":8121,"Un":8122,"binha":8123,"bur":8124,"brasil":8125,"bvio":8126,"caram":8127,"dalo":8128,"ep":8129,"fui":8130,"fezinho":8131,"gel":8132,"giu":8133,"gumento":8134,"gÃ©dia":8135,"hinha":8136,"iante":8137,"ji":8138,"mu":8139,"mor":8140,"nenhum":8141,"pin":8142,"pem":8143,"pic":8144,"pri":8145,"pÃ§Ã£o":8146,"prou":8147,"peita":8148,"rs":8149,"rÃŃcio":8150,"tti":8151,"tÃ¢nico":8152,"wl":8153,"xeira":8154,"xambi":8155,"Ġ@":8156,"Ġ?!":8157,"quatro":8158,"Ġatro":8159,"Ġaumento":8160,"ĠaÃ§aÃŃ":8161,"rael":8162,"radas":8163,"ĠediÃ§Ã£o":8164,"Ġdr":8165,"Ġdon":8166,"Ġpista":8167,"Ġpilo":8168,"Ġcm":8169,"queria":8170,"tex":8171,"tete":8172,"Ġnormalmente":8173,"Ġmiste":8174,"ĠmÃŃdia":8175,"Ġsoco":8176,"Ġstories":8177,"Ġstand":8178,"Ġveia":8179,"arda":8180,"argo":8181,"enan":8182,"sser":8183,"Ġqueda":8184,"Ġqueremos":8185,"inan":8186,"inter":8187,"ores":8188,"Ġfla":8189,"Ġopa":8190,"Ġodeia":8191,"omba":8192,"umiu":8193,"alal":8194,"alguÃ©m":8195,"Ġtic":8196,"ĠtÃ©r":8197,"Ġthat":8198,"ĠtananÃ£":8199,"ise":8200,"isti":8201,"ross":8202,"tais":8203,"embro":8204,"Ġbron":8205,"Ġblog":8206,"eitas":8207,"ose":8208,"Ġespor":8209,"Ġespre":8210,"ouse":8211,"Ġgin":8212,"Ġgui":8213,"Ġgli":8214,"ÃŃzo":8215,"let":8216,"legal":8217,"Ġcompa":8218,"lack":8219,"esi":8220,"esia":8221,"esley":8222,"espero":8223,"Ã³cios":8224,"ĠiF":8225,"Ġit":8226,"Ġigno":8227,"Ġideal":8228,"ĠlanÃ§a":8229,"ÃīM":8230,"rita":8231,"Ġnovembro":8232,"Ġdoar":8233,"ssado":8234,"Ġnatal":8235,"Ġnavio":8236,"Ġdata":8237,"Ġfaltar":8238,"Ġfaltando":8239,"Ġsegre":8240,"uno":8241,"Ġenxa":8242,"Ġacei":8243,"Ġacalma":8244,"Ġjar":8245,"Ġjor":8246,"gais":8247,"ull":8248,"ulÃ¡rio":8249,"Ġcondi":8250,"Ġconfor":8251,"Ġreta":8252,"Ġressusci":8253,"Ġpegado":8254,"Ġpegaram":8255,"difica":8256,"ĠCu":8257,"ĠCle":8258,"ĠCesar":8259,"ĠCrianÃ§a":8260,"ĠmaÃ§":8261,"Ġmapa":8262,"ĠPr":8263,"ĠPic":8264,"Ġquais":8265,"ĠAI":8266,"ĠAinda":8267,"ĠAquele":8268,"ĠMulher":8269,"ĠMonstro":8270,"ĠMorreu":8271,"ĠDy":8272,"ĠDIA":8273,"Ġmetr":8274,"Ġfof":8275,"Ġfoge":8276,"Ġfofa":8277,"Ġtoque":8278,"passar":8279,"tidÃ£o":8280,"ĠStar":8281,"ĠSna":8282,"ĠSER":8283,"ĠSEU":8284,"ĠSAB":8285,"ĠSky":8286,"ĠSBT":8287,"ĠSTF":8288,"usica":8289,"Ġamando":8290,"Ġpodcast":8291,"Ġpotencial":8292,"Ġpoesia":8293,"Ġpauta":8294,"Ġpaguei":8295,"Ġpaulista":8296,"Ġinveja":8297,"ĠintenÃ§Ã£o":8298,"Ġinicia":8299,"ĠTira":8300,"ĠTambÃ©m":8301,"ĠTele":8302,"Ġvirada":8303,"Ġvieram":8304,"Ġvitamina":8305,"ĠBri":8306,"ĠBab":8307,"ĠBig":8308,"ĠBianca":8309,"ĠBIKE":8310,"ĠBuiÃº":8311,"cessaria":8312,"Entrou":8313,"pega":8314,"completamente":8315,"Ġpropor":8316,"ĠJona":8317,"ĠOliveira":8318,"ĠRoc":8319,"ĠRita":8320,"ĠVambora":8321,"cipi":8322,"portante":8323,"ĠserÃ£o":8324,"Ġandou":8325,"ĠanÃ¡lise":8326,"Ġpertinho":8327,"Ġdesma":8328,"Ġdesig":8329,"Ġtermo":8330,"Ġcacho":8331,"naÃ§Ã£o":8332,"Ġbote":8333,"Ġhome":8334,"tualmente":8335,"tubro":8336,"ĠGen":8337,"ĠGab":8338,"ciais":8339,"Comigo":8340,"derna":8341,"Ġtraiu":8342,"ack":8343,"acaba":8344,"Ġexec":8345,"Ġextre":8346,"ĠcartÃ³rio":8347,"Ġcareca":8348,"ĠcardÃ¡pio":8349,"Ġparo":8350,"Ġparente":8351,"Ġpartes":8352,"viu":8353,"Ġlegais":8354,"anato":8355,"Ġmentir":8356,"continu":8357,"erado":8358,"Ġcasaco":8359,"Ġcheque":8360,"Ġmandala":8361,"Ġarmas":8362,"Ġaroma":8363,"Ġartista":8364,"Ġargumento":8365,"mart":8366,"Ġdeitado":8367,"ĠcorrupÃ§Ã£o":8368,"Ġescala":8369,"Ġtirei":8370,"Ġtiros":8371,"Ġrab":8372,"ĠrapÃ¡":8373,"ĠÃ¢":8374,"ĠÃį":8375,"ĠirmÃ£ozinho":8376,"gema":8377,"Ãªnio":8378,"Ãªnico":8379,"Ãªndio":8380,"pioca":8381,"ĠIm":8382,"ĠIma":8383,"Ġjob":8384,"Ġmotel":8385,"Ġsotaque":8386,"Ġmorrido":8387,"Ġaquecimento":8388,"tempo":8389,"ramos":8390,"botar":8391,"ĠUS":8392,"Ġcober":8393,"brei":8394,"Ġnegro":8395,"ĠHon":8396,"segura":8397,"Ġimposto":8398,"Ġusu":8399,"talvez":8400,"faÃ§Ã£o":8401,"heimer":8402,"Ġajudou":8403,"Ġrima":8404,"resol":8405,"ĠmarÃ§o":8406,"plicar":8407,"Alberto":8408,"Ġcurios":8409,"Ġgravidez":8410,"enhuma":8411,"Ġconstruir":8412,"ĠconsciÃªncia":8413,"enaÃ§Ã£o":8414,"Prazer":8415,"andre":8416,"Pede":8417,"PeÃ§anha":8418,"cionado":8419,"cionista":8420,"Paula":8421,"itta":8422,"Ġtrabalhou":8423,"visÃŃvel":8424,"ĠRoger":8425,"ĠMateus":8426,"ĠvÃŃtima":8427,"aze":8428,"Ġbarco":8429,"Ġgangue":8430,"ĠsalmÃ£o":8431,"Ġesquecendo":8432,"estaÃ§Ã£o":8433,"ĠAlmir":8434,"fie":8435,"fiquei":8436,"Ġpositivo":8437,"ÃŃsio":8438,"costa":8439,"ĠKellen":8440,"ĠprÃ³x":8441,"Ġfuder":8442,"Ġrelaxar":8443,"Ġsupermer":8444,"Ġcinto":8445,"Ġcinza":8446,"ĠEsquece":8447,"Ġcurtindo":8448,"Ġreceitar":8449,"Ġreceitas":8450,"aneta":8451,"ĠespetÃ¡culo":8452,"tranho":8453,"Ġesperava":8454,"Ġatento":8455,"Ġatendeu":8456,"clusÃ£o":8457,"Marina":8458,"Ġaparecendo":8459,"Ġtartaruga":8460,"Ġtransando":8461,"Ġtransformar":8462,"Ġassisti":8463,"Card":8464,"ppy":8465,"Ġdistra":8466,"Ġolhou":8467,"ĠimportÃ¢ncia":8468,"Ġlives":8469,"Ġencontrou":8470,"ĠAndrÃ©":8471,"ĠprogramaÃ§Ã£o":8472,"eee":8473,"ĠSueli":8474,"Chegamos":8475,"Ġmijada":8476,"Ġtiveram":8477,"Ġmama":8478,"sub":8479,"ĠAmigo":8480,"Prefiro":8481,"Ġtestar":8482,"Ġsurpre":8483,"Ġveg":8484,"Ġgozar":8485,"Ġterminando":8486,"ĠGuerra":8487,"ĠMarcinha":8488,"gosta":8489,"Ġsininho":8490,"zebu":8491,"ĠJudite":8492,"mandar":8493,"Ġculto":8494,"bolo":8495,"ĠlanÃ§ando":8496,"ĠTuvalu":8497,"MAS":8498,"ESP":8499,"Ġ150":8500,"Ġugo":8501,"colhe":8502,"Ġarmado":8503,"ĠJuli":8504,"ĠArgentina":8505,"Ġsofre":8506,"Ġdomic":8507,"Ġdefesa":8508,"ĠChico":8509,"Ġpulsei":8510,"Videos":8511,"panema":8512,"Ġsubiu":8513,"Ġfumando":8514,"ĠtextÃ£o":8515,"Ġfevereiro":8516,"Ġdesconhe":8517,"Ġ198":8518,"dicina":8519,"than":8520,"ĠincÃªndio":8521,"Chaves":8522,"Ġcarregar":8523,"ĠParis":8524,"Ġprocessar":8525,"Ġ2018":8526,"Ġarreb":8527,"Ġpequena":8528,"Voltamos":8529,"ĠMansur":8530,"Ġreclamando":8531,"???":8532,"Menina":8533,"ĠVideo":8534,"Ġxin":8535,"Ġxer":8536,"Ġdemitido":8537,"aixÃ£o":8538,"Ġassaltante":8539,"pondo":8540,"Ġpelas":8541,"Ġburra":8542,"ĠparticipaÃ§Ã£o":8543,"Respira":8544,"ĠPerdeu":8545,"ĠPerdÃ£o":8546,"ĠSemana":8547,"sair":8548,"Ġconcorda":8549,"Ġpopular":8550,"ĠherÃ³is":8551,"Ġapaga":8552,"Ġapagar":8553,"Ġturno":8554,"Ġinventa":8555,"Ġinventei":8556,"Ġcolega":8557,"Ġfamosa":8558,"ĠProblema":8559,"Ġ2002":8560,"ĠtroÃ§o":8561,"Ġbife":8562,"ĠgÃªnio":8563,"Ġregras":8564,"ĠFabio":8565,"ĠNoronha":8566,"eeeeeeee":8567,"EEEE":8568,"virgem":8569,"Ġcorreria":8570,"Ġataque":8571,"Adoro":8572,"ĠCelta":8573,"Ġjuros":8574,"ĠCanal":8575,"Ġcapacete":8576,"Ġchinelo":8577,"ĠpatrÃ£o":8578,"ĠpropÃ³sito":8579,"ĠescravidÃ£o":8580,"Ġfeminista":8581,"Ġbloqueou":8582,"Ġjulgar":8583,"Aleluia":8584,"ĠvÃ´lei":8585,"Ġmaquia":8586,"Ġdengue":8587,"Ġplaca":8588,"Ġpenso":8589,"Ġcomprovante":8590,"ĠGagliasso":8591,"Ġinvadindo":8592,"Ġconsulta":8593,"ĠconsultÃ³rio":8594,"ĠdivÃ³rcio":8595,"Ġnegativo":8596,"ĠLinkedIn":8597,"ĠAndressa":8598,"pensando":8599,"ĠSonia":8600,"ĠBate":8601,"vinheta":8602,"Ġfruta":8603,"ĠfÃŃsica":8604,"ĠPresidente":8605,"ĠBenÃ©":8606,"ĠOrlando":8607,"ĠresponsÃ¡vel":8608,"Ġpuxado":8609,"ĠjustiÃ§a":8610,"Abaixa":8611,"abresa":8612,"ĠPMDB":8613,"Ġmasculina":8614,"Ġgostosinho":8615,"Ġuniverso":8616,"Fernando":8617,"Ġdesempregado":8618,"ĠcomentÃ¡rios":8619,"ĠBrother":8620,"ĠLembra":8621,"ConheÃ§o":8622,"Ġcostuma":8623,"Ġacompanhando":8624,"bulÃ¢ncia":8625,"ĠVander":8626,"ĠElias":8627,"ĠkaratÃª":8628,"Ġtambem":8629,"Ġansiedade":8630,"Ġpoliciais":8631,"Ġcoitado":8632,"ĠjaponÃªs":8633,"Ġpornografia":8634,"ĠreligiÃ£o":8635,"ĠPablo":8636,"Ġobjetivo":8637,"Logo":8638,"Ġtecnologia":8639,"ĠCALMA":8640,"Ġpassageiros":8641,"ĠsanduÃŃche":8642,"ĠhambÃºr":8643,"Ġciclo":8644,"Ġcanais":8645,"ĠtÃŃtulo":8646,"Ġintestino":8647,"Ġcavala":8648,"Ġtatuagem":8649,"Ġderrubar":8650,"Ġmadame":8651,"ĠanÃºncio":8652,"Ġcadastro":8653,"ĠAlzheimer":8654,"ĠBarbie":8655,"Ġmisterioso":8656,"Ġglitter":8657,"ĠmetrÃ´":8658,"cessariamente":8659,"ĠhambÃºrguer":8660,"!''":8661,"'!":8662,"14":8663,"18":8664,"100":8665,"Amar":8666,"ADO":8667,"Aparece":8668,"Apes":8669,"Celular":8670,"CHA":8671,"DS":8672,"Dis":8673,"Del":8674,"DIC":8675,"Eric":8676,"Fran":8677,"Fez":8678,"Go":8679,"Gabriel":8680,"Guiana":8681,"Grupo":8682,"IZ":8683,"ION":8684,"MO":8685,"Mando":8686,"Mach":8687,"Pr":8688,"Pris":8689,"Pron":8690,"PRE":8691,"PÃµe":8692,"Puxa":8693,"Promo":8694,"RÃ¡":8695,"Rece":8696,"RIA":8697,"Som":8698,"Sheila":8699,"Sidcley":8700,"Tanto":8701,"TÃĥO":8702,"Term":8703,"VE":8704,"Ven":8705,"Via":8706,"Vira":8707,"aque":8708,"agre":8709,"bÃ£o":8710,"bin":8711,"bÃ¡":8712,"bel":8713,"bson":8714,"besse":8715,"bloque":8716,"flor":8717,"gista":8718,"gena":8719,"gÃŃstica":8720,"hir":8721,"ipa":8722,"jas":8723,"lÃŃ":8724,"mite":8725,"nome":8726,"namora":8727,"pente":8728,"pÃ³":8729,"pende":8730,"phone":8731,"ster":8732,"tÃŃcia":8733,"tÃµes":8734,"tane":8735,"ute":8736,"ueira":8737,"uzio":8738,"vinha":8739,"vÃ´":8740,"wee":8741,"xin":8742,"zul":8743,"zaro":8744,"ĠÍ":8745,"quar":8746,"ĠaÃ§Ã£o":8747,"Ġair":8748,"Ġafo":8749,"Ġaven":8750,"Ġein":8751,"Ġeterno":8752,"Ġdur":8753,"Ġdrin":8754,"Ġdentes":8755,"Ġpend":8756,"Ġpombo":8757,"Ġcesta":8758,"teis":8759,"terapia":8760,"Ġnin":8761,"Ġneu":8762,"Ġmur":8763,"dol":8764,"Ġsam":8765,"Ġsul":8766,"Ġshor":8767,"ĠvÃ³s":8768,"Ġvambora":8769,"arÃ©":8770,"ardi":8771,"enÃ©":8772,"entinha":8773,"sson":8774,"Ġqueima":8775,"Ġfonte":8776,"Ġdecep":8777,"Ġofic":8778,"ĠtÃ³":8779,"Ġtinhoso":8780,"ocou":8781,"ocÃ´":8782,"rece":8783,"repe":8784,"daÃ§Ã£o":8785,"daquele":8786,"rota":8787,"tade":8788,"taca":8789,"tazar":8790,"del":8791,"dele":8792,"desses":8793,"emia":8794,"Ġteto":8795,"Ġbigo":8796,"Ġbico":8797,"Ġespi":8798,"ĠestÃ´":8799,"Ġgif":8800,"lec":8801,"leva":8802,"quio":8803,"Ġilha":8804,"Ġital":8805,"ĠlÃ¢m":8806,"ritos":8807,"elen":8808,"elente":8809,"elson":8810,"elhas":8811,"gur":8812,"gulo":8813,"guinhos":8814,"ilar":8815,"Ġporcar":8816,"abei":8817,"abol":8818,"Ġsequestrador":8819,"Ġsetembro":8820,"Ġenjo":8821,"Ġenxer":8822,"Ġenredo":8823,"Ġaceito":8824,"ulha":8825,"Ġconden":8826,"Ġregra":8827,"Ġpegam":8828,"disso":8829,"dizer":8830,"Ġempur":8831,"Ġmatch":8832,"ĠPÃ¡":8833,"ĠPER":8834,"ĠPrÃ³ximo":8835,"vaz":8836,"ĠAus":8837,"ĠAno":8838,"ĠAbre":8839,"ĠApp":8840,"ĠAugusto":8841,"ĠMai":8842,"ĠMad":8843,"ĠMAL":8844,"ĠDar":8845,"Ġfodida":8846,"Ġfoguete":8847,"tiÃ§a":8848,"tidos":8849,"tirar":8850,"ĠSEN":8851,"trado":8852,"ĠpaciÃªncia":8853,"Ġpadaria":8854,"Ġpagamento":8855,"ĠinÃº":8856,"Escuta":8857,"ĠToc":8858,"ĠTrÃªs":8859,"ĠToma":8860,"cate":8861,"cadinho":8862,"Ġsentado":8863,"Ġsentimento":8864,"Ġviesse":8865,"Ġalcan":8866,"ĠBern":8867,"ĠBelize":8868,"ranga":8869,"Ġpretende":8870,"mogema":8871,"comer":8872,"comprar":8873,"ĠversÃ£o":8874,"ĠOuro":8875,"ĠRÃ©veillon":8876,"ĠVamo":8877,"ciel":8878,"Ġservir":8879,"Ãºc":8880,"ĠFA":8881,"ĠFIL":8882,"Ġanunciar":8883,"Ġperco":8884,"Ġpersegu":8885,"inados":8886,"irk":8887,"irgem":8888,"Ġdestr":8889,"ĠdesgraÃ§ado":8890,"Ġdestruir":8891,"Ġneve":8892,"Ġnegra":8893,"Ġnecessariamente":8894,"Ġbobo":8895,"izo":8896,"Ġcasei":8897,"Ġcaseiro":8898,"Ġhar":8899,"ĠGui":8900,"very":8901,"Ġiria":8902,"Ahn":8903,"deria":8904,"Ġtraindo":8905,"tÃ©ria":8906,"Ġprima":8907,"Ġprende":8908,"acan":8909,"Ġexcel":8910,"Ġexisto":8911,"Ġexpli":8912,"Ġparru":8913,"virou":8914,"ezer":8915,"Ġlepra":8916,"culpe":8917,"Ġliqui":8918,"ĠÃ³leo":8919,"briga":8920,"Ġmantei":8921,"Ġmandado":8922,"Ġarris":8923,"Ġtake":8924,"Ġtapioca":8925,"Ġchiclete":8926,"Ġdiabe":8927,"ĠchapÃ©u":8928,"Ġcorno":8929,"Ġescorre":8930,"eitona":8931,"Ġcervej":8932,"tores":8933,"ĠraÃ§a":8934,"Ġramo":8935,"haria":8936,"perai":8937,"grado":8938,"pergun":8939,"pito":8940,"Ġ26":8941,"ĠIan":8942,"ĠIpanema":8943,"Ġlavo":8944,"Ġlatinha":8945,"ĠonÃ§a":8946,"Ġfalasse":8947,"Ġpouca":8948,"Ġcano":8949,"ĠMario":8950,"ĠMarcel":8951,"negÃ³cio":8952,"Ġsogra":8953,"Ġsobrar":8954,"Ġmortos":8955,"abeÃ§a":8956,"bota":8957,"uracÃ£o":8958,"ĠnegÃ£o":8959,"Ġmaldade":8960,"ĠHar":8961,"ĠHer":8962,"Ġcampinho":8963,"Ġros":8964,"Ġrodando":8965,"Ġimpac":8966,"igre":8967,"Ġusam":8968,"Ġbande":8969,"Ġbanca":8970,"Ġbanheira":8971,"entrou":8972,"Ġren":8973,"Ġrumo":8974,"destino":8975,"Ġcolor":8976,"ĠWar":8977,"ĠWanessa":8978,"ĠWilliam":8979,"Ġruas":8980,"Ġgrau":8981,"partamento":8982,"ulado":8983,"Ġestaria":8984,"Ġcriando":8985,"PeÃ§o":8986,"Pedra":8987,"Ġvote":8988,"Ġvotou":8989,"rinca":8990,"rincip":8991,"Ġdeixe":8992,"Ġdeixando":8993,"iciano":8994,"Botei":8995,"ĠCarol":8996,"Todas":8997,"Ġpude":8998,"Ġputas":8999,"ĠmÃ£ozinha":9000,"ĠPedrÃ£o":9001,"ĠRola":9002,"Ġ?,":9003,"ĠMag":9004,"ĠMaciel":9005,"Ġvendeu":9006,"Ġentregador":9007,"Ġgancho":9008,"Ġabaixa":9009,"tadores":9010,"Ġroubado":9011,"Ġroupas":9012,"vali":9013,"valho":9014,"Ġintervalo":9015,"Ġsalto":9016,"Ġesquecido":9017,"Entende":9018,"ĠAllen":9019,"Ġlembrou":9020,"lash":9021,"Ġviajando":9022,"Ġplanos":9023,"Ġpost":9024,"ĠKa":9025,"Ġbonitinha":9026,"Ġfunda":9027,"Ġgatinha":9028,"Ġrecic":9029,"ĠlouÃ§a":9030,"gios":9031,"Ġmudando":9032,"Ġmorava":9033,"Ġpipoca":9034,"Ġapare":9035,"Ġsobremesa":9036,"aaah":9037,"Ġorig":9038,"ĠXande":9039,"ĠXVideos":9040,"Ġtare":9041,"Ġchamava":9042,"Ġpesada":9043,"Carla":9044,"Ġatrasada":9045,"Falar":9046,"ĠpÃ´r":9047,"Pare":9048,"ĠAnitta":9049,"vemos":9050,"ĠSuper":9051,"Ġinfin":9052,"ĠVale":9053,"drinha":9054,"Ġmamar":9055,"ERDA":9056,"falou":9057,"ĠAmaran":9058,"Prepara":9059,"barÃ£o":9060,"Ġchupando":9061,"caso":9062,"ĠveÃŃculo":9063,"endimento":9064,"ĠGuimar":9065,"RepÃ³rter":9066,"Ġaguentar":9067,"Ġchamaram":9068,"Ġchampan":9069,"ĠOsvaldo":9070,"ĠpaÃŃses":9071,"Ġwor":9072,"Ġwant":9073,"Ġacordei":9074,"Fogo":9075,"Sub":9076,"INHO":9077,"Ġperai":9078,"mental":9079,"Ġpodiam":9080,"manos":9081,"CapitÃ£o":9082,"Mata":9083,"Mateus":9084,"ĠpapelÃ£o":9085,"Anti":9086,"Ġaproveita":9087,"Ġtorno":9088,"Ġtorcida":9089,"Ġazu":9090,"Ġigualzinho":9091,"Ġcuidando":9092,"OCA":9093,"Ġnuvem":9094,"colocar":9095,"Ġleitinho":9096,"lying":9097,"Ġsofrer":9098,"Ġjornalismo":9099,"Davidson":9100,"Ġvestir":9101,"Ġtreino":9102,"Ġtreinar":9103,"Ġsubindo":9104,"Ġgasta":9105,"glom":9106,"Ġsumido":9107,"Ġproduz":9108,"Ġdescontra":9109,"Ġimagens":9110,"Ġimagino":9111,"Ġimaginei":9112,"thur":9113,"Ġcresce":9114,"Ġprior":9115,"Ġprivil":9116,"ĠConceiÃ§Ã£o":9117,"CoÃ©":9118,"ĠPark":9119,"Ġsobrou":9120,"Ġtribo":9121,"Ġ2015":9122,"Ġ2019":9123,"ĠvisÃ£o":9124,"Ġalea":9125,"ĠestratÃ©gia":9126,"ÃŃmbolo":9127,"Ġpreocupada":9128,"ELA":9129,"Ġviolento":9130,"Dire":9131,"ĠmisÃ©ria":9132,"Ġpalinha":9133,"Ġpalco":9134,"Lembro":9135,"Ġ90":9136,"ĠpÃ¡gina":9137,"Ġzona":9138,"ĠESTÃģ":9139,"ĠsaÃŃdo":9140,"Ġgelado":9141,"Ġprefere":9142,"Ġescolhido":9143,"vangÃ©":9144,"ĠeconÃ´mico":9145,"lateia":9146,"Ġdivertir":9147,"Resol":9148,"ĠClÃ¡udia":9149,"ĠFodeu":9150,"ricio":9151,"Ġconcordo":9152,"Ġprint":9153,"Ġcolegas":9154,"Ġfechada":9155,"tunes":9156,"Ġmind":9157,"ĠMercado":9158,"ĠMeritÃŃssimo":9159,"ĠFabiano":9160,"ĠNordeste":9161,"Neymar":9162,"puls":9163,"ĠMiyagi":9164,"Ġconfunde":9165,"ĠThiago":9166,"Ġtrocado":9167,"Ġborra":9168,"Ġvendedor":9169,"Ġdesculpe":9170,"Ġescolheram":9171,"direto":9172,"Ġsigno":9173,"Ġquebrado":9174,"Ġproprie":9175,"ĠJuninho":9176,"ĠhÃ©te":9177,"Ġescravo":9178,"ĠcampeÃ£o":9179,"Ġfeminino":9180,"Bate":9181,"Ġensinar":9182,"ĠĠĠĠĠĠĠĠĠĠĠĠĠĠĠĠĠĠĠĠĠĠĠĠĠĠĠĠĠĠĠĠ":9183,"procurando":9184,"Ġatle":9185,"ĠFalei":9186,"Ġlamber":9187,"Ġhorrorosa":9188,"MoÃ§o":9189,"Ġperfume":9190,"Ġregistro":9191,"Ġregistrar":9192,"Ġplanilha":9193,"Ġselva":9194,"ĠRespira":9195,"ĠVIDA":9196,"ĠVerde":9197,"peuta":9198,"trabalho":9199,"Ġpicanha":9200,"Ġgrampo":9201,"ĠAlexa":9202,"Ġindep":9203,"ĠRua":9204,"Aluno":9205,"ĠengraÃ§ada":9206,"ĠMichelle":9207,"Aproveita":9208,"Ġconvencer":9209,"ĠNasa":9210,"Ġmasculino":9211,"ĠdiscussÃ£o":9212,"Domingo":9213,"Ġcross":9214,"ĠgeraÃ§Ã£o":9215,"Ġdirigir":9216,"ĠLonguinho":9217,"ĠcompetiÃ§Ã£o":9218,"Ġrepresenta":9219,"ĠPugli":9220,"ĠFechou":9221,"ĠLacerda":9222,"ĠhigiÃªnico":9223,"Hamilton":9224,"lÃ¢ndia":9225,"Ġdepositar":9226,"ĠgÃªmeos":9227,"Risos":9228,"ĠCintia":9229,"tificaÃ§Ã£o":9230,"ĠLuciano":9231,"Continua":9232,"Barulho":9233,"ClÃ¡udio":9234,"FÃ¡bio":9235,"MÃ¡rcia":9236,"cheia":9237,"ĠSurfe":9238,"izete":9239,"ĠclÃŃnica":9240,"Ġadulto":9241,"Ġmexicano":9242,"ĠcrÃŃtica":9243,"ĠAlexandre":9244,"ĠGosto":9245,"Positivo":9246,"terial":9247,"ĠSomersby":9248,"ĠÃ¡rvore":9249,"Ġstartup":9250,"rozen":9251,"ĠestagiÃ¡rio":9252,"ĠWellerson":9253,"ĠauxÃŃlio":9254,"Ġenlouque":9255,"ĠHilbert":9256,"Ġautoestima":9257,"Trouxe":9258,"ĠDylon":9259,"ĠSnap":9260,"Ġexecu":9261,"ĠImagina":9262,"Ġsupermercado":9263,"Ġdomiciliar":9264,"Ġmaquiagem":9265,"Apesar":9266,"hirley":9267,"tanejo":9268,"ĠestÃ´mago":9269,"ĠlÃ¢mpada":9270,"Ġmanteiga":9271,"rincipalmente":9272,"ĠGuimarÃ£es":9273,"Ġchampanhe":9274,"27":9275,"32":9276,"33":9277,"47":9278,"60":9279,"AT":9280,"At":9281,"Aonde":9282,"Bel":9283,"Bab":9284,"Bacana":9285,"BAL":9286,"Bene":9287,"Baixa":9288,"CA":9289,"Cla":9290,"Cria":9291,"Canta":9292,"Clica":9293,"Der":9294,"DAL":9295,"Fre":9296,"Fans":9297,"Gerson":9298,"HU":9299,"HER":9300,"Ian":9301,"Karina":9302,"LÃº":9303,"LHO":9304,"ME":9305,"MÃ£o":9306,"Mesquita":9307,"MalhaÃ§Ã£o":9308,"Nu":9309,"Numa":9310,"Nenhum":9311,"Pal":9312,"Ronaldo":9313,"Rosana":9314,"RÃ´mulo":9315,"Sin":9316,"Sig":9317,"Socorro":9318,"Sensacional":9319,"Ten":9320,"TchÃª":9321,"Uh":9322,"Umas":9323,"URA":9324,"Uau":9325,"VC":9326,"Velo":9327,"Vida":9328,"VÃ¢nia":9329,"VAM":9330,"VÃ¡rios":9331,"apro":9332,"ague":9333,"aquelas":9334,"bÃ³":9335,"bras":9336,"bana":9337,"bida":9338,"cai":9339,"cento":9340,"cher":9341,"centa":9342,"crÃŃvel":9343,"centra":9344,"dan":9345,"dil":9346,"dicar":9347,"ed":9348,"eba":9349,"fÃ£o":9350,"fru":9351,"fante":9352,"fing":9353,"feita":9354,"firma":9355,"gindo":9356,"gito":9357,"gimento":9358,"itando":9359,"iquinha":9360,"jÃ©":9361,"jor":9362,"jamento":9363,"justo":9364,"km":9365,"lan":9366,"lÃª":9367,"lir":9368,"lindo":9369,"mem":9370,"minho":9371,"opa":9372,"pen":9373,"pica":9374,"pse":9375,"pso":9376,"pÃµe":9377,"picamente":9378,"sic":9379,"sendo":9380,"sus":9381,"senta":9382,"stel":9383,"tt":9384,"tÃ©m":9385,"up":9386,"uco":9387,"uela":9388,"ucker":9389,"vre":9390,"velo":9391,"vinda":9392,"xs":9393,"yan":9394,"zista":9395,"Ġ]":9396,"Ġq":9397,"Ġxa":9398,"ĠQuanto":9399,"quaman":9400,"Ġate":9401,"Ġagar":9402,"Ġagra":9403,"rapeuta":9404,"Ġdin":9405,"ĠdanÃ§a":9406,"Ġdentista":9407,"Ġpoc":9408,"Ġpio":9409,"Ġpene":9410,"Ġcala":9411,"Ġceia":9412,"querido":9413,"teirinha":9414,"ĠmÃŃmica":9415,"Ã©cio":9416,"Ġsr":9417,"Ġvaran":9418,"arri":9419,"arme":9420,"arrum":9421,"enÃ©m":9422,"encar":9423,"enciar":9424,"inÃ©ia":9425,"orb":9426,"ordo":9427,"Ġfur":9428,"Ġfrou":9429,"Ġfit":9430,"Ġfron":9431,"Ġfone":9432,"Ġdeli":9433,"Ġdecor":9434,"Ġdebater":9435,"tomando":9436,"Ġocul":9437,"alu":9438,"alidade":9439,"Ġtan":9440,"Ġtil":9441,"Ġtui":9442,"Ġtamo":9443,"ocado":9444,"ish":9445,"reo":9446,"ressante":9447,"dep":9448,"dela":9449,"horas":9450,"Ġbun":9451,"Ġberm":9452,"eirÃ£o":9453,"Ġesto":9454,"Ġesqui":9455,"Ġestro":9456,"Ġesbar":9457,"Ġgem":9458,"Ġgesto":9459,"ÃŃl":9460,"iadÃ£o":9461,"Ġcomorb":9462,"icÃ¡":9463,"icando":9464,"Ã§amento":9465,"lates":9466,"escol":9467,"amor":9468,"ĠlÃ³gico":9469,"ĠlÃ³gica":9470,"Ãīrica":9471,"ril":9472,"rige":9473,"Ġdoendo":9474,"elÃª":9475,"elinho":9476,"gular":9477,"Ġpraticamente":9478,"Ġportas":9479,"abo":9480,"abel":9481,"ssaca":9482,"Quei":9483,"olÃ©":9484,"Ġfacada":9485,"unho":9486,"Ġenver":9487,"Ġenche":9488,"Ġjac":9489,"Ġjorge":9490,"gadas":9491,"Ġconse":9492,"Ġconec":9493,"Ġcondicionado":9494,"Ġreto":9495,"Ġrele":9496,"Ġrepara":9497,"ĠreduÃ§Ã£o":9498,"Ġreparou":9499,"Ġpezinho":9500,"Ġpegada":9501,"Ġpegue":9502,"dira":9503,"dita":9504,"didos":9505,"ĠCI":9506,"ĠCL":9507,"ĠCra":9508,"ĠCidade":9509,"ĠCons":9510,"ĠCosta":9511,"ĠCorre":9512,"ĠCAS":9513,"ĠCARA":9514,"ĠCleber":9515,"ĠCruz":9516,"ĠCunha":9517,"Ġmatei":9518,"Ġmaterial":9519,"ĠPÃ£o":9520,"ĠAC":9521,"ĠAe":9522,"ĠAdo":9523,"ĠAdem":9524,"ĠAtenÃ§Ã£o":9525,"ĠAhhh":9526,"ĠMoro":9527,"ĠMinistro":9528,"ĠMinistÃ©rio":9529,"ĠDU":9530,"ĠDr":9531,"ĠDer":9532,"ĠDol":9533,"ĠDie":9534,"ĠDÃ©bora":9535,"Ġmedida":9536,"tizar":9537,"tipicamente":9538,"Ã´men":9539,"ĠSO":9540,"ĠSP":9541,"ĠSanta":9542,"ĠSant":9543,"ĠSidcley":9544,"ĠSandy":9545,"ĠShirley":9546,"iojo":9547,"Ġdiem":9548,"Ġdiante":9549,"Ġdigi":9550,"Ġpotinho":9551,"Ġpapelada":9552,"Ġtudinho":9553,"Ġindis":9554,"ĠinvisÃŃvel":9555,"Estu":9556,"ĠTer":9557,"ĠTran":9558,"ĠTER":9559,"Ġsentiu":9560,"ĠalÃ´":9561,"Ġalergia":9562,"ĠBor":9563,"ĠBas":9564,"ĠBia":9565,"rantes":9566,"mora":9567,"veral":9568,"pedi":9569,"peleta":9570,"pediu":9571,"comen":9572,"compan":9573,"Ġassino":9574,"ĠassÃ©dio":9575,"ĠparaÃŃ":9576,"Ġproje":9577,"tensÃ£o":9578,"Ġsuor":9579,"Ġoutubro":9580,"ĠJÃģ":9581,"ĠJap":9582,"ĠJennifer":9583,"Ġmesmos":9584,"pras":9585,"ĠRosa":9586,"ĠRenan":9587,"ĠVin":9588,"ĠVÃª":9589,"cius":9590,"port":9591,"Ġserra":9592,"ĠFra":9593,"ĠFrio":9594,"ĠFerra":9595,"ĠFAL":9596,"ĠFantÃ¡stico":9597,"Ġanabol":9598,"Ġporras":9599,"inais":9600,"Ġdesl":9601,"Ġdeso":9602,"Ġdesceu":9603,"Ġdesejo":9604,"ĠdesgraÃ§a":9605,"Ġdesespero":9606,"vogada":9607,"Ġnesses":9608,"Ġcate":9609,"ĠcaÃ§a":9610,"Ġcaval":9611,"ĠcapitÃ£o":9612,"Ġcafezinho":9613,"Ġhour":9614,"nao":9615,"nage":9616,"ĠLur":9617,"Ġboy":9618,"Ġbotando":9619,"set":9620,"izinho":9621,"izantes":9622,"Ġhem":9623,"Ġhipo":9624,"Ġhip":9625,"ĠNes":9626,"ĠNabote":9627,"ĠGre":9628,"ĠEri":9629,"ĠEvaristo":9630,"verme":9631,"saÃºde":9632,"Ġfilhas":9633,"Ġirre":9634,"ĠirÃ´nico":9635,"Ġtrailer":9636,"ĠtragÃ©dia":9637,"ĠprÃªm":9638,"Ġexpre":9639,"terine":9640,"viar":9641,"vidas":9642,"Ġsoubesse":9643,"Ġlegum":9644,"Ġlikes":9645,"ĠÃ³bvio":9646,"Sexo":9647,"brir":9648,"herÃ³is":9649,"Ġmimimi":9650,"ocaÃ§Ã£o":9651,"Ġmania":9652,"Ġartif":9653,"Ġtapete":9654,"Ġresgate":9655,"Ġdaria":9656,"metros":9657,"Ġdeita":9658,"Ġcores":9659,"Ġcortando":9660,"Ġapl":9661,"Ġapon":9662,"inhentos":9663,"Ġdelegado":9664,"ontem":9665,"graÃ§as":9666,"Ãªnia":9667,"Ġ28":9668,"ĠIN":9669,"ĠIP":9670,"onais":9671,"Ġjovens":9672,"Ġlabora":9673,"Ġonze":9674,"Ġondinhas":9675,"brado":9676,"Ġcansa":9677,"Ġcansada":9678,"ĠMari":9679,"ĠMarte":9680,"neo":9681,"nesses":9682,"Ġmorro":9683,"abet":9684,"âĢĻ":9685,"fert":9686,"ferente":9687,"trÃ¡lia":9688,"ĠUhum":9689,"ĠUilliam":9690,"risti":9691,"Ġcogum":9692,"Ġcolado":9693,"Ġcoxinha":9694,"Ġpassaram":9695,"Ġnegou":9696,"ĠnegÃ³cios":9697,"Novo":9698,"Ġmalha":9699,"Ġmalhando":9700,"ĠHo":9701,"Ġacontecido":9702,"igas":9703,"carre":9704,"Ġusada":9705,"duto":9706,"talÃŃcio":9707,"Ġajudo":9708,"ĠrÃ©u":9709,"Ġrock":9710,"ĠÃ¡cido":9711,"Ġmarcas":9712,"dinhos":9713,"Mete":9714,"chamado":9715,"chas":9716,"Ġqueriam":9717,"ĠPassa":9718,"Ġlotado":9719,"AmÃ©m":9720,"ulada":9721,"pronto":9722,"Ġdireitos":9723,"Ġbebo":9724,"ĠmilhÃ£o":9725,"Ġembala":9726,"Ġcriei":9727,"cionÃ¡rio":9728,"Ġiam":9729,"Ġfezes":9730,"Ġempreende":9731,"itÃª":9732,"itsu":9733,"Ġungido":9734,"Ġcaipirinha":9735,"ĠCarnaval":9736,"ĠCarvalho":9737,"quinhos":9738,"Ġfiel":9739,"Ġfibra":9740,"Ġprestando":9741,"AAA":9742,"Ġfama":9743,"Ġentregou":9744,"Ġroubei":9745,"ĠpolÃªm":9746,"ĠsalÃ£o":9747,"Ġfrus":9748,"Ġanota":9749,"Ġgaler":9750,"estade":9751,"Ġacreditava":9752,"ronia":9753,"ventude":9754,"Ġerra":9755,"Ġpegava":9756,"ĠbonÃ©":9757,"Ġgatos":9758,"Ġgatinho":9759,"ĠhistÃ³":9760,"Ġvaler":9761,"Ġdemorou":9762,"hhhhh":9763,"Ġcurte":9764,"Ġcurtida":9765,"Ġrecol":9766,"ĠrecÃ©m":9767,"ĠNosso":9768,"rende":9769,"aneamento":9770,"Ġatendimento":9771,"Ġcontratar":9772,"Ġpique":9773,"Ġcompras":9774,"Mari":9775,"Marta":9776,"Marcondes":9777,"Ġclim":9778,"Ġclica":9779,"ocotÃ³":9780,"Ġtransou":9781,"Ġtransmi":9782,"Ġtransporte":9783,"Ġcabra":9784,"Ġcabec":9785,"Ġcabine":9786,"ĠZucker":9787,"Ġmostrando":9788,"ĠCatete":9789,"Ġassisto":9790,"Ġpesa":9791,"Leon":9792,"Letra":9793,"voluÃ§Ã£o":9794,"Ġatrasar":9795,"ĠdistÃ¢ncia":9796,"isadas":9797,"ĠRey":9798,"tilo":9799,"semana":9800,"Ġbicha":9801,"chorando":9802,"ĠBotÃ¢nico":9803,"Ġ45":9804,"Ã¢mbio":9805,"Cons":9806,"Ġaudi":9807,"Ġsonhar":9808,"Ġinfil":9809,"Ġinform":9810,"Ġmaioridade":9811,"riosos":9812,"ĠDesce":9813,"ĠmÃ¡gica":9814,"Ġvirtual":9815,"Fazendo":9816,"ticano":9817,"ticular":9818,"ĠbebÃªs":9819,"celanato":9820,"Ġdisseram":9821,"Ġsurfe":9822,"Ġveja":9823,"aranhÃ£o":9824,"Ġgoleiro":9825,"ĠDeve":9826,"ĠDepois":9827,"Roger":9828,"iii":9829,"Ġriu":9830,"ĠSatanÃ¡s":9831,"creve":9832,"ĠMarcinho":9833,"Ġweb":9834,"ĠEstÃ¡cio":9835,"Foto":9836,"timas":9837,"Ġhave":9838,"Ġhaver":9839,"ĠRaul":9840,"filia":9841,"Ġamarrado":9842,"ĠopÃ§Ãµes":9843,"okÃª":9844,"ĠWhatsapp":9845,"Ġcomunistas":9846,"Anda":9847,"ĠbraÃ§os":9848,"entÃŃssimo":9849,"Ġbolado":9850,"Ġazeitona":9851,"Ġcriativa":9852,"Ġcriatividade":9853,"Ġsombra":9854,"ĠbalÃ£o":9855,"ĠbalanÃ§a":9856,"Ġchope":9857,"Ġficaram":9858,"Ġcliquei":9859,"lyFans":9860,"Ġdezembro":9861,"ĠJuliana":9862,"mentos":9863,"Ġescrevendo":9864,"onald":9865,"Tomar":9866,"Ġdominar":9867,"Ġpisca":9868,"Ġpingo":9869,"Ġpintura":9870,"Ġestranha":9871,"Ġlargou":9872,"existe":9873,"chuva":9874,"Ġcruel":9875,"Ġsonhos":9876,"Ġsumir":9877,"Ġfebre":9878,"Ġfederal":9879,"ĠimaginÃ¡ria":9880,"thy":9881,"Ġrisada":9882,"Ġrisoto":9883,"Ġestrelas":9884,"Ġestuda":9885,"Ġcarregando":9886,"Ġaprendi":9887,"Ġabsoluta":9888,"Ġsalada":9889,"Ġcorreto":9890,"Ġsaudades":9891,"Safado":9892,"Ġvisitar":9893,"Ġ80":9894,"Ġestrada":9895,"ĠSilvio":9896,"ĠJairo":9897,"Ġarrumou":9898,"icionar":9899,"FaÃ§o":9900,"Ãºblica":9901,"Ġnegociar":9902,"indersson":9903,"ĠviolÃ£o":9904,"Disse":9905,"ĠmistÃ©rio":9906,"Ġconcentrar":9907,"enotipicamente":9908,"Ġpequen":9909,"ĠJosi":9910,"Ġdesenro":9911,"Ġzumbi":9912,"Ġvazia":9913,"Ġlingua":9914,"Mendigo":9915,"Ġpagode":9916,"Ġapertado":9917,"ĠempresÃ¡rio":9918,"Ġgelada":9919,"ĠCleide":9920,"ĠpreferÃªncia":9921,"Ġurgente":9922,"Ġcrepe":9923,"Ġjusto":9924,"Ġdescobriram":9925,"ĠPreto":9926,"Ġdesafio":9927,"Ġabsurda":9928,"comeÃ§a":9929,"GORA":9930,"Ġpsiu":9931,"Ġescondido":9932,"Ġacess":9933,"ĠSouza":9934,"ĠFabrÃŃcio":9935,"Ġarrancar":9936,"Ġarranjar":9937,"BBB":9938,"Ġexagerando":9939,"ĠgrÃ¡tis":9940,"Ġanimado":9941,"Ġflores":9942,"ĠGod":9943,"OOO":9944,"Sobe":9945,"Ġmulta":9946,"Ġoferecendo":9947,"saber":9948,"ĠDanilo":9949,"Ġdificil":9950,"iiiiiiii":9951,"Ġchorou":9952,"ĠeleiÃ§Ãµes":9953,"drade":9954,"Ġdevolve":9955,"ULA":9956,"bastante":9957,"Ġdurar":9958,"Ġfeminina":9959,"Ġfinanciamento":9960,"Ġdocumentos":9961,"ĠCabo":9962,"Ġflora":9963,"Ġreconhecer":9964,"Ġmassagem":9965,"ComeÃ§a":9966,"Ġmusical":9967,"Ġexistia":9968,"Cloroquina":9969,"Ġfingindo":9970,"ĠBelzebu":9971,"Ġperform":9972,"Ġimprovisar":9973,"ĠAmazÃ´nia":9974,"malas":9975,"Ġzoom":9976,"Ġaborto":9977,"PolÃªmica":9978,"Tranquilo":9979,"Ġselfie":9980,"Ġenvolvido":9981,"ĠPriscilla":9982,"ĠmeditaÃ§Ã£o":9983,"ĠUniversal":9984,"Ġconsertar":9985,"Internet":9986,"ĠdÃ³lares":9987,"PORRA":9988,"TROS":9989,"Ġvelocidade":9990,"Larga":9991,"ginaldo":9992,"ĠMoreira":9993,"Ġincomodar":9994,"ĠVictor":9995,"Ġdescarga":9996,"ĠLÃ¡zaro":9997,"Ġcompanheiro":9998,"Ġadministra":9999,"Trabalho":10000,"Ġsustentar":10001,"Vacina":10002,"ĠfÃŃsico":10003,"ĠAguina":10004,"ĠAguiar":10005,"ĠWallace":10006,"Ġcaixas":10007,"Ġfigur":10008,"ĠJohnny":10009,"ĠcivilizaÃ§Ã£o":10010,"uuuuuuuu":10011,"ĠTraz":10012,"ĠFuriosos":10013,"Ġconstrange":10014,"Ġuniforme":10015,"Fernanda":10016,"curso":10017,"Ġpentelho":10018,"ĠVermelha":10019,"ĠIsrael":10020,"Ġpublici":10021,"Ġfugindo":10022,"Funciona":10023,"Ġescova":10024,"ĠFecha":10025,"Ġadolescente":10026,"Ġespalhar":10027,"gritando":10028,"Ġencerrar":10029,"Ġenchendo":10030,"ĠespecÃŃfico":10031,"Ġexagero":10032,"Ġocupado":10033,"Ġbruxa":10034,"Ġestrutura":10035,"Ġengolir":10036,"Ġdigite":10037,"Ġprotesto":10038,"ĠLeifert":10039,"acontecendo":10040,"ĠexercÃŃcio":10041,"Ġbatalha":10042,"Ġconfirmar":10043,"Ġespirro":10044,"eografia":10045,"Ġfralda":10046,"Ġtumor":10047,"ĠmanifestaÃ§Ã£o":10048,"Ġestabelecimento":10049,"atravÃ©s":10050,"Esqueci":10051,"ĠJorginho":10052,"Ġhiper":10053,"ĠÃ¡guas":10054,"Ġsubstituir":10055,"Bonito":10056,"Renato":10057,"Ġqueimando":10058,"Ġbreve":10059,"Ġbrocha":10060,"ĠacusaÃ§Ã£o":10061,"ĠPREC":10062,"ĠAbraÃ£o":10063,"ĠMaravilha":10064,"ĠIRM":10065,"ĠinterpretaÃ§Ã£o":10066,"Ġamea":10067,"ĠRoberts":10068,"Ġbarulhinho":10069,"ĠAlemanha":10070,"Ã³rnio":10071,"ĠconcentraÃ§Ã£o":10072,"#$%":10073,"GarÃ§om":10074,"Ġsunga":10075,"rivella":10076,"ĠjurÃŃ":10077,"Ġditadura":10078,"Ġingredi":10079,"ĠBeth":10080,"ĠRisoto":10081,"ĠperÃŃodo":10082,"ĠhumilhaÃ§Ã£o":10083,"ĠautÃ³grafo":10084,"Ġprivacidade":10085,"Brigado":10086,"Ġsegredo":10087,"ĠcondiÃ§Ãµes":10088,"ĠSABESP":10089,"ĠJonathan":10090,"Ġcachoeira":10091,"ĠÃ¢n":10092,"ĠprÃ³ximos":10093,"Ġpulseirinha":10094,"Promotor":10095,"Ġoficina":10096,"Ġporcaria":10097,"Ġcondenado":10098,"ĠAustrÃ¡lia":10099,"ĠBernardo":10100,"Ãºcleo":10101,"Ġdiabetes":10102,"Ġfundamental":10103,"Ġoriginal":10104,"ĠAmarante":10105,"Ġmindset":10106,"ĠhÃ©teros":10107,"ĠPugliesi":10108,"Velozes":10109,"veraldo":10110,"ĠJapÃ£o":10111,"ĠLurdes":10112,"ĠZuckerberg":10113,"%$":10114,"11":10115,"35":10116,"39":10117,"?)":10118,"?\".":10119,"Au":10120,"Ana":10121,"Abs":10122,"Big":10123,"BRA":10124,"Bat":10125,"Beto":10126,"Bloque":10127,"But":10128,"CC":10129,"Ce":10130,"Cin":10131,"Coca":10132,"Cezar":10133,"Cachorro":10134,"Dr":10135,"Duda":10136,"DemÃ´nio":10137,"DÃ©bora":10138,"Eta":10139,"Epa":10140,"Evandro":10141,"FO":10142,"Fe":10143,"FAM":10144,"Frozen":10145,"Gol":10146,"Ganhou":10147,"IR":10148,"IX":10149,"IGA":10150,"JE":10151,"Ja":10152,"Jai":10153,"Jus":10154,"Lui":10155,"Linda":10156,"MI":10157,"MS":10158,"Mer":10159,"Mito":10160,"Mano":10161,"Meia":10162,"Morre":10163,"Meire":10164,"MMORPG":10165,"Neide":10166,"Ora":10167,"PARA":10168,"Prome":10169,"RVOR":10170,"ST":10171,"San":10172,"Sacanagem":10173,"SAI":10174,"Selva":10175,"Tou":10176,"TOS":10177,"Tiago":10178,"Uber":10179,"Vin":10180,"Vendo":10181,"Voce":10182,"Vote":10183,"Yes":10184,"ace":10185,"atrÃ¡s":10186,"bai":10187,"bam":10188,"bigo":10189,"cente":10190,"char":10191,"dana":10192,"dista":10193,"dfun":10194,"ede":10195,"etas":10196,"eada":10197,"exatamente":10198,"eah":10199,"fan":10200,"ful":10201,"fec":10202,"ficial":10203,"fenotipicamente":10204,"gy":10205,"goc":10206,"gla":10207,"hley":10208,"ier":10209,"itÃ£o":10210,"idas":10211,"iÃµes":10212,"jitsu":10213,"kg":10214,"loco":10215,"mel":10216,"minhas":10217,"mandando":10218,"nu":10219,"od":10220,"oque":10221,"ota":10222,"pei":10223,"pino":10224,"pular":10225,"pamento":10226,"penho":10227,"rul":10228,"sas":10229,"sol":10230,"sala":10231,"tho":10232,"tha":10233,"tinete":10234,"uÃª":10235,"ure":10236,"uÃŃ":10237,"vara":10238,"vani":10239,"wn":10240,"waldo":10241,"wdfun":10242,"xy":10243,"xÃ£o":10244,"xina":10245,"zy":10246,"zina":10247,"zine":10248,"zentos":10249,"Ġ)":10250,"Ġxo":10251,"Ġara":10252,"ĠaÃª":10253,"Ġaus":10254,"Ġatu":10255,"Ġates":10256,"Ġagua":10257,"Ġativo":10258,"ĠaÃ§Ãµes":10259,"Ġateu":10260,"rapidinho":10261,"rativa":10262,"Ġeven":10263,"ĠevangÃ©":10264,"Ġdali":10265,"Ġpira":10266,"Ġponte":10267,"Ġpula":10268,"Ġpanda":10269,"Ġpisto":10270,"Ġcele":10271,"Ġcredi":10272,"queca":10273,"tebook":10274,"tejando":10275,"Ġmicos":10276,"Ã©cia":10277,"Ġsanta":10278,"ĠsÃŃmbolo":10279,"Ġsaneamento":10280,"Ġvela":10281,"Ġvinhos":10282,"arre":10283,"enÃŃ":10284,"ental":10285,"enzinho":10286,"enfim":10287,"enny":10288,"ingu":10289,"ininho":10290,"informa":10291,"Ã¡Ã¡":10292,"orei":10293,"orio":10294,"erto":10295,"Ġfen":10296,"Ġfas":10297,"Ġfino":10298,"Ġfocar":10299,"Ġflex":10300,"Ġfomos":10301,"ann":10302,"anab":10303,"antins":10304,"umba":10305,"aloo":10306,"ĠtÃºn":10307,"Ġthis":10308,"ocali":10309,"isconde":10310,"reio":10311,"rol":10312,"roga":10313,"rosa":10314,"desa":10315,"dessas":10316,"...!":10317,"embaixo":10318,"onto":10319,"Ġteim":10320,"Ġteles":10321,"Ġterapeuta":10322,"Ġbil":10323,"Ġbumb":10324,"Ġbambu":10325,"eirinho":10326,"ouro":10327,"Ġglobo":10328,"ĠgestÃ£o":10329,"ĠglÃ³ria":10330,"euza":10331,"leque":10332,"lejo":10333,"lexo":10334,"aiane":10335,"Ġcomandante":10336,"icam":10337,"Ã§oso":10338,"esc":10339,"esperando":10340,"Ã³b":10341,"Ã³logo":10342,"aming":10343,"Ġilum":10344,"Ġilegal":10345,"ÃīÃī":10346,"riou":10347,"riÃ³":10348,"Ġnobre":10349,"Ġnovel":10350,"Ġdog":10351,"Ġdoze":10352,"goa":10353,"gol":10354,"ella":10355,"elinha":10356,"tÃ¡vio":10357,"Ġporco":10358,"olar":10359,"Ġdate":10360,"Ġdaquelas":10361,"Ġfavela":10362,"Ġfalso":10363,"Ġfaleceu":10364,"Ġsede":10365,"ĠsequÃªncia":10366,"Ġent":10367,"Ġente":10368,"Ġenga":10369,"Ġencor":10370,"Ġjiu":10371,"Ġjanta":10372,"gata":10373,"ulina":10374,"Ġcontam":10375,"Ġconquis":10376,"Ġredon":10377,"Ġrevolu":10378,"Ġressaca":10379,"Ġpedia":10380,"dig":10381,"disse":10382,"divi":10383,"ĠCai":10384,"ĠCul":10385,"ĠCity":10386,"ĠCHE":10387,"ĠCross":10388,"Ġmatem":10389,"Ġmagia":10390,"ĠPas":10391,"ĠPira":10392,"ĠPela":10393,"ĠPaixÃ£o":10394,"ĠestÃ¡tua":10395,"Ġquinhentos":10396,"vavelmente":10397,"ĠAP":10398,"ĠAquaman":10399,"ĠManda":10400,"ĠMON":10401,"ĠMAS":10402,"ĠMamÃ£e":10403,"ĠDP":10404,"ĠDay":10405,"ĠDNA":10406,"ĠDilma":10407,"ĠmetÃ¡":10408,"pata":10409,"tias":10410,"tirando":10411,"ĠSi":10412,"ĠSk":10413,"ĠSor":10414,"ĠSora":10415,"ĠSÃ©rio":10416,"ĠSÃĵ":10417,"ĠSerra":10418,"ĠSorte":10419,"ĠambulÃ¢ncia":10420,"trato":10421,"traÃ§Ã£o":10422,"tralha":10423,"Ġpata":10424,"Ġincon":10425,"Ġincl":10426,"Ġinvas":10427,"Estre":10428,"Espero":10429,"Estranho":10430,"ĠTI":10431,"ĠTha":10432,"ĠTia":10433,"ĠTeu":10434,"ĠTinha":10435,"ĠTec":10436,"ĠTRA":10437,"cados":10438,"cafÃ©":10439,"Ġsenhoras":10440,"Ġviva":10441,"ĠalÃ©r":10442,"Ġalimentar":10443,"ĠBO":10444,"ĠBus":10445,"ĠBosta":10446,"ĠBET":10447,"ĠBreno":10448,"ĠBranco":10449,"rango":10450,"posso":10451,"poeira":10452,"podem":10453,"moto":10454,"cego":10455,"peranÃ§a":10456,"Ġsujar":10457,"ĠouÃ§o":10458,"Ġoutono":10459,"ĠJer":10460,"ĠJay":10461,"ĠON":10462,"ĠObjeÃ§Ã£o":10463,"ĠOtÃ¡vio":10464,"ĠRÃ¡":10465,"ĠRei":10466,"ĠRap":10467,"ĠVera":10468,"ĠVelho":10469,"ĠVER":10470,"ciente":10471,"cialmente":10472,"cioso":10473,"cific":10474,"porÃ©m":10475,"Ġsertanejo":10476,"ĠFla":10477,"ĠFri":10478,"ĠFicou":10479,"ĠFlor":10480,"ĠFamÃŃlia":10481,"ĠFIF":10482,"ĠFOI":10483,"Ġperren":10484,"Ġpertur":10485,"Ġperuca":10486,"irl":10487,"Ġdestra":10488,"Ġdesgas":10489,"Ġdestino":10490,"Ġdeseja":10491,"ambo":10492,"Ġneh":10493,"Ġcata":10494,"Ġcatar":10495,"Ġcaver":10496,"ĠcadÃ¡":10497,"ĠcapÃŃ":10498,"Ġcausar":10499,"ĠLindo":10500,"ĠLaran":10501,"ĠLemos":10502,"ĠLelÃª":10503,"Ġboi":10504,"Ġboquinha":10505,"Ġbombando":10506,"Ġbombeiro":10507,"Ġheim":10508,"ĠNu":10509,"ĠNOM":10510,"ĠNilton":10511,"turi":10512,"tuber":10513,"tuaba":10514,"ĠGis":10515,"ĠGlÃ³ria":10516,"ĠGPS":10517,"ĠEr":10518,"ĠExatamente":10519,"ĠELE":10520,"ĠEgito":10521,"vernador":10522,"Ġfilial":10523,"Compra":10524,"ĠDeusinÃ©ia":10525,"dererÃª":10526,"ĠtradiÃ§Ã£o":10527,"Ġtravesti":10528,"Ġtradicional":10529,"acredi":10530,"Ġexig":10531,"Ġextin":10532,"ĠexposiÃ§Ã£o":10533,"Ġcartas":10534,"Ġcarisma":10535,"Ġparecer":10536,"Ġparcela":10537,"Ġpartiu":10538,"viva":10539,"loga":10540,"logia":10541,"loÃŃsio":10542,"ĠleÃ£o":10543,"Ġlide":10544,"Ġlidar":10545,"Sete":10546,"Seis":10547,"Segue":10548,"jela":10549,"jetÃ³ria":10550,"Ġmenu":10551,"conta":10552,"Ġestacionar":10553,"Ġprecisamos":10554,"parar":10555,"paraÃ§Ã£o":10556,"ĠchÃ¡":10557,"Ġchique":10558,"Ġchapis":10559,"Ġchapeleta":10560,"Ġresid":10561,"zap":10562,"Ġmergu":10563,"Ġmerchan":10564,"metade":10565,"Ġcortou":10566,"Ġtij":10567,"Ġtido":10568,"Ġraiva":10569,"ecem":10570,"ensÃ£o":10571,"ensivo":10572,"lisses":10573,"perto":10574,"pergunta":10575,"Ġ29":10576,"ĠItÃ¡lia":10577,"Ġjogadores":10578,"Ġpoucos":10579,"Ġvolte":10580,"Ġvolume":10581,"ĠMarco":10582,"ĠMaricÃ¡":10583,"Ġmodelo":10584,"Ġfilhote":10585,"Ġmorena":10586,"Ġmoreno":10587,"boar":10588,"ĠUF":10589,"Ġcop":10590,"Ġcoelho":10591,"Ġcobrir":10592,"ural":10593,"Ġmalandro":10594,"Ġbatom":10595,"ĠPorto":10596,"Ġron":10597,"Ġroda":10598,"Ġrota":10599,"Ġrolou":10600,"jogando":10601,"ĠimÃ³veis":10602,"varde":10603,"carnaval":10604,"Ġuse":10605,"Ġluva":10606,"Ġboate":10607,"fegante":10608,"Ġrin":10609,"Ġrica":10610,"resco":10611,"Ġmarquei":10612,"Ġmarcou":10613,"Ġmartelo":10614,"Ġconhecendo":10615,"plas":10616,"plos":10617,"Ġcurou":10618,"ĠcuriÃ³":10619,"ĠWaze":10620,"chada":10621,"chama":10622,"Ġsaberia":10623,"pareceu":10624,"enheiro":10625,"ĠcomeÃ§aram":10626,"ĠPapa":10627,"ĠlogÃŃstica":10628,"aquilo":10629,"Ġdiretamente":10630,"ĠbeÃ§a":10631,"Ġmilha":10632,"Ġmiliciano":10633,"Ġ31":10634,"Pegar":10635,"Ġvotos":10636,"Pau":10637,"Ġdub":10638,"turar":10639,"inteco":10640,"Ġempregos":10641,"versÃ¡rio":10642,"ĠuniÃ£o":10643,"Ġcarros":10644,"Ġfixo":10645,"Ġfizesse":10646,"Ġpresentinho":10647,"ĠMau":10648,"ĠMassa":10649,"Ġvence":10650,"Ġvenceu":10651,"Ġentrego":10652,"Ġentregando":10653,"Ġbarbe":10654,"Ġabro":10655,"Ġrouba":10656,"Ġroubo":10657,"Ġinterfone":10658,"ĠintervenÃ§Ã£o":10659,"Ġpolvo":10660,"Ġsalvei":10661,"Ġanotando":10662,"ĠAlmo":10663,"Ġouvem":10664,"fila":10665,"Achou":10666,"clara":10667,"deixar":10668,"Ġacreditou":10669,"Ġvacinas":10670,"Ġcompleta":10671,"Ġcomprome":10672,"Ġviatura":10673,"foto":10674,"ÃŃstico":10675,"Ġdizia":10676,"ĠKlÃ©":10677,"Ġfudido":10678,"Ġbone":10679,"Ġsoltava":10680,"Ġfunk":10681,"Ġbaile":10682,"Ġbaianas":10683,"rimas":10684,"Ġhistoria":10685,"Ġreprise":10686,"ĠEsperanÃ§a":10687,"Ġolhinho":10688,"Ġrecu":10689,"ĠNoel":10690,"IncrÃŃvel":10691,"ĠesperanÃ§a":10692,"Ġpilates":10693,"erÃ¡vel":10694,"Ġinsu":10695,"Ġinspira":10696,"Ġtransform":10697,"ĠCapitÃ£o":10698,"ĠCaxambi":10699,"cordo":10700,"correndo":10701,"Ġfinalistas":10702,"Ã©stimo":10703,"Ġdisco":10704,"Ġdispon":10705,"iness":10706,"ĠLuis":10707,"Falta":10708,"Ġhumanos":10709,"Ġtranquilidade":10710,"Parei":10711,"viado":10712,"Ġ400":10713,"ĠRioCard":10714,"Ġmorreram":10715,"ĠLeon":10716,"ĠLeticia":10717,"Ġsonhando":10718,"ĠValdo":10719,"ĠValdir":10720,"Ġmija":10721,"Ġmijando":10722,"Perdi":10723,"Ġmamilo":10724,"orothy":10725,"suruba":10726,"sussur":10727,"ĠAmanhÃ£":10728,"enhoras":10729,"Ġtesta":10730,"Ġtestamento":10731,"ĠNegra":10732,"Ġchutou":10733,"fice":10734,"ficando":10735,"Ġveado":10736,"ends":10737,"ALE":10738,"Ġprimeiros":10739,"ĠGuanab":10740,"Regina":10741,"Valendo":10742,"Ġagulha":10743,"romp":10744,"Ġquestion":10745,"chega":10746,"chegar":10747,"Ġacordando":10748,"Empre":10749,"Suz":10750,"Sueli":10751,"ĠcientÃŃ":10752,"INDO":10753,"Ġlevan":10754,"Ġlevei":10755,"Ġlevante":10756,"tribu":10757,"Ġcachorros":10758,"cantar":10759,"Ġengor":10760,"Ġhabil":10761,"ĠRatinho":10762,"ĠRapidinho":10763,"filis":10764,"Ġavisa":10765,"tell":10766,"Ġtrabalhava":10767,"Catarina":10768,"Ġcomunica":10769,"quisito":10770,"Ġtorcer":10771,"Ġbrigando":10772,"Ġazeite":10773,"Ġcriada":10774,"Ġsomente":10775,"ulhos":10776,"Ġcuido":10777,"Ã¡rbara":10778,"Ġlong":10779,"Ġlonga":10780,"ĠFernan":10781,"Ġoffice":10782,"Ġbalinha":10783,"Ġbaleia":10784,"xarif":10785,"Ġchoque":10786,"ÃįLIA":10787,"Ġutil":10788,"atch":10789,"ĠYork":10790,"Ġesteve":10791,"ĠInferno":10792,"Ġsofrimento":10793,"Tomei":10794,"Tomou":10795,"Ġgripe":10796,"Ġmexeu":10797,"vidÃªncia":10798,"Arras":10799,"Ġcego":10800,"Ġpinos":10801,"Ġbrothers":10802,"Okay":10803,"Virou":10804,"Ġquie":10805,"Ġquilo":10806,"Ġquilos":10807,"Ġrespondendo":10808,"Fiquem":10809,"ĠferiadÃ£o":10810,"Ġgastei":10811,"ĠDuas":10812,"Existe":10813,"Excelente":10814,"Ġ1990":10815,"OLE":10816,"Ġestrear":10817,"Ġestupra":10818,"Ġestudante":10819,"Ġaprendiz":10820,"Imag":10821,"ĠParece":10822,"Ġsobrinha":10823,"ĠtripÃ©":10824,"Ġcorretor":10825,"Ġ2012":10826,"Ġagro":10827,"frega":10828,"Ġvalores":10829,"tistas":10830,"Ġestragado":10831,"ÃŃmpico":10832,"ĠSilvia":10833,"Ġparceiros":10834,"Ġagradece":10835,"Ġexperimentar":10836,"Ġcrazy":10837,"Ġcombina":10838,"Ġpreparada":10839,"Ġpromotor":10840,"Adilson":10841,"ĠrefÃ©m":10842,"Ġdesenhar":10843,"Voltou":10844,"Ġdemorando":10845,"Ġjavali":10846,"ĠMendigo":10847,"ĠViva":10848,"ĠVivi":10849,"Ġemprestado":10850,"Ġyour":10851,"Ġpreferia":10852,"Candida":10853,"Ġjust":10854,"ĠCamargo":10855,"Respeita":10856,"Ġabertura":10857,"Mandei":10858,"ĠprofissÃ£o":10859,"ĠdepÃ³sito":10860,"Ġturma":10861,"Ġimaginava":10862,"Doutora":10863,"merda":10864,"Ġfrila":10865,"ĠProtein":10866,"Ġlibertar":10867,"Ġtrol":10868,"News":10869,"NegÃ³cio":10870,"Ġdancinha":10871,"Ġbaby":10872,"ĠanimaÃ§Ã£o":10873,"Ġatacar":10874,"Ġcusp":10875,"Ġmembro":10876,"ĠmemÃ³ria":10877,"donÃ©sia":10878,"ĠRenato":10879,"ĠGotinha":10880,"Ġtrocando":10881,"Ġatitude":10882,"Ġobjeto":10883,"Ġofereceu":10884,"Ġcamarim":10885,"funciona":10886,"ssiva":10887,"ssionais":10888,"ĠLibra":10889,"vÃ¡rias":10890,"quente":10891,"Ġsacar":10892,"Ġsacane":10893,"ĠcampeÃ£":10894,"Ġcompartilhar":10895,"Ġperdemos":10896,"ĠromÃ¢n":10897,"Ġmolhar":10898,"ĠDoutor":10899,"ĠautorizaÃ§Ã£o":10900,"prÃ©stimo":10901,"Ã©Ã©Ã©":10902,"Ãªmeos":10903,"Ġdaqueles":10904,"ĠDavidson":10905,"ĠFalou":10906,"Ġhorroroso":10907,"logista":10908,"Ġescutar":10909,"Ġzoando":10910,"enciais":10911,"Ġesgotado":10912,"Ġgrego":10913,"ĠBraga":10914,"ĠBrazil":10915,"ĠJaque":10916,"ĠGraÃ§as":10917,"kkkk":10918,"Ġevitando":10919,"aleÃ£o":10920,"Ġinvadir":10921,"Ġsubstitu":10922,"Casa":10923,"Fecha":10924,"Fechou":10925,"PORTA":10926,"Ġtacou":10927,"Ġesfrega":10928,"Ġnaturalmente":10929,"ĠVaticano":10930,"ĠAndrea":10931,"Ġemocional":10932,"Solange":10933,"ĠAleluia":10934,"ĠpÃ©ssima":10935,"ĠsustentÃ¡vel":10936,"Ġmolhado":10937,"Ġengravi":10938,"ĠreaÃ§Ã£o":10939,"ĠCerto":10940,"ĠPlÃŃnio":10941,"conseguir":10942,"Ġresponsabilidade":10943,"ĠcaixÃ£o":10944,"ĠinteligÃªncia":10945,"ĠobservaÃ§Ã£o":10946,"ght":10947,"Ġultimo":10948,"ĠfumaÃ§a":10949,"Ġobriga":10950,"ĠEduardo":10951,"ĠPantanal":10952,"ĠGregÃ³rio":10953,"Ġarquivo":10954,"Ġfugiu":10955,"ĠorientaÃ§Ã£o":10956,"terminar":10957,"Ġespalhando":10958,"Ġacompanhar":10959,"Miguel":10960,"buster":10961,"Ġaumentar":10962,"Ġelogiar":10963,"Ġberin":10964,"guiÃ§a":10965,"Ġencerrado":10966,"Ġsensor":10967,"Ġexplodiu":10968,"Ġorgulhoso":10969,"ĠkaraokÃª":10970,"Ġacostumei":10971,"Pensando":10972,"Ġesperto":10973,"ĠRISOS":10974,"Ġescorrendo":10975,"Baltazar":10976,"Whats":10977,"lockbuster":10978,"Ġessencial":10979,"Ġtornar":10980,"Ġnovamente":10981,"Ġmenstru":10982,"encontrar":10983,"ĠMilitar":10984,"Ġamiguinhos":10985,"ĠalimentaÃ§Ã£o":10986,"ĠUrgente":10987,"ĠHuck":10988,"ĠdisfarÃ§a":10989,"ĠÃ³rgÃ£os":10990,"ginÃ¡stica":10991,"Ġazedo":10992,"Ġmirra":10993,"ĠCremogema":10994,"ĠClark":10995,"Ã¢mela":10996,"Ġgravata":10997,"ĠmudanÃ§a":10998,"Ġacostumado":10999,"Ġassessor":11000,"Ġeternidade":11001,"Ġcriminal":11002,"ĠCaramba":11003,"ĠDrauzio":11004,"Ġamericano":11005,"Ġbaixinho":11006,"Ġbrilhante":11007,"ĠhidroginÃ¡stica":11008,"Abriu":11009,"Bolsonaro":11010,"zeleira":11011,"Ġcentavos":11012,"Ġfarofa":11013,"Ġbullying":11014,"Ġiguais":11015,"Ġilimitado":11016,"Ġsequestrado":11017,"ĠSAIU":11018,"Ġexpectativa":11019,"ight":11020,"ĠtÃ©rreo":11021,"ĠiFood":11022,"dificador":11023,"Ġiniciativa":11024,"cipiente":11025,"Ġdesigner":11026,"Ġcobertura":11027,"Ġxereca":11028,"DICION":11029,"Ġshort":11030,"ĠMaicon":11031,"ĠinÃºtil":11032,"ĠTocantins":11033,"ĠFILTROS":11034,"Ġliquidificador":11035,"rincadeira":11036,"Antigamente":11037,"glomera":11038,"ĠprivilÃ©gio":11039,"Ġatletas":11040,"Ġvaranda":11041,"Ġfitness":11042,"Ġbermuda":11043,"Ġestrogono":11044,"Ġcomorbidade":11045,"ĠDiego":11046,"Ġanabolizantes":11047,"Ġartificial":11048,"ĠlaboratÃ³rio":11049,"Ġembalagem":11050,"ĠpolÃªmico":11051,"Ġgalerinha":11052,"ĠIRMÃĥO":11053,"Ġingredientes":11054,"RVORE":11055,"wdfunding":11056,"ocalipse":11057,"Ġtelespec":11058,"Ġbumbum":11059,"ĠmatemÃ¡tica":11060,"ĠBETH":11061,"ĠFIFA":11062,"Ġperrengue":11063,"ĠcadÃ¡ver":11064,"ĠNOME":11065,"ĠKlÃ©ber":11066,"ĠGuanabara":11067,"xarifado":11068,"'m":11069,"37":11070,"45":11071,"76":11072,"?\",":11073,"Ap":11074,"Aper":11075,"Agrade":11076,"Apaga":11077,"Azul":11078,"Bia":11079,"Briga":11080,"Branca":11081,"Belize":11082,"CH":11083,"CL":11084,"CO":11085,"Caio":11086,"CEL":11087,"CrianÃ§a":11088,"CocÃ´":11089,"Das":11090,"DER":11091,"DIA":11092,"DEU":11093,"DRO":11094,"DIO":11095,"EG":11096,"Edu":11097,"EIN":11098,"FL":11099,"Fit":11100,"Flor":11101,"Ford":11102,"Gi":11103,"Gas":11104,"Geral":11105,"Gay":11106,"Gugu":11107,"GIO":11108,"Hmm":11109,"Hola":11110,"Helena":11111,"Igreja":11112,"JU":11113,"KK":11114,"KY":11115,"Ka":11116,"Kellen":11117,"Lin":11118,"Lon":11119,"LÃ³gico":11120,"LUQUINHAS":11121,"Mand":11122,"MÃģ":11123,"Ministro":11124,"Monstro":11125,"Michel":11126,"Maior":11127,"Nome":11128,"NDA":11129,"Pou":11130,"Pior":11131,"Put":11132,"Procura":11133,"Principalmente":11134,"Prende":11135,"RU":11136,"RIO":11137,"Risadas":11138,"Sil":11139,"SÃ©ri":11140,"Sandro":11141,"Sinto":11142,"Somos":11143,"Ts":11144,"TEM":11145,"TRO":11146,"TÃºlio":11147,"UI":11148,"UMA":11149,"Vinte":11150,"Zo":11151,"ZINHO":11152,"aos":11153,"ahhh":11154,"bido":11155,"bano":11156,"branÃ§a":11157,"brindo":11158,"ct":11159,"cin":11160,"cui":11161,"cÃº":11162,"cano":11163,"cinhas":11164,"cinhos":11165,"cinco":11166,"cÃ¢mbio":11167,"dul":11168,"dca":11169,"drada":11170,"dice":11171,"dilho":11172,"eh":11173,"ego":11174,"ever":11175,"eado":11176,"etos":11177,"egro":11178,"fra":11179,"fira":11180,"fundo":11181,"fona":11182,"fura":11183,"ges":11184,"gria":11185,"gger":11186,"ganhou":11187,"hy":11188,"hen":11189,"hom":11190,"hinhos":11191,"ile":11192,"iando":11193,"ider":11194,"ides":11195,"ioso":11196,"ifica":11197,"itiva":11198,"ividade":11199,"jur":11200,"jeita":11201,"jestade":11202,"ko":11203,"lson":11204,"ltima":11205,"lles":11206,"mundo":11207,"mÃªnia":11208,"nal":11209,"nou":11210,"nia":11211,"ninho":11212,"nice":11213,"nenhuma":11214,"pus":11215,"ppo":11216,"paro":11217,"panÃ§a":11218,"procura":11219,"rina":11220,"san":11221,"siu":11222,"tc":11223,"tto":11224,"tmo":11225,"tular":11226,"tÃŃvel":11227,"tÃªm":11228,"uÃ©":11229,"ugo":11230,"vinho":11231,"vana":11232,"vizar":11233,"vinhar":11234,"wood":11235,"xto":11236,"xas":11237,"xeu":11238,"xim":11239,"ylv":11240,"zei":11241,"¡Â°":11242,"®tre":11243,"Ã®tre":11244,"Ġ%":11245,"Ġ:":11246,"ĠÃª":11247,"ĠÃŃdo":11248,"Ģs":11249,"Ĥn":11250,"quad":11251,"Ġato":11252,"Ġades":11253,"Ġevid":11254,"Ġejac":11255,"Ġetc":11256,"Ġdic":11257,"Ġdil":11258,"Ġpil":11259,"Ġpulo":11260,"ĠpÃ©s":11261,"Ġcr":11262,"Ġcela":11263,"Ġcrus":11264,"ĠcentÃŃ":11265,"Ã£Ã£o":11266,"ted":11267,"teressante":11268,"Ġni":11269,"Ġnorte":11270,"ĠnÃºcleo":11271,"Ġmudo":11272,"Ġmonta":11273,"dovil":11274,"dorismo":11275,"Ġsand":11276,"Ġsani":11277,"Ġska":11278,"Ġsinteco":11279,"Ġvos":11280,"Ġvara":11281,"Ġvaro":11282,"Ġvomi":11283,"arte":11284,"ario":11285,"enÃ§as":11286,"endido":11287,"envol":11288,"entrando":11289,"ssivo":11290,"inamos":11291,"inamento":11292,"inense":11293,"Ã¡fico":11294,"Ã¡veis":11295,"orrÃŃvel":11296,"erente":11297,"erna":11298,"Ġfon":11299,"Ġfab":11300,"Ġfras":11301,"Ġfeira":11302,"Ġdegra":11303,"Ġdepi":11304,"Ġdelica":11305,"tocando":11306,"Ġox":11307,"Ġora":11308,"Ġoper":11309,"ances":11310,"anji":11311,"omia":11312,"omes":11313,"umon":11314,"umanji":11315,"alÃ¡":11316,"alÃ´":11317,"almo":11318,"alena":11319,"alguns":11320,"ĠtÃŃm":11321,"ocese":11322,"istica":11323,"istÃ³ria":11324,"istiu":11325,"ref":11326,"rega":11327,"dad":11328,"daquelas":11329,"hop":11330,"Ġumbigo":11331,"empre":11332,"ong":11333,"Ġteta":11334,"Ġtelha":11335,"Ġterem":11336,"Ġbis":11337,"Ġbig":11338,"Ġbene":11339,"eir":11340,"eice":11341,"Ġestal":11342,"ĠesforÃ§o":11343,"Ġesvaz":11344,"Ġestilo":11345,"out":11346,"outros":11347,"ouvir":11348,"Ġge":11349,"Ġgom":11350,"Ġgai":11351,"Ġgab":11352,"ĠgrÃ£o":11353,"ÃŃamos":11354,"ÃŃno":11355,"ÃŃli":11356,"ÃŃdio":11357,"ÃŃveis":11358,"levar":11359,"levando":11360,"quim":11361,"quiel":11362,"Ġcomentou":11363,"icho":11364,"iche":11365,"ichar":11366,"Ã§ul":11367,"Ã§aram":11368,"esque":11369,"escola":11370,"escrever":11371,"especial":11372,"ami":11373,"amigos":11374,"Ġil":11375,"Ġign":11376,"Ġironia":11377,"Ġleito":11378,"riu":11379,"riar":11380,"rive":11381,"Ġnotebook":11382,"ĠdoidÃ£o":11383,"ĠdoenÃ§as":11384,"gole":11385,"elÃ´":11386,"elli":11387,"eloso":11388,"gus":11389,"guir":11390,"Ġpran":11391,"Ġportugu":11392,"Ġporcelanato":11393,"ĠtemÃ¡tica":11394,"Ġtempinho":11395,"abu":11396,"Quais":11397,"ĠnaÃ§Ã£o":11398,"ĠfaÃ§am":11399,"Ġfaltou":11400,"Ġseparei":11401,"unci":11402,"Ġentu":11403,"Ġacento":11404,"Ġacion":11405,"Ġacusado":11406,"Ġconce":11407,"ĠconduÃ§Ã£o":11408,"Ġcongresso":11409,"Ġcontrib":11410,"Ġrel":11411,"Ġrema":11412,"Ġretro":11413,"Ġrever":11414,"Ġrevela":11415,"Ġretomar":11416,"ĠreferÃªncia":11417,"diom":11418,"didas":11419,"Ġemisso":11420,"Ġempode":11421,"Ġempada":11422,"Ġemagre":11423,"ĠCE":11424,"ĠCÃ¡":11425,"ĠConta":11426,"ĠClu":11427,"ĠCuri":11428,"ĠColo":11429,"ĠCrivella":11430,"Ġmatr":11431,"Ġmacar":11432,"ĠmaÃ®tre":11433,"ĠPen":11434,"ĠPrim":11435,"ĠPUTA":11436,"ĠPirul":11437,"ĠParanÃ¡":11438,"vaca":11439,"ĠAB":11440,"ĠAT":11441,"ĠAo":11442,"ĠAv":11443,"ĠAla":11444,"ĠAve":11445,"ĠAquela":11446,"ĠAMA":11447,"ĠAfora":11448,"ĠApaga":11449,"ĠAGORA":11450,"ĠADICION":11451,"ĠMD":11452,"ĠMc":11453,"ĠMin":11454,"ĠMam":11455,"ĠMus":11456,"ĠMES":11457,"ĠMÃ´nica":11458,"ĠMundial":11459,"ĠMocidade":11460,"ĠMERDA":11461,"ĠMaranhÃ£o":11462,"ĠDI":11463,"ĠDal":11464,"ĠDois":11465,"ĠDÃģ":11466,"ĠDias":11467,"ĠDorothy":11468,"oisas":11469,"Ġmean":11470,"Ġmeti":11471,"Ġmedico":11472,"Ġmetendo":11473,"Ġmetros":11474,"tarra":11475,"Ġfogos":11476,"Ġtoss":11477,"pagar":11478,"papel":11479,"tila":11480,"tiza":11481,"tipla":11482,"ĠShar":11483,"ĠSec":11484,"ĠSenta":11485,"ĠSula":11486,"ĠStories":11487,"usada":11488,"Ġdipl":11489,"Ġditado":11490,"Ġpoxa":11491,"Ġpaisa":11492,"Ġint":11493,"Ġindire":11494,"Especial":11495,"ĠTon":11496,"ĠTes":11497,"ĠThor":11498,"ĠTPM":11499,"ĠTour":11500,"ĠTÃºlio":11501,"catra":11502,"cadas":11503,"caÃŃno":11504,"Ġvirando":11505,"Ġvigia":11506,"Ġvizinha":11507,"Ġviemos":11508,"cora":11509,"copo":11510,"Ġalte":11511,"Ġalas":11512,"Ġalem":11513,"Ġalim":11514,"ĠBR":11515,"ĠBer":11516,"ĠBei":11517,"ĠBai":11518,"ĠBim":11519,"ĠBac":11520,"ĠBOM":11521,"ĠBaixa":11522,"ĠBOCA":11523,"ĠBlockbuster":11524,"rana":11525,"poss":11526,"poimento":11527,"potif":11528,"veram":11529,"Entrei":11530,"pede":11531,"peonato":11532,"pessoas":11533,"comida":11534,"Ġassinante":11535,"tenha":11536,"tentar":11537,"tenimento":11538,"tenegro":11539,"Ġsuce":11540,"Ġsupor":11541,"Ġsuru":11542,"trona":11543,"trobras":11544,"Ġvers":11545,"Ġverbal":11546,"ĠJuro":11547,"ĠJabor":11548,"garejo":11549,"ĠOU":11550,"ĠOMS":11551,"ĠRon":11552,"ĠRou":11553,"ĠRai":11554,"ĠRamos":11555,"ĠRub":11556,"ĠRivo":11557,"ĠRelaxa":11558,"ĠRÃ´mulo":11559,"ĠRamon":11560,"ĠVas":11561,"ĠVila":11562,"ĠVirgem":11563,"cioc":11564,"cidos":11565,"Ġserem":11566,"Ãºme":11567,"ĠFO":11568,"ĠFil":11569,"ĠFir":11570,"ĠFAR":11571,"ĠFÃ©rias":11572,"ĠFlum":11573,"ĠFeice":11574,"Ġperi":11575,"Ġpern":11576,"Ġperda":11577,"Ġperca":11578,"Ġpermite":11579,"Ġpereba":11580,"inato":11581,"Ġestourou":11582,"Ġdespre":11583,"Ġdesvi":11584,"Ġdesisto":11585,"Ġdesaba":11586,"Ġdestru":11587,"Ġdesistir":11588,"voz":11589,"Ġnet":11590,"Ġnego":11591,"Ġterror":11592,"Ġcade":11593,"Ġcaos":11594,"Ġcagado":11595,"Ġcapi":11596,"Ġcaceta":11597,"Ġcajado":11598,"Ġhol":11599,"Ġsenhorita":11600,"ĠLinha":11601,"ĠLON":11602,"ĠLADO":11603,"ĠtensÃ£o":11604,"Ġcase":11605,"Ġcasou":11606,"Ġcastigo":11607,"Ġcasados":11608,"ĠNOS":11609,"ĠNelson":11610,"ĠGU":11611,"ĠGi":11612,"ĠGar":11613,"ĠGas":11614,"ĠGaro":11615,"ĠGlau":11616,"ĠGNT":11617,"ĠEX":11618,"ĠEl":11619,"ĠEveraldo":11620,"veria":11621,"Ġfilmou":11622,"Ġfilmes":11623,"Ġfilminho":11624,"Ã§oquita":11625,"novo":11626,"noby":11627,"Complica":11628,"ruda":11629,"rubu":11630,"Ahhh":11631,"Ġtratamento":11632,"ĠtrajetÃ³ria":11633,"tÃ©rica":11634,"oraÃ§Ã£o":11635,"oraima":11636,"ĠprÃŃncipe":11637,"Ġpessoais":11638,"Ġexam":11639,"Ġexci":11640,"Ġexpor":11641,"Ġexpan":11642,"Ġexpedi":11643,"terÃ§a":11644,"Ġcarlos":11645,"Ġparceira":11646,"Ġparticular":11647,"ezinha":11648,"ezuela":11649,"Ġsouber":11650,"loÃ¡":11651,"imagina":11652,"ĠÃ³h":11653,"ĠEunice":11654,"Sejam":11655,"hernoby":11656,"Ġmenta":11657,"urgia":11658,"cona":11659,"conversa":11660,"Ġseguindo":11661,"Ġchef":11662,"Ġchegado":11663,"bato":11664,"baÃ§Ã£o":11665,"Ġmanu":11666,"ĠmanÃ©":11667,"Ġmanga":11668,"ĠmantÃ©m":11669,"Ġart":11670,"Ġardendo":11671,"Ġardil":11672,"Ġsuave":11673,"Ġtadinho":11674,"parando":11675,"Ġasfal":11676,"Ġastros":11677,"Ġchil":11678,"Ġchico":11679,"Ġchocada":11680,"Ġdiabo":11681,"Ġresf":11682,"Ġreserva":11683,"ĠmerrÃ©":11684,"Ġcorro":11685,"Ġcorrup":11686,"Ġcoreografia":11687,"ĠapÃ³s":11688,"Ġapron":11689,"Ġaplau":11690,"Ġescan":11691,"Ġescal":11692,"ĠescÃ¢n":11693,"toro":11694,"torial":11695,"Ġrala":11696,"Ġracha":11697,"harles":11698,"ĠÃĢs":11699,"ĠÃĤn":11700,"Ġtrin":11701,"Ġsaquinho":11702,"ensar":11703,"graf":11704,"ligar":11705,"pirando":11706,"piranga":11707,"ĠII":11708,"ĠIM":11709,"ĠIr":11710,"ĠIt":11711,"ĠIv":11712,"ĠIgual":11713,"ĠIDE":11714,"ĠIpiranga":11715,"Ġjoke":11716,"Ġjogos":11717,"Ġlac":11718,"Ġlav":11719,"Ġlapso":11720,"Ġtrabalhei":11721,"brada":11722,"Ġpousada":11723,"ĠpoupanÃ§a":11724,"ĠcanÃ§Ã£o":11725,"Ġcanudo":11726,"Ġcansei":11727,"ĠMarcia":11728,"ĠMarvel":11729,"ĠMarÃŃlia":11730,"ĠMarizete":11731,"necess":11732,"Ġmodem":11733,"ĠmoÃŃda":11734,"Ġmoderna":11735,"Ġcomediante":11736,"Ġcaralhos":11737,"Depende":11738,"âĢľ":11739,"âĢĿ":11740,"feria":11741,"temos":11742,"ĠUn":11743,"ĠUPA":11744,"ĠUlisses":11745,"Ġcoque":11746,"Ġcoentro":11747,"Ġcoleta":11748,"Ġcofre":11749,"Acaba":11750,"Ġpassam":11751,"ĠHD":11752,"ĠHÃ£":11753,"ĠHit":11754,"ĠHorda":11755,"ĠHeitor":11756,"Ġrodo":11757,"Ġroom":11758,"joga":11759,"Ġformas":11760,"Ġforne":11761,"ĠforÃ§ado":11762,"Ġimpl":11763,"ĠimpressÃ£o":11764,"ĠimÃ³vel":11765,"Ġimpuls":11766,"igÃ£o":11767,"Desce":11768,"Descobri":11769,"Ġacabo":11770,"ĠĠĠ":11771,"Ġluto":11772,"heia":11773,"Ġrendendo":11774,"respon":11775,"zinhos":11776,"Ġmargar":11777,"Ġacharam":11778,"Ġcup":11779,"Ġcubo":11780,"ĠWoo":11781,"ĠWhey":11782,"ĠWesley":11783,"ĠBrasileiro":11784,"chado":11785,"ches":11786,"Ġgraus":11787,"parecendo":11788,"ĠPaes":11789,"ĠlotÃ©rica":11790,"Ġconstr":11791,"ĠconspiraÃ§Ã£o":11792,"Ġmilit":11793,"anÃ§ado":11794,"Ġ37":11795,"Ġ39":11796,"ands":11797,"Ġvoa":11798,"Ġvozinha":11799,"Ġvodca":11800,"idaÃ§o":11801,"ĠdelaÃ§Ã£o":11802,"Ġduplas":11803,"adinha":11804,"queijÃ£o":11805,"visor":11806,"ĠCarmen":11807,"Tosse":11808,"ĠPede":11809,"ĠRoxo":11810,"ĠRolex":11811,"ĠRobin":11812,"ĠRodol":11813,"AAAH":11814,"ĠMax":11815,"ĠMato":11816,"ĠMaia":11817,"Ġvendido":11818,"Ġpoli":11819,"Ġesquete":11820,"ĠAlguÃ©m":11821,"ĠAline":11822,"ĠAlguma":11823,"Ġsabiam":11824,"foro":11825,"Ġcompensa":11826,"Ġcomprom":11827,"Ġplana":11828,"Ġpleno":11829,"Ġsegundinho":11830,"Ġpostei":11831,"vendendo":11832,"Ġpassarinho":11833,"Ġresolvo":11834,"ĠKleber":11835,"ĠKirk":11836,"Ġfudeu":11837,"Ġboneca":11838,"Ġsolo":11839,"Ġsolu":11840,"ĠsolidÃ£o":11841,"Ġbaiana":11842,"Ġcintura":11843,"Ġcinquenta":11844,"teiros":11845,"Ġdemanda":11846,"ĠEscor":11847,"Ġcurtiu":11848,"Ġolhe":11849,"Ġbrinque":11850,"Ġrecor":11851,"Ġrecurso":11852,"ĠNogueira":11853,"Ã©rico":11854,"Ã©rcito":11855,"Ġespec":11856,"Ġcontratou":11857,"ĠmuÃ§ul":11858,"Ġrapazeada":11859,"brother":11860,"Ġpipa":11861,"Ġpiran":11862,"Marcela":11863,"Outros":11864,"ĠorÃ§amento":11865,"Ġinscri":11866,"Ġinstalar":11867,"ssimos":11868,"Ġclar":11869,"Ġclicar":11870,"Ġbolas":11871,"Ġboliche":11872,"Ġtranspor":11873,"ĠtransferÃªncia":11874,"bitro":11875,"Ġmostrou":11876,"ĠCapi":11877,"ĠCacau":11878,"Ġassistia":11879,"corda":11880,"corta":11881,"Carnaval":11882,"Ġatrasa":11883,"Ġvapor":11884,"Ġvassou":11885,"Ãģlcool":11886,"Ġdistrib":11887,"Ġdistribu":11888,"ĠJoana":11889,"ĠRealmente":11890,"tilaser":11891,"ĠLuca":11892,"ĠLuana":11893,"Ġvacinado":11894,"ĠAnton":11895,"ĠAndrade":11896,"ĠAndrada":11897,"chos":11898,"Ġpastora":11899,"Ġespalha":11900,"Ġespanho":11901,"ĠSuelen":11902,"ĠSuÃ©cia":11903,"ĠLeva":11904,"ĠLevÃŃ":11905,"Ġlembrado":11906,"Ã¢mica":11907,"Ã¢mico":11908,"Confia":11909,"Concentra":11910,"Concordo":11911,"nior":11912,"ĠmÃ©dica":11913,"ĠmÃ©nage":11914,"Ġsons":11915,"Ġfechei":11916,"Ġinfeliz":11917,"Ġrecebo":11918,"Pergun":11919,"drÃµes":11920,"suas":11921,"tonar":11922,"ĠAmstel":11923,"celona":11924,"Ġdormiu":11925,"Ġtelef":11926,"Ġsurfar":11927,"ĠNeves":11928,"Ġchutar":11929,"Ġveem":11930,"ĠNacional":11931,"ĠSegu":11932,"Ġgolfinho":11933,"ENTA":11934,"ENTO":11935,"Ġgota":11936,"Ġgole":11937,"ĠGuar":11938,"Reforma":11939,"Reginaldo":11940,"ValÃ©ria":11941,"Ġaguinha":11942,"ĠsÃ©ries":11943,"ĠDead":11944,"Robson":11945,"Ġmandam":11946,"Ġmandaram":11947,"Ġritmo":11948,"ĠpalavrÃ£o":11949,"Ġbotaram":11950,"chete":11951,"chegando":11952,"Ġwi":11953,"Ġwit":11954,"Ġwhis":11955,"putados":11956,"Ġponho":11957,"ĠMedicina":11958,"Ġeleito":11959,"ĠbeijÃ£o":11960,"Ġchegava":11961,"Fodeu":11962,"Ġtroux":11963,"ING":11964,"Problema":11965,"Professora":11966,"tril":11967,"candidato":11968,"ment":11969,"Ġjunho":11970,"drez":11971,"cionais":11972,"Ġtomado":11973,"ĠcoraÃ§Ã£ozinho":11974,"Caguei":11975,"Caetano":11976,"Ġlindona":11977,"ĠLaur":11978,"Ġpapelzinho":11979,"Ġbracinho":11980,"Ġaproxima":11981,"ISTA":11982,"entistas":11983,"Ġtorta":11984,"Ġtorce":11985,"ĠtorÃ§o":11986,"Ġformato":11987,"ESS":11988,"ecause":11989,"miro":11990,"truÃ§Ã£o":11991,"Ġoff":11992,"Ġbalan":11993,"Ġbalas":11994,"Ġchove":11995,"trouxe":11996,"ĠprÃ³prias":11997,"OCURA":11998,"Ġuva":11999,"ĠAires":12000,"Ġnutr":12001,"enderam":12002,"ĠPraia":12003,"Ġadian":12004,"Ġadiantar":12005,"Ġbasicamente":12006,"lywood":12007,"ĠJandira":12008,"ette":12009,"ĠEntra":12010,"ĠArthur":12011,"HHH":12012,"Ġbuce":12013,"Ġbucal":12014,"ĠInÃ¡cio":12015,"ĠIngla":12016,"ĠIndonÃ©sia":12017,"Joana":12018,"ĠdomÃŃnio":12019,"ĠChu":12020,"Arrombado":12021,"Ġpulando":12022,"Ġdelici":12023,"ificar":12024,"Ġpiscar":12025,"Ġvesti":12026,"Ġjogava":12027,"Viva":12028,"Ġtreinando":12029,"Fique":12030,"omossexual":12031,"eidegger":12032,"ĠÃģRVORE":12033,"glic":12034,"Ġtextos":12035,"Ġcruzar":12036,"ĠDuarte":12037,"ĠBarros":12038,"Ġcomplicada":12039,"Ġimaginando":12040,"Ġrisca":12041,"Ġestresse":12042,"ĠpolÃŃticos":12043,"buqui":12044,"Ġestudar":12045,"Ġestudos":12046,"Ġestudei":12047,"ologista":12048,"ĠCongresso":12049,"Ġaprendendo":12050,"Ġtrigo":12051,"Ġ2017":12052,"Saulo":12053,"Ġagitada":12054,"ĠSimone":12055,"Ġdescobre":12056,"ĠSilas":12057,"Ġarrumei":12058,"Ġpreocupar":12059,"Ġprovavelmente":12060,"Ġapresento":12061,"ĠQueria":12062,"Ġencaixar":12063,"Ġquentinha":12064,"JÃºlio":12065,"Ġ97":12066,"ĠMandei":12067,"Cerveja":12068,"ĠsaÃŃa":12069,"ÃĩO":12070,"Ġatores":12071,"Ġfreela":12072,"Ġcolocado":12073,"Ġyoutuber":12074,"berar":12075,"aixou":12076,"Ġpreferir":12077,"Ġtrocadilho":12078,"mÃ¡tica":12079,"Ġurso":12080,"Ġburca":12081,"ĠCordovil":12082,"calho":12083,"Ġjustamente":12084,"ĠCastro":12085,"ĠCamp":12086,"Ġdiverte":12087,"Ġdivertindo":12088,"Ġandava":12089,"Ġremun":12090,"ĠPereira":12091,"ĠSolta":12092,"polis":12093,"saiu":12094,"Ġmontar":12095,"Tirar":12096,"ĠÃŃndios":12097,"Ġlutador":12098,"ĠPrefeitura":12099,"Ġprofissionais":12100,"Ġdesaparecer":12101,"ĠCristina":12102,"Ġquadra":12103,"ĠprincÃŃ":12104,"Ġprincesa":12105,"Ġdecide":12106,"ĠProjac":12107,"Ġliberou":12108,"Ġescrota":12109,"Ġmudaram":12110,"Ġpsico":12111,"Ġminim":12112,"Ġtrote":12113,"Ġconvidar":12114,"Ġconvidado":12115,"ĠalÃŃvio":12116,"GUE":12117,"Ġencosto":12118,"ĠFrank":12119,"ĠFrancesa":12120,"duzindo":12121,"ĠepisÃ³dios":12122,"Ġprostitu":12123,"Ġmovimenta":12124,"Ġcusto":12125,"Guarda":12126,"Ġoferecer":12127,"ĠDiabo":12128,"Ãºncia":12129,"ĠbarracÃ£o":12130,"Ġmexerica":12131,"Duvido":12132,"dimir":12133,"sabel":12134,"Ġbaseado":12135,"ĠcomissÃ£o":12136,"Ġrecomen":12137,"turno":12138,"discu":12139,"meiras":12140,"Ġjuventude":12141,"Ġmachucar":12142,"ĠtÃ©cnica":12143,"TIVO":12144,"dÃŃa":12145,"Ġpropina":12146,"ĠNADA":12147,"Ġescravos":12148,"Ġrelaxada":12149,"Ġidentificar":12150,"Ġcirc":12151,"Ġcirco":12152,"Ġcirurgia":12153,"Ġbloqueia":12154,"ĠromÃ£":12155,"Ġensina":12156,"Ġemoci":12157,"ĠYouTuber":12158,"ĠlocalizaÃ§Ã£o":12159,"ComeÃ§ou":12160,"Ġorganiza":12161,"Ġinteressado":12162,"assis":12163,"Ġfantasiado":12164,"Cleiton":12165,"Ġnovidades":12166,"ĠBebe":12167,"ĠBelÃ©m":12168,"AAAAAAAAAAAAAAAA":12169,"Importante":12170,"Judite":12171,"arginha":12172,"Ġbacon":12173,"Ġenrolar":12174,"Ġenrolando":12175,"Ġindig":12176,"Gostosa":12177,"Susana":12178,"fugir":12179,"iterno":12180,"Ġdetalhe":12181,"Ġenvolver":12182,"Ġacertar":12183,"Ġacertei":12184,"Ġmedidas":12185,"ĠsatisfaÃ§Ã£o":12186,"Interromp":12187,"Casamento":12188,"TRÃģ":12189,"crates":12190,"clama":12191,"peuzinho":12192,"Ġcumprim":12193,"Ġcumpri":12194,"Ġtacar":12195,"Ġesfregar":12196,"ĠPalÃ¡cio":12197,"ĠFiesta":12198,"Ġemocionado":12199,"IIII":12200,"Largados":12201,"bonara":12202,"purina":12203,"Ġincomoda":12204,"Ġcheirando":12205,"Ġadmira":12206,"Ġnomezinho":12207,"ĠPresta":12208,"ĠAlianÃ§a":12209,"Ġanterior":12210,"Ġcards":12211,"Ġaposto":12212,"oooooooooooooooo":12213,"Ġjustificar":12214,"Ġobservar":12215,"Ġultra":12216,"ĠHavan":12217,"ĠÃ¡rbitro":12218,"Ġconstrangimento":12219,"Ġinternacional":12220,"Ġinvestigada":12221,"Ġcrowdfunding":12222,"Ġpassear":12223,"ĠIsmÃªnia":12224,"Ġcolabora":12225,"Funcionou":12226,"Liber":12227,"uhan":12228,"uhuh":12229,"Ġmaracu":12230,"ĠcomentÃ¡rio":12231,"ĠSUB":12232,"Ġsugerir":12233,"ĠJack":12234,"ĠLacan":12235,"ĠadolescÃªncia":12236,"Ġafasta":12237,"Ġdesenvolver":12238,"Mija":12239,"Rua":12240,"Ġfrescura":12241,"ĠVenezuela":12242,"Ġdescansar":12243,"ĠespecÃŃfica":12244,"Ġhumilhar":12245,"ĠpirÃ¢mides":12246,"Ġpsicol":12247,"Ġacostumando":12248,"Pensei":12249,"VÃ¡rias":12250,"gÃªnero":12251,"Ġestrutural":12252,"Ġinverno":12253,"ĠViacom":12254,"aconteceu":12255,"ĠconstruÃ§Ã£o":12256,"Ġatravessa":12257,"ClÃ¡udia":12258,"MÃ¡rcio":12259,"Ġavaliar":12260,"Ġfraldinha":12261,"Ġtablet":12262,"Ġtaberna":12263,"Ġtorneira":12264,"ĠbÃ¡sica":12265,"ĠbÃ¡sico":12266,"Ġjeba":12267,"ĠMutantes":12268,"ĠDelÃŃcia":12269,"Ġinimigas":12270,"ĠprejuÃŃzo":12271,"petacular":12272,"Ġmensalidade":12273,"Ġpresidenta":12274,"ĠclÃŃnico":12275,"Consegui":12276,"Conseguiu":12277,"Putaria":12278,"PÃ©ra":12279,"Ġfluente":12280,"ĠMonique":12281,"ĠFerreira":12282,"Ġdesesperado":12283,"ĠLisboa":12284,"ĠÃ¡guia":12285,"PÃ¡tria":12286,"teralmente":12287,"emorando":12288,"ÃŃaco":12289,"Ġconfesso":12290,"ĠCOISA":12291,"ĠVarella":12292,"conversar":12293,"respons":12294,"ĠWhite":12295,"ĠWhindersson":12296,"ĠmudanÃ§as":12297,"Ġinstagram":12298,"ĠExcelentÃŃssimo":12299,"Primeiramente":12300,"Ġdiminuir":12301,"Ġdiminuiu":12302,"Basicamente":12303,"equili":12304,"maravilhoso":12305,"Quarenta":12306,"Ġencarar":12307,"ĠMoliterno":12308,"ĠJustiÃ§a":12309,"ĠOLHA":12310,"ĠconfirmaÃ§Ã£o":12311,"ĠdocumentÃ¡rio":12312,"justamente":12313,"ĠmÃºsicas":12314,"ĠsÃŃndica":12315,"Ġrevelar":12316,"Ġempolgado":12317,"ĠPÃ©ra":12318,"ĠASS":12319,"ĠMorais":12320,"Ġvibrador":12321,"ĠlÃ¡grimas":12322,"ĠRibeiro":12323,"Ġpertence":12324,"TANHA":12325,"ĠInternet":12326,"Ġtravesseiro":12327,"HEIRO":12328,"Ġatropel":12329,"Ġpiloto":12330,"Ġesportes":12331,"Ġcompadre":12332,"Ġaceitando":12333,"ĠconfortÃ¡vel":12334,"ĠRocinha":12335,"ĠGabi":12336,"ĠUSP":12337,"ĠHonda":12338,"Ġdesconhecido":12339,"ĠVanderboy":12340,"DelÃŃcia":12341,"aqueu":12342,"ĠÍ¡Â°":12343,"Ġdurmo":12344,"Ġninguem":12345,"Ġbigode":12346,"ĠSENHOR":12347,"ĠFAZ":12348,"Ġharmon":12349,"Ġexpliquei":12350,"perguntando":12351,"Ġimpacto":12352,"Ġreciclagem":12353,"ĠapareÃ§a":12354,"Ġtarefa":12355,"Parecia":12356,"Ġinfinito":12357,"Ġpropriedade":12358,"Ġcrossfit":12359,"Derruba":12360,"LÃºcia":12361,"Palmas":12362,"Ġxadrez":12363,"arriÃª":12364,"Ġfrouxo":12365,"Ġoculta":12366,"Ġenvergon":12367,"ĠparaÃŃso":12368,"ĠFerrari":12369,"vermec":12370,"ĠprÃªmio":12371,"Ġlegumes":12372,"Ġperformance":12373,"ĠAguinaga":12374,"Ġfigurino":12375,"Batman":12376,"Ġmicose":12377,"umbaya":12378,"digite":12379,"ĠPelados":12380,"ĠMONTANHA":12381,"ĠmetÃ¡fora":12382,"ĠJayna":12383,"cificamente":12384,"Ġcaverna":12385,"ĠcapÃŃtulo":12386,"ĠNutella":12387,"Ġchapisco":12388,"ĠresidÃªncia":12389,"Ġboneco":12390,"ĠFernandes":12391,"WhatsApp":12392,"Ġcriminalidade":12393,"Ġestrogonofe":12394,"Guguinha":12395,"MÃģCIA":12396,"Putz":12397,"cÃºrio":12398,"ylvana":12399,"ĠcentÃŃmetros":12400,"Ġskate":12401,"Ġgaita":12402,"Ġremake":12403,"ĠPirulei":12404,"ĠADICIONOU":12405,"Ġpaisagem":12406,"potify":12407,"ĠRivotril":12408,"ĠFARMÃģCIA":12409,"ĠFluminense":12410,"ĠFeicebuqui":12411,"Ġexpediente":12412,"hernobyl":12413,"Ġasfalto":12414,"ĠmerrÃ©is":12415,"ĠescÃ¢ndalo":12416,"ĠIDEIA":12417,"ĠWoody":12418,"ĠRodolfo":12419,"Ġcompromisso":12420,"Ġvassoura":12421,"Ġespanhol":12422,"ĠInglaterra":12423,"ĠprincÃŃpio":12424,"Interrompemos":12425,"!)":12426,"'.":12427,"'?":12428,").":12429,"23":12430,"24":12431,"70":12432,"800":12433,"?''":12434,"AP":12435,"Ae":12436,"Ara":12437,"Ama":12438,"Aquelas":12439,"Afinal":12440,"Augusto":12441,"Ajuda":12442,"Bus":12443,"BORA":12444,"CI":12445,"Ci":12446,"Cli":12447,"Caro":12448,"Cres":12449,"Cheiro":12450,"Curi":12451,"CARA":12452,"CIO":12453,"Dem":12454,"Don":12455,"Dos":12456,"Dorm":12457,"Donald":12458,"Eba":12459,"FA":12460,"FantÃ¡stico":12461,"FuracÃ£o":12462,"GE":12463,"GG":12464,"GRA":12465,"GEM":12466,"Globo":12467,"Geraldo":12468,"GÃªnio":12469,"Gritos":12470,"JÃģ":12471,"Jornal":12472,"Lis":12473,"Lula":12474,"Lat":12475,"LicenÃ§a":12476,"Mis":12477,"Mon":12478,"Mel":12479,"MÃ¡rio":12480,"Mila":12481,"Mama":12482,"Miriam":12483,"MoisÃ©s":12484,"Nar":12485,"Naice":12486,"NING":12487,"Oque":12488,"Obra":12489,"Ofer":12490,"OtÃ¡rio":12491,"OGO":12492,"Obriga":12493,"Pon":12494,"Pero":12495,"Palav":12496,"PEN":12497,"PEL":12498,"PUTA":12499,"Pelos":12500,"Plateia":12501,"Ros":12502,"RAAAA":12503,"Ramon":12504,"Sh":12505,"Sor":12506,"SÃŃ":12507,"Sam":12508,"Seus":12509,"SaÃŃ":12510,"SÃĵ":12511,"Senti":12512,"SIL":12513,"Senhoras":12514,"Tre":12515,"The":12516,"Tiro":12517,"Velho":12518,"VAI":12519,"VEL":12520,"Wal":12521,"Wilson":12522,"William":12523,"Wagner":12524,"XA":12525,"Zen":12526,"ZAR":12527,"aten":12528,"acompan":12529,"bor":12530,"brin":12531,"base":12532,"bacana":12533,"brica":12534,"beram":12535,"bosa":12536,"bemos":12537,"brinha":12538,"back":12539,"cÃ¡":12540,"cic":12541,"cria":12542,"cli":12543,"credi":12544,"cuidado":12545,"dÃ³":12546,"dÃ¡rio":12547,"dÃµes":12548,"dentes":12549,"dÃ©ia":12550,"ega":12551,"edia":12552,"efing":12553,"fen":12554,"fin":12555,"fel":12556,"fanho":12557,"flex":12558,"femin":12559,"fÃ³b":12560,"ganha":12561,"ginas":12562,"grÃ¡":12563,"gestÃ£o":12564,"grande":12565,"grupo":12566,"hem":12567,"hid":12568,"iqu":12569,"itÃ¡rio":12570,"itÃ©rio":12571,"jum":12572,"jalma":12573,"josa":12574,"kut":12575,"lÃŃb":12576,"licenÃ§a":12577,"mÃ©":12578,"mun":12579,"monte":12580,"melhor":12581,"mino":12582,"milson":12583,"nda":12584,"nam":12585,"nando":12586,"ning":12587,"nesta":12588,"nÃºm":12589,"nny":12590,"opera":12591,"obs":12592,"ogur":12593,"peito":12594,"prando":12595,"piada":12596,"pÃ¡tica":12597,"pÃºblica":12598,"rtar":12599,"rgula":12600,"sal":12601,"sche":12602,"tÃ£":12603,"tum":12604,"ticar":12605,"tala":12606,"tismo":12607,"tÃŃssimo":12608,"tlÃ¢n":12609,"ua":12610,"uf":12611,"uel":12612,"ube":12613,"ucou":12614,"vente":12615,"vimento":12616,"vice":12617,"wer":12618,"way":12619,"xÃ¡":12620,"xta":12621,"xes":12622,"xizinho":12623,"zas":12624,"zia":12625,"zeiro":12626,"zona":12627,"zuca":12628,"Â¡":12629,"Ġ+":12630,"ĠQ":12631,"Ġ00":12632,"Ġrisos":12633,"Ġ!!!":12634,"quÃªncias":12635,"Ġasso":12636,"Ġasa":12637,"Ġagon":12638,"Ġating":12639,"Ġaglomera":12640,"rapaz":12641,"Ġeg":12642,"Ġeti":12643,"Ġefica":12644,"Ġevolu":12645,"Ġdinh":12646,"Ġdicas":12647,"Ġpum":12648,"ĠpÃª":12649,"Ġpino":12650,"Ġpisa":12651,"ĠpÃ¢nico":12652,"Ġcle":12653,"ĠcÃ´":12654,"Ġcera":12655,"Ġcec":12656,"Ġcroc":12657,"Ġcenas":12658,"queta":12659,"querem":12660,"tele":12661,"teron":12662,"Ġnan":12663,"Ġnulo":12664,"Ġnesta":12665,"ĠnenÃ©m":12666,"Ġmun":12667,"Ġmicar":12668,"Ġmeli":12669,"ĠmÃ³r":12670,"Ġmone":12671,"Ġministra":12672,"Ã©ber":12673,"Ã©dios":12674,"Ġsar":12675,"Ġsamb":12676,"Ġsarada":12677,"Ġsmart":12678,"Ġsinais":12679,"Ġvom":12680,"Ġving":12681,"Ġvici":12682,"art":12683,"arista":12684,"arial":12685,"enos":12686,"encer":12687,"entam":12688,".....":12689,"ssss":12690,"ssinha":12691,"ssie":12692,"ssant":12693,"Ġqueira":12694,"ink":12695,"int":12696,"inÃ¡":12697,"inbo":12698,"inÃ¡rio":12699,"inaram":12700,"Ã¡til":12701,"Ã¡ticas":12702,"ort":12703,"oror":12704,"orgue":12705,"orÃ¢ncia":12706,"organ":12707,"errou":12708,"ergÃªncia":12709,"Ġfeu":12710,"Ġfera":12711,"Ġfoca":12712,"ĠfÃ³s":12713,"Ġfoco":12714,"Ġfaixa":12715,"Ġdetes":12716,"Ġdefeito":12717,"Ġdecote":12718,"tosse":12719,"torado":12720,"tocol":12721,"Ġosso":12722,"Ġola":12723,"Ġoita":12724,"Ġotim":12725,"ank":12726,"anca":12727,"anco":12728,"ombar":12729,"umos":12730,"umindo":12731,"alho":12732,"alina":12733,"Ġtru":12734,"Ġtron":12735,"Ġtchu":12736,"Ġtwee":12737,"ocre":12738,"ocos":12739,"ociaÃ§Ã£o":12740,"ĠÃ©s":12741,"ison":12742,"istente":12743,"istÃªncia":12744,"rec":12745,"recla":12746,"daÃŃ":12747,"daquela":12748,"rosso":12749,"rola":12750,"...''":12751,"Ġumede":12752,"empresa":12753,"ondo":12754,"onÃ´":12755,"ondas":12756,"Ġtecido":12757,"Ġtecla":12758,"Ġteremos":12759,"ĠbÃŃ":12760,"ĠbÃº":12761,"ĠblÃ¡":12762,"Ġbisa":12763,"Ġbaba":12764,"Ġboce":12765,"Ġbizar":12766,"Ġbingo":12767,"eixeira":12768,"ostas":12769,"Ġesfor":12770,"Ġestica":12771,"Ġesteira":12772,"ous":12773,"Ġgi":12774,"Ġgim":12775,"Ġgado":12776,"Ġgrito":12777,"ÃŃp":12778,"ÃŃas":12779,"ÃŃva":12780,"ÃŃdeo":12781,"ÃŃmen":12782,"ÃŃcula":12783,"iaba":12784,"Ġeuro":12785,"ledo":12786,"quila":12787,"arado":12788,"Ġcomem":12789,"Ġcombater":12790,"icÃ³":12791,"icinha":12792,"icitaÃ§Ã£o":12793,"Ã§Ã£":12794,"Ã³ca":12795,"Ã³lar":12796,"Ã³quio":12797,"Ġiogur":12798,"Ġleio":12799,"Ġlenda":12800,"Ġlombar":12801,"ÃīRIA":12802,"ritaria":12803,"Ġnotinha":12804,"ĠnotificaÃ§Ã£o":12805,"Ġdol":12806,"Ġdoer":12807,"Ġdobro":12808,"guai":12809,"Ġpraga":12810,"ilas":12811,"ileuza":12812,"Ġporte":12813,"Ġtempero":12814,"abil":12815,"abib":12816,"abulÃ¡rio":12817,"ssagem":12818,"Ġdada":12819,"Ġfalsa":12820,"unos":12821,"untos":12822,"unista":12823,"unilha":12824,"Ġenti":12825,"Ġenca":12826,"Ġencan":12827,"Ġenvelo":12828,"Ġacal":12829,"Ġacender":12830,"Ġacamp":12831,"Ġjale":12832,"gadinho":12833,"ulei":12834,"ulos":12835,"ulinha":12836,"ulito":12837,"Ġcond":12838,"Ġconfer":12839,"Ġcontem":12840,"Ġconjunto":12841,"Ġreb":12842,"Ġreper":12843,"Ġrebo":12844,"Ġrepro":12845,"Ġreformar":12846,"Ġreviver":12847,"Ġremoto":12848,"Ġrecipiente":12849,"ĠrequeijÃ£o":12850,"diga":12851,"dioca":12852,"dith":12853,"Ġembal":12854,"ĠemprÃ©stimo":12855,"ĠCH":12856,"ĠCr":12857,"ĠCÃ©":12858,"ĠCou":12859,"ĠCanta":12860,"ĠCham":12861,"ĠClay":12862,"ĠCuidado":12863,"ĠmaÃ§o":12864,"Ġmadrinha":12865,"ĠPS":12866,"ĠPern":12867,"ĠPlu":12868,"ĠPOS":12869,"ĠPUC":12870,"ĠPromo":12871,"ĠPCC":12872,"hete":12873,"ĠAR":12874,"ĠAter":12875,"ĠApro":12876,"ĠAÃį":12877,"ĠAULA":12878,"ĠAloÃŃsio":12879,"ĠATRÃģ":12880,"ĠAtlÃ¢n":12881,"ĠMO":12882,"ĠMOR":12883,"ĠMIL":12884,"ĠMINHA":12885,"ĠMiojo":12886,"ĠtÃ¡rtar":12887,"ĠDen":12888,"ĠDor":12889,"ĠDele":12890,"ĠDaÃŃ":12891,"ĠDaiane":12892,"ĠDjalma":12893,"ĠDÃ³lar":12894,"Ġmeto":12895,"Ġmega":12896,"Ġmetro":12897,"Ġmetal":12898,"Ġmetido":12899,"Ġmetel":12900,"ĠmedÃŃ":12901,"Ġfole":12902,"Ġtopa":12903,"Ġtopo":12904,"Ġtodinho":12905,"Ġtoquei":12906,"Ġtopete":12907,"pau":12908,"pago":12909,"pagou":12910,"passei":12911,"tite":12912,"ĠSr":12913,"ĠSher":12914,"ĠSOU":12915,"ĠSantar":12916,"ĠSocorro":12917,"ĠStron":12918,"ĠSKY":12919,"Ġelefante":12920,"ustÃ£o":12921,"usados":12922,"Ġamam":12923,"traficante":12924,"traZen":12925,"ioterapia":12926,"Ġdid":12927,"ĠdiÃ¡":12928,"Ġdito":12929,"ĠdiÃ¡ria":12930,"Ġposse":12931,"Ġpozinho":12932,"Ġcaracter":12933,"Ġpausa":12934,"Ġpatri":12935,"ĠpavÃª":12936,"ĠpatÃ©tico":12937,"Ġpatinete":12938,"ĠtubarÃ£o":12939,"Ġina":12940,"ĠinÃ©":12941,"Ġinve":12942,"Ġintri":12943,"Ġinicial":12944,"ĠindÃŃ":12945,"Ġinjusto":12946,"Espe":12947,"Esper":12948,"Escolhe":12949,"ĠTim":12950,"ĠTham":12951,"ĠTOC":12952,"ĠTorre":12953,"ĠTigre":12954,"ĠTeixeira":12955,"cap":12956,"causa":12957,"caxi":12958,"cadÃª":12959,"Ġsenso":12960,"covery":12961,"Ġalc":12962,"Ġaluno":12963,"Ġalcatra":12964,"Ġalunos":12965,"ĠBento":12966,"ĠBado":12967,"ĠBRA":12968,"ĠBEM":12969,"ĠBaixo":12970,"ĠBuda":12971,"ĠBill":12972,"ĠBlack":12973,"ĠBÃ¡rbara":12974,"ranÃ§as":12975,"randir":12976,"Quebra":12977,"pool":12978,"Ġprem":12979,"Ġpretas":12980,"Ġpregui":12981,"Ġpreparei":12982,"ceis":12983,"cele":12984,"pegando":12985,"peach":12986,"peak":12987,"pessoa":12988,"PorquÃª":12989,"compra":12990,"complica":12991,"comenda":12992,"comprou":12993,"Ġassuntos":12994,"Ġparadinho":12995,"Ġparando":12996,"Ġprofunda":12997,"tena":12998,"tenente":12999,"ĠsuÃŃ":13000,"Ġsuado":13001,"Ġverru":13002,"Ġverme":13003,"ĠJuma":13004,"ĠJerson":13005,"garro":13006,"Ġmesmas":13007,"ĠOri":13008,"ĠOlÃ¡":13009,"ĠOeste":13010,"ĠRG":13011,"ĠRala":13012,"ĠRock":13013,"ĠRichar":13014,"ĠVe":13015,"ĠVOL":13016,"ĠVisconde":13017,"ĠVeloso":13018,"portiva":13019,"portÃ¡vel":13020,"Ġservido":13021,"ĠFun":13022,"ĠFeito":13023,"ĠFrias":13024,"ĠFeli":13025,"ĠFranÃ§a":13026,"ĠFilha":13027,"ĠFlash":13028,"ĠFÃīRIA":13029,"Ġantic":13030,"Ġperman":13031,"Ġestourar":13032,"irinho":13033,"iromba":13034,"Ġdese":13035,"Ġdesm":13036,"Ġdesfi":13037,"Ġdescendo":13038,"Ġdescri":13039,"Ġdesodo":13040,"Ġdesbloque":13041,"Ġdeserto":13042,"vorada":13043,"ĠterÃ§as":13044,"Ġcaia":13045,"ĠcaÃ§":13046,"Ġcatando":13047,"Ġcapar":13048,"ĠcaÃ§ar":13049,"ĠcaÃŃdo":13050,"Ġcausando":13051,"Ġcavaco":13052,"Ġcapoeira":13053,"Ġsenhorinha":13054,"pression":13055,"ĠLar":13056,"ĠLum":13057,"ĠLos":13058,"ĠLinda":13059,"ĠLUQUINHAS":13060,"Ġbobe":13061,"Ġboiada":13062,"Ġboquete":13063,"Ġbombar":13064,"Ġbombom":13065,"Ġtento":13066,"Ġtenso":13067,"Ġtenham":13068,"izei":13069,"ĠNar":13070,"ĠNome":13071,"ĠNormal":13072,"ĠNEM":13073,"ĠNES":13074,"ĠNick":13075,"ĠNonÃ´":13076,"ĠGer":13077,"ĠGan":13078,"ĠGosta":13079,"ĠGOS":13080,"ĠGay":13081,"ĠGrÃ©":13082,"ĠGRAN":13083,"ĠGaleÃ£o":13084,"ĠElas":13085,"vert":13086,"verdade":13087,"saÃŃas":13088,"nossas":13089,"Comprou":13090,"ders":13091,"derruba":13092,"Ġtrai":13093,"Ġtrauma":13094,"Ġtratando":13095,"Ġtradu":13096,"ĠprÃ¡tica":13097,"Ġprendeu":13098,"igof":13099,"Ġexce":13100,"Ġexib":13101,"Ġcarto":13102,"Ġcarente":13103,"Ġcarim":13104,"Ġcaridade":13105,"Ġcarrinho":13106,"Ġcarteirinha":13107,"ĠcardÃŃa":13108,"Ġparque":13109,"vie":13110,"vier":13111,"vita":13112,"vides":13113,"viÃ¡ria":13114,"videos":13115,"cista":13116,"Ġsementinha":13117,"ĠliÃ§Ã£o":13118,"Ġlitera":13119,"Ġlixeira":13120,"ĠÃ³timos":13121,"Ġmental":13122,"Ġmendigos":13123,"Ġestam":13124,"Ġostra":13125,"Ġchegamos":13126,"bata":13127,"Ġmanas":13128,"Ġmanual":13129,"Ġmandioca":13130,"Ġarco":13131,"Ġargent":13132,"Ġhetero":13133,"marido":13134,"param":13135,"parada":13136,"Ġaspas":13137,"Ġchal":13138,"Ġchapa":13139,"Ġresistir":13140,"Ġresort":13141,"berta":13142,"Ġmercadinho":13143,"met":13144,"mega":13145,"metro":13146,"means":13147,"Ġcoro":13148,"Ġcortado":13149,"Ġcorpus":13150,"Ġapan":13151,"inhando":13152,"torno":13153,"Ġtios":13154,"Ġtigre":13155,"Ġrara":13156,"Ġrapi":13157,"Ġraios":13158,"harel":13159,"ĠÃĬ":13160,"Ġficarem":13161,"ecas":13162,"Ġsaidinha":13163,"ĠalianÃ§a":13164,"ĠalienÃŃ":13165,"peraÃ§Ã£o":13166,"lide":13167,"ligando":13168,"oito":13169,"oidra":13170,"perdeu":13171,"peridade":13172,"piu":13173,"piÃ³ca":13174,"Ġ250":13175,"ĠIgreja":13176,"ĠIvete":13177,"Ġjoguei":13178,"ĠlatÃ£o":13179,"Ġlamento":13180,"Ġlavada":13181,"Ġlateral":13182,"Ġpoucas":13183,"Ġcantora":13184,"Ġcancro":13185,"Ġvoltinha":13186,"neta":13187,"Ġmode":13188,"Ġmoles":13189,"Ġmotiva":13190,"Ġmotivos":13191,"Ġmorder":13192,"Ġmorcego":13193,"Pobre":13194,"Poderia":13195,"DepressÃ£o":13196,"ramento":13197,"triste":13198,"bleia":13199,"botou":13200,"Ġolhado":13201,"Ġolhava":13202,"ĠUOL":13203,"cero":13204,"risada":13205,"Ġcopa":13206,"Ġcobi":13207,"galo":13208,"dorm":13209,"Acorda":13210,"Ġpasseio":13211,"Ġpassiv":13212,"Ġmaleta":13213,"ĠmaldiÃ§Ã£o":13214,"ĠHÃ¡":13215,"ĠHal":13216,"ĠHEIN":13217,"ĠHeidegger":13218,"ĠcamelÃ´":13219,"seguro":13220,"seguranÃ§a":13221,"segundo":13222,"segunda":13223,"Ġbat":13224,"ĠPorsche":13225,"jogo":13226,"Ġforno":13227,"Ġformi":13228,"Ġimensa":13229,"Ġimpedir":13230,"Ġimedia":13231,"vares":13232,"tampa":13233,"Desa":13234,"Desculpe":13235,"Ġacabaram":13236,"ĠĠĊ":13237,"due":13238,"dual":13239,"dula":13240,"Ġbanner":13241,"faÃ§o":13242,"favor":13243,"Ġlutas":13244,"ĠajudÃ¡":13245,"Ġrender":13246,"ĠrÃ©plica":13247,"Ã³scopo":13248,"Ġmarcada":13249,"Ġconhecimento":13250,"ĠÃłquela":13251,"Ġpensaram":13252,"destina":13253,"Aline":13254,"Alguns":13255,"Ġcuzinho":13256,"ĠcuzÃ£o":13257,"Ġcoluna":13258,"ĠWilson":13259,"ĠWuhan":13260,"entada":13261,"Ġrude":13262,"chÃ£o":13263,"diaÃ§Ã£o":13264,"ĠgravaÃ§Ã£o":13265,"Ġmelhorou":13266,"?!?":13267,"ĠcomeÃ§am":13268,"ĠPaty":13269,"ĠPaÃ§oquita":13270,"Ġloop":13271,"adap":13272,"programa":13273,"Ġdirect":13274,"Ġbebi":13275,"Ġestarem":13276,"inaldo":13277,"Ġacontecem":13278,"Ġ32":13279,"Ġ33":13280,"Ġ36":13281,"Ġ38":13282,"ĠpaixÃ£o":13283,"andÃªs":13284,"Ġcontagem":13285,"Pessoa":13286,"Ġrespei":13287,"Pay":13288,"Pass":13289,"Passar":13290,"Ġiate":13291,"turada":13292,"Ġdeixam":13293,"Ġunivers":13294,"Ġunidos":13295,"Ġcaipi":13296,"Ġcaipira":13297,"visÃµes":13298,"Ġdaquilo":13299,"Botar":13300,"ĠCarmem":13301,"Ġperguntas":13302,"Ġperguntam":13303,"Totalmente":13304,"Ġpuro":13305,"Ġputinha":13306,"Ġfizemos":13307,"ĠPep":13308,"Ġprestam":13309,"ĠMaps":13310,"ĠfamÃŃli":13311,"ĠvÃŃcio":13312,"ĠvÃŃrgula":13313,"Ġvendas":13314,"Ġbarzinho":13315,"Ġgang":13316,"Ġabuso":13317,"Ġabusado":13318,"Ġabaixar":13319,"Ġprimeiras":13320,"ĠintercÃ¢mbio":13321,"Ġpolit":13322,"ĠpolÃªmica":13323,"Ġsalsic":13324,"bede":13325,"Ġfryer":13326,"Ġanotado":13327,"NatÃ¡lia":13328,"ĠComple":13329,"ĠComitÃª":13330,"Entendo":13331,"ÃĥE":13332,"estavam":13333,"ĠAlan":13334,"ĠAlÃª":13335,"Ãºstria":13336,"fique":13337,"Ġcalhou":13338,"Ġcalabresa":13339,"ÃŃnas":13340,"QUAL":13341,"ford":13342,"Ġacredite":13343,"Ġplus":13344,"Ġplantar":13345,"Ġpostal":13346,"vender":13347,"ĠKe":13348,"ĠKi":13349,"ĠKop":13350,"ĠrelatÃ³rios":13351,"Ġsoldado":13352,"Ġgafanho":13353,"Ġsuperior":13354,"Ġsuperpoder":13355,"Ġhistor":13356,"ket":13357,"Ġreplay":13358,"ĠEscar":13359,"ĠEspon":13360,"ĠEspetacular":13361,"ĠEstampa":13362,"Ġcurva":13363,"ĠolhÃ£o":13364,"Ġrecuso":13365,"Ġrecentemente":13366,"ĠNovo":13367,"Inveja":13368,"Interessante":13369,"renalina":13370,"Ġespeciais":13371,"Ġquartos":13372,"Ġcontrata":13373,"Ġmudei":13374,"Ġpoderoso":13375,"Ġpoderiam":13376,"Ġmoram":13377,"Ġmorador":13378,"Ġmoradores":13379,"Mariana":13380,"Ġdiferencial":13381,"ĠaparÃªncia":13382,"Ġnumero":13383,"Ġorelha":13384,"Ġinsinu":13385,"Ġinscre":13386,"Ġclich":13387,"ĠXer":13388,"Ġdoula":13389,"Ġassistido":13390,"Ġassistiu":13391,"Ġconfia":13392,"Ġfinalzinho":13393,"Carro":13394,"Leandro":13395,"Legenda":13396,"Ġexplico":13397,"Ġexplicando":13398,"voltar":13399,"voltou":13400,"Ġatrasou":13401,"Ã©sb":13402,"ĠcrianÃ§ada":13403,"Ġdistante":13404,"Ġdistan":13405,"Ġdiscreto":13406,"ĠLuisa":13407,"Ġimporto":13408,"Ġimportam":13409,"Ġabril":13410,"ĠAntunes":13411,"ĠAnarriÃª":13412,"ibil":13413,"viagem":13414,"ĠBody":13415,"Ġespel":13416,"Ġ47":13417,"ĠcorporaÃ§Ã£o":13418,"ĠSudÃ£o":13419,"ĠlicitaÃ§Ã£o":13420,"ĠLeague":13421,"Ġlimpou":13422,"Ġlembrava":13423,"TAL":13424,"ĠmÃ©todo":13425,"carado":13426,"Ġfecal":13427,"Ġfechando":13428,"Ġinformal":13429,"ĠValinhos":13430,"ernes":13431,"Ġrecebendo":13432,"Perce":13433,"drina":13434,"ĠmamÃ£o":13435,"ERVA":13436,"falo":13437,"ticaba":13438,"Ġtelefon":13439,"Ġsurdo":13440,"ĠNeg":13441,"ĠNeve":13442,"Ġchute":13443,"Ġchuvei":13444,"Ġchuveiro":13445,"Doze":13446,"ficos":13447,"Ġcorajosa":13448,"ĠSeis":13449,"endÃª":13450,"ENA":13451,"ENÃĩÃĥO":13452,"Senhores":13453,"ĠGue":13454,"ĠGuara":13455,"ĠGugu":13456,"Valtinho":13457,"Valdemar":13458,"Ġpirulito":13459,"presidente":13460,"Ġmoleques":13461,"Ġmolecada":13462,"Ġbrasileiros":13463,"Taca":13464,"Ġsorri":13465,"ĠhorÃ³scopo":13466,"ĠOswaldo":13467,"Ġmandato":13468,"Ġmandamentos":13469,"Ġadqui":13470,"Ġadvogada":13471,"Ġadicionar":13472,"ĠadversÃ¡rio":13473,"Ġadrenalina":13474,"Ġquesito":13475,"Ãºmes":13476,"Ġbeij":13477,"Embora":13478,"Fofo":13479,"Ġtrouxa":13480,"INNING":13481,"Provavelmente":13482,"zequiel":13483,"Ġcontinuo":13484,"Ġcontinuou":13485,"ĠJurandir":13486,"lux":13487,"luxo":13488,"Ġcachorrinho":13489,"menina":13490,"Ġengenheiro":13491,"ĠJÃºnior":13492,"Ġcoch":13493,"Ġconseguiria":13494,"Ġhater":13495,"Ġhabi":13496,"Ġhavia":13497,"Ġhavendo":13498,"Ġhappy":13499,"ĠRay":13500,"ĠRaÃ§a":13501,"ĠRapaz":13502,"ĠRapidÃ£o":13503,"Ġligava":13504,"Ġrealista":13505,"mann":13506,"tely":13507,"Ġjantando":13508,"doutor":13509,"Ġcomunicar":13510,"Maur":13511,"Ġcultural":13512,"Ġvimos":13513,"tidamente":13514,"Ġaprovar":13515,"Ġaprovado":13516,"Ġtortura":13517,"Ġbrilho":13518,"ĠavÃ³s":13519,"ĠavanÃ§ado":13520,"ĠcriaÃ§Ã£o":13521,"Ġbroto":13522,"Ġgorila":13523,"Ġlancha":13524,"Ġlanche":13525,"veitando":13526,"Ġgari":13527,"Ġformado":13528,"ESERVA":13529,"Ġfarda":13530,"Ġbaleado":13531,"Ġficha":13532,"Ġuh":13533,"ĠYpiÃ³ca":13534,"Ġadivinhar":13535,"Ġespada":13536,"entender":13537,"entendendo":13538,"Ġleitura":13539,"ĠleilÃ£o":13540,"lymar":13541,"RapidÃ£o":13542,"ĠJulinho":13543,"Ġguardo":13544,"Ġguardando":13545,"Ġguardado":13546,"Ġpeidou":13547,"Ġesteja":13548,"Ġnamorar":13549,"ĠĠĠĠĠĠĠĠĠĠĠĠ":13550,"Tomara":13551,"Ġpaninho":13552,"Ġdeficiente":13553,"Ġgritou":13554,"Ġgritaria":13555,"Ã³ricos":13556,"ĠFazer":13557,"ĠÃĶmega":13558,"Ġpulou":13559,"ifre":13560,"Ġpiscou":13561,"Ġpintei":13562,"Ġlargo":13563,"Ġknow":13564,"Ġtrepa":13565,"Ġtreinador":13566,"laynny":13567,"Ġrespondi":13568,"ĠreuniÃµes":13569,"Ġferram":13570,"Ġferrada":13571,"ĠalmoÃ§ou":13572,"ĠÃģgua":13573,"Ġafro":13574,"Ġafun":13575,"Ġafli":13576,"Ġfumou":13577,"Ġtextura":13578,"ĠcafÃ©zinho":13579,"ĠGloboNews":13580,"gans":13581,"pirar":13582,"ĠDuque":13583,"ĠDutra":13584,"ĠBarbosa":13585,"Explo":13586,"Ġmataram":13587,"Ġdescons":13588,"Ġdesconfi":13589,"Ġimagine":13590,"Ġriso":13591,"Ġcrescendo":13592,"Ġbaratinha":13593,"Ġestreia":13594,"Ġestressado":13595,"abrir":13596,"ĠabraÃ§ar":13597,"Ġprivado":13598,"Ġestupro":13599,"ĠConhe":13600,"ĠConrado":13601,"Ġcarregador":13602,"Ġabsor":13603,"Ġabsol":13604,"Copa":13605,"Ġyoga":13606,"ĠParque":13607,"Chico":13608,"Ġtrilha":13609,"ĠToledo":13610,"SaÃºde":13611,"ĠagÃªncia":13612,"tinni":13613,"Ġarrego":13614,"Ġprocurado":13615,"tishow":13616,"Ġ87":13617,"ĠLÃŃdia":13618,"Ġarrumando":13619,"icionista":13620,"Ġpunho":13621,"Ġpunhal":13622,"Ġsites":13623,"ĠirmÃ£s":13624,"ELHOR":13625,"ĠapresentaÃ§Ã£o":13626,"Ġtimes":13627,"Ġviolenta":13628,"Ġescritor":13629,"Ġcompletar":13630,"Direto":13631,"Diferente":13632,"Ġmistu":13633,"ĠmiserÃ¡vel":13634,"Ġconcurso":13635,"ĠAcabei":13636,"EITA":13637,"Ġpale":13638,"Lembrando":13639,"ĠdÃºvidas":13640,"Ġrefres":13641,"Ġreform":13642,"Ġrefrige":13643,"Ġreflexo":13644,"ICO":13645,"Ġequiv":13646,"Ġequipamento":13647,"ĠpÃ¡ginas":13648,"ĠBolÃŃvia":13649,"Certeza":13650,"LuÃŃsa":13651,"Ġzueira":13652,"ĠQualquer":13653,"ĠESTA":13654,"Ġplanejando":13655,"Ġespecialista":13656,"ĠespecializaÃ§Ã£o":13657,"ĠinvenÃ§Ã£o":13658,"Ġemprestar":13659,"Ġemprestei":13660,"Ġisola":13661,"ĠfrequÃªncia":13662,"Ġfreezer":13663,"ashion":13664,"Ġcolocam":13665,"Ġcolocaram":13666,"Ġganhamos":13667,"aixei":13668,"Ġidosa":13669,"Ġassaltado":13670,"Ġvagabundos":13671,"Ġurbana":13672,"Ġcreche":13673,"ĠburrÃ£o":13674,"ĠCoreia":13675,"ĠExÃ©rcito":13676,"idera":13677,"Ġgentil":13678,"Ġgeneral":13679,"ĠCampo":13680,"Ġnervosismo":13681,"Manu":13682,"pÃŃadas":13683,"Ġmontado":13684,"ĠCheque":13685,"ĠChefe":13686,"ĠCheguei":13687,"ĠPrecisa":13688,"Ġhere":13689,"Ġapagou":13690,"Ġdepende":13691,"Ġesquisita":13692,"ĠidÃ©ia":13693,"Ġquadrado":13694,"Ġquadrilha":13695,"comeÃ§ar":13696,"Mulheres":13697,"mermo":13698,"Ġvariar":13699,"Ġvarejo":13700,"Ġvariante":13701,"Ġfamosos":13702,"Ġdecidiu":13703,"Ġantigamente":13704,"Ġtentativa":13705,"Ġminto":13706,"Ġbien":13707,"Ġescondi":13708,"ĠDiscovery":13709,"Ġarranca":13710,"GUEI":13711,"GUÃīM":13712,"Ġdanado":13713,"Ġcouvert":13714,"ĠfÃ£s":13715,"omatop":13716,"Ġencostar":13717,"Acabar":13718,"duzido":13719,"Ġconfundir":13720,"Ġbabado":13721,"ĠDidi":13722,"Ġprosperidade":13723,"Ġdesempenho":13724,"Ġaproveitei":13725,"Ġatacante":13726,"Ġmemo":13727,"ĠSerqueira":13728,"ĠRenatinha":13729,"aaaaaaaa":13730,"Ġatira":13731,"ĠCello":13732,"ĠCelsinho":13733,"Ġpobres":13734,"ĠalgodÃ£o":13735,"Ġprometi":13736,"Ġprometeu":13737,"Ġbarraca":13738,"Laura":13739,"sabia":13740,"Ġtremer":13741,"Ġgaranto":13742,"Ġgarantida":13743,"ĠsÃ©timo":13744,"ĠjudÃ©ia":13745,"direita":13746,"Ġmachucou":13747,"ĠAchou":13748,"Ġassinada":13749,"ĠLivre":13750,"Ġmenores":13751,"Ġcaminhando":13752,"foram":13753,"ĠFazenda":13754,"Ġidentifico":13755,"Assal":13756,"Assiste":13757,"ULO":13758,"ULHER":13759,"Ġbloqueado":13760,"Ġcompartilha":13761,"Ġcompartilhando":13762,"ĠemoÃ§Ãµes":13763,"crianÃ§a":13764,"Ġensaio":13765,"Ġapoiar":13766,"Ġfluir":13767,"hahaha":13768,"Ġreconhecendo":13769,"Ġquinto":13770,"Ġquintas":13771,"Ġcartaz":13772,"Ġorganizada":13773,"Ġmusica":13774,"Ġmusiquinha":13775,"Ġexistem":13776,"Ġexistir":13777,"Ġlambu":13778,"Ġlambendo":13779,"Ġelimina":13780,"Ġoperar":13781,"ĠsecretÃ¡ria":13782,"ĠSantinni":13783,"ĠEdson":13784,"ĠEdileuza":13785,"Ġfilmado":13786,"Ġescutando":13787,"ImpossÃŃvel":13788,"Judas":13789,"Jussara":13790,"enciada":13791,"Ġbacharel":13792,"passado":13793,"Ġindiano":13794,"Gostoso":13795,"Ġarrepiado":13796,"Trans":13797,"futebol":13798,"ĠvocabulÃ¡rio":13799,"Ġjurados":13800,"ĠVIP":13801,"ĠVerdade":13802,"Ġgarrafinha":13803,"Fechado":13804,"Maluco":13805,"glesa":13806,"primeiro":13807,"primeira":13808,"Ġesfregando":13809,"Ġcontexto":13810,"ĠPalmeiras":13811,"ĠAstraZen":13812,"ĠVavÃ¡":13813,"ĠFiquei":13814,"Ġnegativa":13815,"HHHHHHHH":13816,"Solta":13817,"kyardi":13818,"pensar":13819,"Ġindecisa":13820,"Ġindeciso":13821,"Ġletras":13822,"Ġsinceridade":13823,"Ġcigarrinho":13824,"Trabalhar":13825,"Trabalhando":13826,"rÃŃveis":13827,"Ġefeitos":13828,"ĠcÃ³digo":13829,"ĠcÃ³digos":13830,"Ġmolhada":13831,"Ġmolhadinha":13832,"Ġfruto":13833,"ĠCerteza":13834,"ĠPlus":13835,"ĠAMO":13836,"ceramente":13837,"Ġantece":13838,"ĠLoren":13839,"consegue":13840,"Ġcaixinha":13841,"Ġobservando":13842,"pperwares":13843,"Camisa":13844,"Camila":13845,"zzzz":13846,"Ġapegado":13847,"Ġabajur":13848,"Ġabacaxi":13849,"ĠsÃŃfilis":13850,"Ġfolga":13851,"ĠconvenÃ§Ã£o":13852,"ĠTrabal":13853,"ĠFuturo":13854,"ĠLuigi":13855,"Ġapaixonada":13856,"Ġdiscutir":13857,"Ġmentirosa":13858,"ĠJarbas":13859,"ĠLondrina":13860,"livre":13861,"Ġabandonar":13862,"Ġorigem":13863,"Ġfrancesa":13864,"Ġdesemprego":13865,"IrmÃ£os":13866,"PERA":13867,"PlÃŃnio":13868,"dinn":13869,"Ġvinheta":13870,"enhagen":13871,"ĠSUA":13872,"ĠBrasis":13873,"ĠJacques":13874,"ĠLeme":13875,"Ġhigiene":13876,"Ġtraveco":13877,"Ġcurtidas":13878,"Conhece":13879,"Ruim":13880,"Serve":13881,"minton":13882,"Ġelogio":13883,"Ġpurinho":13884,"Ã£Ã£Ã£o":13885,"guarda":13886,"ĠCollec":13887,"ĠTODOS":13888,"Ġdescanso":13889,"precisar":13890,"Ġfamiliares":13891,"Ġpostagem":13892,"Ġhumilde":13893,"Ġ602":13894,"ĠpsicolÃ³gico":13895,"Ġexagera":13896,"Julia":13897,"Ġtambor":13898,"Ġteclado":13899,"Ġesperta":13900,"Ġengole":13901,"ĠCONS":13902,"tificado":13903,"ĠBuenos":13904,"ĠRIT":13905,"Ġanalis":13906,"Ġanalista":13907,"Ġcagava":13908,"ĠHollywood":13909,"Ġbatizado":13910,"Ġpesquisar":13911,"Ġatravessar":13912,"ĠinfecÃ§Ã£o":13913,"ĠrobÃ´s":13914,"Surpresa":13915,"ĠavaliaÃ§Ã£o":13916,"ĠessÃªncia":13917,"Ġgirar":13918,"Ġacumulando":13919,"ĠPEDAL":13920,"Ġindicar":13921,"ĠTomÃ©":13922,"tupir":13923,"Ġ1994":13924,"Ġhomossexualidade":13925,"PÃ©ss":13926,"lembra":13927,"ĠvascaÃŃno":13928,"Ġfacebook":13929,"ĠMontenegro":13930,"ĠSamara":13931,"irulipa":13932,"Ġdesesperada":13933,"ĠListerine":13934,"Ġboleto":13935,"trÃ³leo":13936,"Ġformula":13937,"ĠformulÃ¡rio":13938,"ĠconsideraÃ§Ã£o":13939,"Ġmilitares":13940,"Ġesquenta":13941,"Ġesquentar":13942,"Ġcabelinho":13943,"Ġderrepente":13944,"Danni":13945,"Futebol":13946,"ĠcemitÃ©rio":13947,"Ġdecorar":13948,"ĠencarnaÃ§Ã£o":13949,"Ġmagrinho":13950,"ĠPires":13951,"ĠMultilaser":13952,"ĠMultishow":13953,"Ġcapric":13954,"Ã¢meras":13955,"ĠHeal":13956,"Anota":13957,"PODE":13958,"Ġeternamente":13959,"ĠdÃ©bito":13960,"Ġcomemorar":13961,"undÃ¢ncia":13962,"ĠMachado":13963,"ĠeletrÃ´nico":13964,"Ġdiversas":13965,"Ġvideozinho":13966,"Ġalugar":13967,"Ġassustado":13968,"ĠJamir":13969,"ĠOlÃŃmpico":13970,"ĠOxum":13971,"ĠFreud":13972,"Ġtestemunho":13973,"Celso":13974,"Chamou":13975,"Finalmente":13976,"Ġstress":13977,"Ġstreaming":13978,"Ġenferm":13979,"Ġempate":13980,"ĠCebola":13981,"ĠPODE":13982,"ĠmecÃ¢nico":13983,"ĠSabia":13984,"ĠlÃ¡grima":13985,"ĠcatÃ³lica":13986,"ĠcatÃ³lico":13987,"Ġexclusividade":13988,"Ġcopiar":13989,"ĠorgÃ¢nico":13990,"Saudades":13991,"Ġfriendly":13992,"Documento":13993,"Jefferson":13994,"brasileiro":13995,"caramba":13996,"wlands":13997,"inanceiro":13998,"Ġbronze":13999,"Ġenxagu":14000,"Ġenxaqueca":14001,"Ġjornada":14002,"ĠClean":14003,"ĠPrÃŃncipe":14004,"ĠPicci":14005,"ĠPicPay":14006,"ĠBabaloo":14007,"Ġextrem":14008,"continuar":14009,"ĠusuÃ¡rios":14010,"Ġcuriosa":14011,"Ġcuriosidade":14012,"Ġvegana":14013,"Ġvegano":14014,"ĠJuliette":14015,"Ġxingar":14016,"Priscilla":14017,"Prontinho":14018,"Ġdrink":14019,"Ġpendura":14020,"recebendo":14021,"Ġespiri":14022,"Ġitaliana":14023,"ĠMALUC":14024,"ĠdestruiÃ§Ã£o":14025,"Ġparrudo":14026,"ĠMarcelinho":14027,"ĠHermanos":14028,"Ġbandeirinha":14029,"Ġrenome":14030,"Ġcolorido":14031,"ĠWars":14032,"ĠMagnum":14033,"ĠKadu":14034,"Preparados":14035,"Ġtornozeleira":14036,"Ġindepend":14037,"ĠGostosa":14038,"ĠSnapchat":14039,"Ġexecutiva":14040,"Baby":14041,"BALHO":14042,"suspiro":14043,"ĠdinÃ¢mica":14044,"ĠCIMA":14045,"ĠAdemilton":14046,"ĠDolly":14047,"Ã´meno":14048,"ĠSPINNING":14049,"ĠSantana":14050,"Ġdigital":14051,"ĠBorelli":14052,"ĠFrajado":14053,"Ġcategor":14054,"Ġirregular":14055,"Ġaplicar":14056,"Ġapontando":14057,"ristides":14058,"Ġcogumelo":14059,"ĠhistÃ³rico":14060,"Ġrecolher":14061,"Ġcabeceira":14062,"ĠaudiÃªncia":14063,"Ġdesenrolar":14064,"Ġlinguagem":14065,"ĠacessÃ³rio":14066,"ĠpublicitÃ¡ria":14067,"ĠjurÃŃdico":14068,"ĠÃ¢ngulo":14069,"Absoluta":14070,"FAMÃįLIA":14071,"Jair":14072,"Prometo":14073,"danapo":14074,"melinda":14075,"Ġatestado":14076,"Ġteimoso":14077,"escrito":14078,"Ġencorpado":14079,"Ġconquistar":14080,"ĠPirajÃ¡":14081,"ĠTech":14082,"ĠBOA":14083,"ĠRÃ¡pido":14084,"board":14085,"ĠUFRJ":14086,"Suzana":14087,"ĠhabilitaÃ§Ã£o":14088,"Ġquietinho":14089,"Candidata":14090,"ĠromÃ¢ntico":14091,"ĠJaqueline":14092,"Ġberinjela":14093,"Eduardo":14094,"Geralmente":14095,"Longe":14096,"SÃ©rie":14097,"ĠÃŃdolo":14098,"Ġadesivo":14099,"Ġvaroa":14100,"ĠignorÃ¢ncia":14101,"Ġemissora":14102,"ĠColosso":14103,"Ġmatric":14104,"ĠmacarrÃ£o":14105,"ĠMcDonald":14106,"ĠMamute":14107,"ĠShark":14108,"ĠalemÃ£o":14109,"ĠFirmino":14110,"Ġcapivara":14111,"Ġresfriado":14112,"Ġcorrupto":14113,"Ġaplaudir":14114,"ĠIvone":14115,"Ġmargarina":14116,"ĠconstrÃ³i":14117,"Ġinscritos":14118,"ĠAntonio":14119,"ĠLevÃŃtico":14120,"Ġwith":14121,"Ġwhisky":14122,"Ġnutricionista":14123,"ĠCampinas":14124,"Ġremunera":14125,"assistindo":14126,"responsabilidade":14127,"vermectina":14128,"Latino":14129,"lÃŃbrio":14130,"Ġetiqueta":14131,"Ġeficaz":14132,"Ġdinheirinho":14133,"ĠcecÃª":14134,"inbow":14135,"ororÃ³":14136,"ĠfÃ³sforo":14137,"reclamando":14138,"Ġacampamento":14139,"ĠClayton":14140,"ĠAterro":14141,"ĠATRÃģS":14142,"ĠtÃ¡rtaro":14143,"ĠmetelanÃ§a":14144,"ĠSantarÃ©m":14145,"Ġpatriar":14146,"Ġintriga":14147,"ĠindÃŃgena":14148,"ĠBadoo":14149,"peachment":14150,"ĠRichard":14151,"ĠFÃīRIAS":14152,"Ġdesodorante":14153,"ĠGrÃ©cia":14154,"Ġliteratura":14155,"Ġargentino":14156,"oidrato":14157,"ĠfamÃŃlias":14158,"ĠComplexo":14159,"ĠKopenhagen":14160,"ĠEsponja":14161,"ĠclichÃª":14162,"ESERVATIVO":14163,"ĠAstraZeneca":14164,"kyardigans":14165,"ĠCollective":14166,"!,":14167,"!\".":14168,"#@":14169,"%,":14170,"),":14171,"13":14172,"17":14173,"21":14174,"29":14175,"89":14176,"99":14177,";*":14178,"@#$%":14179,"Aque":14180,"Assa":14181,"Adi":14182,"Ateu":14183,"Atira":14184,"Adeus":14185,"BE":14186,"BO":14187,"Ben":14188,"Bosta":14189,"Babaca":14190,"Bale":14191,"Branco":14192,"BenÃ©":14193,"Cra":14194,"Cum":14195,"Cre":14196,"Cho":14197,"Cos":14198,"Ces":14199,"Cidade":14200,"Cris":14201,"Chora":14202,"CAL":14203,"CAR":14204,"CÃĬ":14205,"CAN":14206,"CON":14207,"CÃ¡tia":14208,"CRE":14209,"CPM":14210,"Cruz":14211,"Dra":14212,"Digo":14213,"Doi":14214,"DEI":14215,"Demora":14216,"EZ":14217,"EloÃ¡":14218,"Fla":14219,"Fes":14220,"Foca":14221,"Folha":14222,"Finge":14223,"Ficam":14224,"GB":14225,"Gen":14226,"Garo":14227,"Get":14228,"Her":14229,"Hom":14230,"Heitor":14231,"HorrÃŃvel":14232,"HAAAAAAAAAAAAAAAA":14233,"IB":14234,"IV":14235,"Ina":14236,"IDO":14237,"IQUE":14238,"Jar":14239,"Jor":14240,"Jam":14241,"Jennifer":14242,"Kid":14243,"LÃª":14244,"Lindo":14245,"LÃŃvia":14246,"Lacan":14247,"MM":14248,"MÃ©":14249,"Mes":14250,"Mul":14251,"MENTE":14252,"Mestre":14253,"Musica":14254,"Ner":14255,"Normal":14256,"NOS":14257,"Net":14258,"Nabote":14259,"Nenhuma":14260,"Ol":14261,"Ow":14262,"Ode":14263,"Olho":14264,"ObjeÃ§Ã£o":14265,"Pan":14266,"Pes":14267,"Pir":14268,"Pena":14269,"Prem":14270,"PAR":14271,"Play":14272,"PRO":14273,"Pff":14274,"Pique":14275,"Piroca":14276,"Reu":14277,"SS":14278,"Sente":14279,"Sun":14280,"SÃŃn":14281,"Shh":14282,"Scan":14283,"Sat":14284,"SÃ´nia":14285,"SÃ¡bado":14286,"Tr":14287,"Tam":14288,"TÃªm":14289,"TER":14290,"Tentando":14291,"Tabet":14292,"Ui":14293,"Uni":14294,"VAL":14295,"Vende":14296,"VOU":14297,"Vasco":14298,"Veja":14299,"We":14300,"Xuxa":14301,"Yeah":14302,"ZA":14303,"ZÃ©":14304,"Zero":14305,"Zueira":14306,"__":14307,"ae":14308,"af":14309,"aum":14310,"adi":14311,"aÃ§a":14312,"atr":14313,"aju":14314,"apos":14315,"ahh":14316,"aÃ§Ãµes":14317,"aparece":14318,"apaga":14319,"bos":14320,"bun":14321,"bac":14322,"beijo":14323,"bby":14324,"cm":14325,"cle":14326,"cus":14327,"cÃ¡rio":14328,"cing":14329,"cusa":14330,"camente":14331,"cemos":14332,"crÃ©":14333,"cÃºn":14334,"centos":14335,"cuse":14336,"dras":14337,"dÃŃcio":14338,"dÃ¢ncia":14339,"dilha":14340,"ddy":14341,"dense":14342,"eis":14343,"eva":14344,"eci":14345,"exa":14346,"econ":14347,"fem":14348,"fam":14349,"figo":14350,"fiado":14351,"fuso":14352,
[...]
